{
  "version": "1.0",
  "truncation": null,
  "padding": null,
  "added_tokens": [
    {
      "id": 0,
      "content": "<pad>",
      "single_word": false,
      "lstrip": false,
      "rstrip": false,
      "normalized": false,
      "special": true
    },
    {
      "id": 1,
      "content": "<s>",
      "single_word": false,
      "lstrip": false,
      "rstrip": false,
      "normalized": false,
      "special": true
    },
    {
      "id": 2,
      "content": "</s>",
      "single_word": false,
      "lstrip": false,
      "rstrip": false,
      "normalized": false,
      "special": true
    },
    {
      "id": 3,
      "content": "<unk>",
      "single_word": false,
      "lstrip": false,
      "rstrip": false,
      "normalized": false,
      "special": true
    }
  ],
  "normalizer": null,
  "pre_tokenizer": {
    "type": "Whitespace"
  },
  "post_processor": null,
  "decoder": null,
  "model": {
    "type": "BPE",
    "dropout": null,
    "unk_token": "<unk>",
    "continuing_subword_prefix": null,
    "end_of_word_suffix": null,
    "fuse_unk": false,
    "byte_fallback": false,
    "ignore_merges": false,
    "vocab": {
      "<pad>": 0,
      "<s>": 1,
      "</s>": 2,
      "<unk>": 3,
      "!": 4,
      "\"": 5,
      "$": 6,
      "%": 7,
      "&": 8,
      "'": 9,
      "(": 10,
      ")": 11,
      "*": 12,
      "+": 13,
      ",": 14,
      "-": 15,
      ".": 16,
      "/": 17,
      "0": 18,
      "1": 19,
      "2": 20,
      "3": 21,
      "4": 22,
      "5": 23,
      "6": 24,
      "7": 25,
      "8": 26,
      "9": 27,
      ":": 28,
      ";": 29,
      "?": 30,
      "@": 31,
      "A": 32,
      "B": 33,
      "C": 34,
      "D": 35,
      "E": 36,
      "F": 37,
      "G": 38,
      "H": 39,
      "I": 40,
      "J": 41,
      "K": 42,
      "L": 43,
      "M": 44,
      "N": 45,
      "O": 46,
      "P": 47,
      "Q": 48,
      "R": 49,
      "S": 50,
      "T": 51,
      "U": 52,
      "V": 53,
      "W": 54,
      "X": 55,
      "Y": 56,
      "Z": 57,
      "]": 58,
      "_": 59,
      "a": 60,
      "b": 61,
      "c": 62,
      "d": 63,
      "e": 64,
      "f": 65,
      "g": 66,
      "h": 67,
      "i": 68,
      "j": 69,
      "k": 70,
      "l": 71,
      "m": 72,
      "n": 73,
      "o": 74,
      "p": 75,
      "q": 76,
      "r": 77,
      "s": 78,
      "t": 79,
      "u": 80,
      "v": 81,
      "w": 82,
      "x": 83,
      "y": 84,
      "z": 85,
      "~": 86,
      "­": 87,
      "·": 88,
      "º": 89,
      "¼": 90,
      "½": 91,
      "Ô": 92,
      "à": 93,
      "á": 94,
      "â": 95,
      "é": 96,
      "ê": 97,
      "í": 98,
      "ò": 99,
      "ó": 100,
      "ô": 101,
      "ü": 102,
      "ý": 103,
      "ă": 104,
      "Đ": 105,
      "đ": 106,
      "ũ": 107,
      "ơ": 108,
      "ư": 109,
      "̀": 110,
      "ກ": 111,
      "ຂ": 112,
      "ຄ": 113,
      "ງ": 114,
      "ຈ": 115,
      "ຊ": 116,
      "ຍ": 117,
      "ດ": 118,
      "ຕ": 119,
      "ຖ": 120,
      "ທ": 121,
      "ນ": 122,
      "ບ": 123,
      "ປ": 124,
      "ຜ": 125,
      "ຝ": 126,
      "ພ": 127,
      "ຟ": 128,
      "ມ": 129,
      "ຢ": 130,
      "ຣ": 131,
      "ລ": 132,
      "ວ": 133,
      "ສ": 134,
      "ຫ": 135,
      "ອ": 136,
      "ຮ": 137,
      "ຯ": 138,
      "ະ": 139,
      "ັ": 140,
      "າ": 141,
      "ຳ": 142,
      "ິ": 143,
      "ີ": 144,
      "ຶ": 145,
      "ື": 146,
      "ຸ": 147,
      "ູ": 148,
      "ົ": 149,
      "ຼ": 150,
      "ຽ": 151,
      "ເ": 152,
      "ແ": 153,
      "ໂ": 154,
      "ໃ": 155,
      "ໄ": 156,
      "ໆ": 157,
      "່": 158,
      "້": 159,
      "໊": 160,
      "໋": 161,
      "໌": 162,
      "ໍ": 163,
      "ໜ": 164,
      "ໝ": 165,
      "ạ": 166,
      "Ả": 167,
      "ả": 168,
      "ấ": 169,
      "ầ": 170,
      "ẩ": 171,
      "ậ": 172,
      "ặ": 173,
      "ế": 174,
      "ề": 175,
      "ể": 176,
      "ễ": 177,
      "ệ": 178,
      "ị": 179,
      "ố": 180,
      "ồ": 181,
      "ổ": 182,
      "ộ": 183,
      "ớ": 184,
      "ủ": 185,
      "ứ": 186,
      "​": 187,
      "–": 188,
      "’": 189,
      "“": 190,
      "”": 191,
      "…": 192,
      "₤": 193,
      "€": 194,
      "﻿": 195,
      "ານ": 196,
      "ັນ": 197,
      "ປະ": 198,
      "ການ": 199,
      "ອງ": 200,
      "່າ": 201,
      "ລະ": 202,
      "ັດ": 203,
      "າມ": 204,
      "20": 205,
      "ັບ": 206,
      "ໃນ": 207,
      "ດ້": 208,
      "້າ": 209,
      "້ນ": 210,
      "ທີ": 211,
      "ປີ": 212,
      "ສະ": 213,
      "່ງ": 214,
      "າຍ": 215,
      "າດ": 216,
      "ບັນ": 217,
      "ິດ": 218,
      "ົນ": 219,
      "ໄດ້": 220,
      "ຫວ": 221,
      "ຂອງ": 222,
      "ື່": 223,
      "ແລະ": 224,
      "201": 225,
      "ອນ": 226,
      "ົງ": 227,
      "ພາ": 228,
      "່ນ": 229,
      "ນາມ": 230,
      "ຽດ": 231,
      "ເທ": 232,
      "ຫວຽດ": 233,
      "ມີ": 234,
      "່ວ": 235,
      "ັງ": 236,
      "ວ່າ": 237,
      "ທີ່": 238,
      "ັກ": 239,
      "ແມ": 240,
      "ເລ": 241,
      "ອກ": 242,
      "ໃຫ": 243,
      "00": 244,
      "່ານ": 245,
      "ເມ": 246,
      "້ງ": 247,
      "ື່ອ": 248,
      "ຸດ": 249,
      "ແມ່ນ": 250,
      "່າງ": 251,
      "ເທດ": 252,
      "ູ່": 253,
      "ັ້ນ": 254,
      "າກ": 255,
      "ຫວຽດນາມ": 256,
      "ຖະ": 257,
      "ິນ": 258,
      "ເພ": 259,
      "ດາ": 260,
      "ທະ": 261,
      "າງ": 262,
      "ເຂ": 263,
      "ັ້ງ": 264,
      "ຫຼ": 265,
      "ໍ່": 266,
      "ວັນ": 267,
      "ມາ": 268,
      "ກັບ": 269,
      "ອບ": 270,
      "ເປ": 271,
      "ຢູ່": 272,
      "ເສ": 273,
      "ົ້າ": 274,
      "ອາ": 275,
      "ລັດ": 276,
      "ແຕ": 277,
      "ທ່ານ": 278,
      "ື້": 279,
      "ົດ": 280,
      "ນີ": 281,
      "ໃຫ້": 282,
      "ເປັນ": 283,
      "ກ່": 284,
      "​​": 285,
      "ລົງ": 286,
      "ກິດ": 287,
      "ຽນ": 288,
      "ແຫ": 289,
      "ນະ": 290,
      "ຮັບ": 291,
      "ູ້": 292,
      "ອດ": 293,
      "່ມ": 294,
      "ຄວ": 295,
      "ພາບ": 296,
      "ສາ": 297,
      "ຕີ": 298,
      "ແຕ່": 299,
      "ລິ": 300,
      "ລ້": 301,
      "ລຸ": 302,
      "ຂຶ": 303,
      "ວນ": 304,
      "ຂຶ້ນ": 305,
      "ຽວ": 306,
      "ເດ": 307,
      "US": 308,
      "ນາ": 309,
      "ນັ້ນ": 310,
      "ົວ": 311,
      "ແຫ່ງ": 312,
      "USD": 313,
      "ິງ": 314,
      "ອອກ": 315,
      "ວຍ": 316,
      "ບັນດາ": 317,
      "ຈະ": 318,
      "ົກ": 319,
      "ຄວາມ": 320,
      "ຄົນ": 321,
      "ເກ": 322,
      "ຕັ້ງ": 323,
      "ລາ": 324,
      "ເສດ": 325,
      "ຸມ": 326,
      "ຈຳ": 327,
      "ດ້ວຍ": 328,
      "ຕິ": 329,
      "ຕື້": 330,
      "ີ່ມ": 331,
      "ທິ": 332,
      "ເມື່ອ": 333,
      "ສົ": 334,
      "ເຊ": 335,
      "້າງ": 336,
      "ກຳ": 337,
      "ເຂົ້າ": 338,
      "ເງ": 339,
      "ຫລ": 340,
      "ູນ": 341,
      "ທຶ": 342,
      "ໄລ": 343,
      "ຊາ": 344,
      "ືອນ": 345,
      "ຕາ": 346,
      "ຢ່າງ": 347,
      "ດັບ": 348,
      "ທຶນ": 349,
      "ດີ": 350,
      "ກາ": 351,
      "ມານ": 352,
      "ົບ": 353,
      "ກວ່າ": 354,
      "ບໍ": 355,
      "ເພີ່ມ": 356,
      "ເງິນ": 357,
      "ໝາຍ": 358,
      "ສ້າງ": 359,
      "ນີ້": 360,
      "ງານ": 361,
      "ເດືອນ": 362,
      "ຮ່ວ": 363,
      "ວມ": 364,
      "ຊາດ": 365,
      "ປະເທດ": 366,
      "້ອງ": 367,
      "ຊຸມ": 368,
      "ສຳ": 369,
      "ຮ່ວມ": 370,
      "ກະ": 371,
      "19": 372,
      "ບັນລຸ": 373,
      "ກອງ": 374,
      "ຫະ": 375,
      "an": 376,
      "ກັນ": 377,
      "ຍະ": 378,
      "ວິ": 379,
      "ຊີ": 380,
      "ເຖ": 381,
      "ຜູ້": 382,
      "ົມ": 383,
      "ເຖິງ": 384,
      "ໂຕ": 385,
      "ໂລ": 386,
      "ຈາກ": 387,
      "ເຈ": 388,
      "ນວນ": 389,
      "ເອ": 390,
      "ພັນ": 391,
      "ຽງ": 392,
      "ມະ": 393,
      "ກ່ຽວ": 394,
      "000": 395,
      "ຄ້າ": 396,
      "ຍາ": 397,
      "ົາ": 398,
      "ສ່": 399,
      "ເພື່ອ": 400,
      "ເຂດ": 401,
      "ເຫ": 402,
      "ທານ": 403,
      "ລັດຖະ": 404,
      "ຕະ": 405,
      "ິກ": 406,
      "ຄື": 407,
      "ົ້ນ": 408,
      "10": 409,
      "ເຮ": 410,
      "ຸກ": 411,
      "ຖື": 412,
      "ທຳ": 413,
      "ນຳ": 414,
      "ຂະ": 415,
      "ໃສ່": 416,
      "ເຕີ": 417,
      "ຕາມ": 418,
      "ຄັ້ງ": 419,
      "ລ້ານ": 420,
      "on": 421,
      "ບັດ": 422,
      "ວງ": 423,
      "ເວ": 424,
      "ຮອດ": 425,
      "ຄະ": 426,
      "ສົ່ງ": 427,
      "ສຸດ": 428,
      "ຜົນ": 429,
      "ຽບ": 430,
      "in": 431,
      "ູງ": 432,
      "ປະທານ": 433,
      "ຫາ": 434,
      "ຖະກິດ": 435,
      "ຈຸ": 436,
      "ໂລກ": 437,
      "ເສດຖະກິດ": 438,
      "ຕໍ່": 439,
      "2020": 440,
      "ຄາດ": 441,
      "ເຄ": 442,
      "ຊົນ": 443,
      "ີນ": 444,
      "ັ່ງ": 445,
      "ໂດ": 446,
      "ື້ນ": 447,
      "ຫນ": 448,
      "ຍອດ": 449,
      "ປະມານ": 450,
      "ໂຄ": 451,
      "ລະດັບ": 452,
      "ບໍ່": 453,
      "ສູງ": 454,
      "່ວນ": 455,
      "ຖານ": 456,
      "ທາງ": 457,
      "ິ່ງ": 458,
      "ໄລຍະ": 459,
      "ນັກ": 460,
      "ກໍ່": 461,
      "ສ່ວນ": 462,
      "ພັດ": 463,
      "້ອ": 464,
      "ທຽບ": 465,
      "ຍ່": 466,
      "ພະ": 467,
      "ປະຊຸມ": 468,
      "2016": 469,
      "ປະກ": 470,
      "ໂຄງ": 471,
      "2017": 472,
      "ຈຳນວນ": 473,
      "er": 474,
      "ເລື": 475,
      "ືອບ": 476,
      "ສັນ": 477,
      "ມົນ": 478,
      "ຕ່າງ": 479,
      "ໜ້າ": 480,
      "ຜ່ານ": 481,
      "່າຍ": 482,
      "ເຕີບ": 483,
      "ໄປ": 484,
      "ເລືອກ": 485,
      "ພິ": 486,
      "ແຜ": 487,
      "ຶ່ງ": 488,
      "ໃຫຍ່": 489,
      "ພື້ນ": 490,
      "ຍັງ": 491,
      "ອີ": 492,
      "ຕົ້ນ": 493,
      "ນັບ": 494,
      "ສິດ": 495,
      "ມື": 496,
      "ຖືກ": 497,
      "ດຳ": 498,
      "ພາຍ": 499,
      "ຄົມ": 500,
      "200": 501,
      "ສະພາ": 502,
      "DP": 503,
      "ກໍ": 504,
      "ພັກ": 505,
      "່າວ": 506,
      "ເກືອບ": 507,
      "ໂດຍ": 508,
      "ຈັດ": 509,
      "ືອງ": 510,
      "GDP": 511,
      "ວັດ": 512,
      "ແລ້": 513,
      "ແລ້ວ": 514,
      "ລາຍ": 515,
      "ເນ": 516,
      "ar": 517,
      "ໍ້": 518,
      "ຊິກ": 519,
      "ຊ້": 520,
      "ແຂ": 521,
      "ລົງທຶນ": 522,
      "ປະຕິ": 523,
      "ຫວ່າງ": 524,
      "al": 525,
      "ບົດ": 526,
      "ົ່ວ": 527,
      "ສັງ": 528,
      "ສິນ": 529,
      "ວາງ": 530,
      "ອັດ": 531,
      "ພຽງ": 532,
      "ວົງ": 533,
      "ທະນາ": 534,
      "ົ່າ": 535,
      "%.": 536,
      "30": 537,
      "ຊຽນ": 538,
      "າທິ": 539,
      "ແກ່": 540,
      "ື່ອງ": 541,
      "ທັງ": 542,
      "2015": 543,
      "11": 544,
      "ຂໍ້": 545,
      "ດ້ານ": 546,
      "ືນ": 547,
      "12": 548,
      "ນ້": 549,
      "ເນີ": 550,
      "ຮງ": 551,
      "ປ່": 552,
      "ຫຍ": 553,
      "ອັນ": 554,
      "ປະຈຸ": 555,
      "ໃຊ້": 556,
      "ບໍດີ": 557,
      "or": 558,
      "ເນີນ": 559,
      "ແຜນ": 560,
      "2018": 561,
      "ລິດ": 562,
      "ເຫັນ": 563,
      "ທົ່ວ": 564,
      "ເມືອງ": 565,
      "ພາກ": 566,
      "ມົນຕີ": 567,
      "ປະຊາ": 568,
      "່ວາ": 569,
      "ປະກອບ": 570,
      "ເຮັດ": 571,
      "am": 572,
      "ປະທານາທິ": 573,
      "ຜະ": 574,
      "ູດ": 575,
      "ລັດຖະມົນຕີ": 576,
      "ຍົກ": 577,
      "ປະທານາທິບໍດີ": 578,
      "ເອົາ": 579,
      "ຫຼາຍ": 580,
      "ບານ": 581,
      "ໃນປີ": 582,
      "ຽມ": 583,
      "ກ່ວາ": 584,
      "້າຍ": 585,
      "ວັນທີ": 586,
      "ໃຈ": 587,
      "ຕົວ": 588,
      "ມາດ": 589,
      "ຕ້ອງ": 590,
      "ໝ່": 591,
      "ພັດທະນາ": 592,
      "້ອມ": 593,
      "ພົວ": 594,
      "້ານ": 595,
      "ສາດ": 596,
      "ບໍລິ": 597,
      "ໃໝ່": 598,
      "ື່ອນ": 599,
      "ຽກ": 600,
      "ເຈົ້າ": 601,
      "2012": 602,
      "ກາຍ": 603,
      "ຝ່າຍ": 604,
      "ຄຳ": 605,
      "ລວມ": 606,
      "ກ່ຽວກັບ": 607,
      "ລິກາ": 608,
      "ຫົວ": 609,
      "ປະຕິບັດ": 610,
      "2013": 611,
      "50": 612,
      "en": 613,
      "ມູນ": 614,
      "ອົງ": 615,
      "ກົດ": 616,
      "ຫງ": 617,
      "ຸນ": 618,
      "ເວລາ": 619,
      "ອາເມ": 620,
      "13": 621,
      "ແດ": 622,
      "ໂຄງການ": 623,
      "ບາດ": 624,
      "et": 625,
      "ອາເມລິກາ": 626,
      "ີດ": 627,
      "%,": 628,
      "ຸ່ມ": 629,
      "ພ້ອມ": 630,
      "ແຮງ": 631,
      "ກາງ": 632,
      "ໄດ້ຮັບ": 633,
      "ທ່": 634,
      "ປາ": 635,
      "ຊະ": 636,
      "2014": 637,
      "ກ່ອນ": 638,
      "ແນ": 639,
      "el": 640,
      "ຈີນ": 641,
      "ລີ": 642,
      "ສື": 643,
      "ສະມາ": 644,
      "ເຕີບໂຕ": 645,
      "ຄ່າ": 646,
      "ຊຸດ": 647,
      "ືອ": 648,
      "EC": 649,
      "ກອງປະຊຸມ": 650,
      "ອະ": 651,
      "ວກ": 652,
      "ເຊິ່ງ": 653,
      "ສາມ": 654,
      "ຫານ": 655,
      "ເທົ່າ": 656,
      "ກ່າວ": 657,
      "ເພີ່ມຂຶ້ນ": 658,
      "21": 659,
      "ອິດ": 660,
      "ລະຫວ່າງ": 661,
      "ແຂວງ": 662,
      "ຄອນ": 663,
      "ລັງ": 664,
      "ພວມ": 665,
      "15": 666,
      "ທຸກ": 667,
      "ແບ": 668,
      "ov": 669,
      "່ວຍ": 670,
      "ເຊຍ": 671,
      "ວາ": 672,
      "ສານ": 673,
      "AP": 674,
      "ສັດ": 675,
      "ນາຍ": 676,
      "ວຽນ": 677,
      "ຜະລິດ": 678,
      "ຕົກ": 679,
      "ຊາວ": 680,
      "ຍາກ": 681,
      "ນ້ຳ": 682,
      "ແກ": 683,
      "ສະໜ": 684,
      "ຄັນ": 685,
      "ຮູ້": 686,
      "ຢືນ": 687,
      "ື້ອ": 688,
      "Tr": 689,
      "ສາຫະ": 690,
      "ສະມາຊິກ": 691,
      "25": 692,
      "ກວມ": 693,
      "ຂັ້ນ": 694,
      "ວຽກ": 695,
      "ໄຫວ": 696,
      "ເຄື່ອນ": 697,
      "ສັນຍາ": 698,
      "ຫລາຍ": 699,
      "ອັດຕາ": 700,
      "ທາ": 701,
      "້ອນ": 702,
      "st": 703,
      "ີ້": 704,
      "ປຸ": 705,
      "ເອີ": 706,
      "18": 707,
      "ຮອງ": 708,
      "ຄາ": 709,
      "ເຫຼ": 710,
      "ສະຫະ": 711,
      "ຫຼັງ": 712,
      "ອາຊຽນ": 713,
      "ດັ່ງ": 714,
      "ໝັ້ນ": 715,
      "ຶກ": 716,
      "ໝາກ": 717,
      "ຢ້": 718,
      "ົ່ງ": 719,
      "ພື້ນຖານ": 720,
      "ສູນ": 721,
      "ຈຸດ": 722,
      "ວິດ": 723,
      "ສີ": 724,
      "ື່ນ": 725,
      "ເລັດ": 726,
      "APEC": 727,
      "14": 728,
      "ມັນ": 729,
      "ລົບ": 730,
      "ເຫດ": 731,
      "mp": 732,
      "ຄະນະ": 733,
      "ວດ": 734,
      "ສອງ": 735,
      "ັ່ນ": 736,
      "ເຕ": 737,
      "ພົວພັນ": 738,
      "ຢ້ຽມ": 739,
      "ຢາມ": 740,
      "ອາຍ": 741,
      "ເທື່ອ": 742,
      ").": 743,
      "2011": 744,
      "ຊ່ວຍ": 745,
      "ປ່ຽນ": 746,
      "ລັບ": 747,
      "ຫງວຽນ": 748,
      "ກຸ່ມ": 749,
      "ເອກ": 750,
      "ສິ": 751,
      "ອຍ": 752,
      "Tru": 753,
      "ສາກ": 754,
      "ແທ": 755,
      "ນາຍົກ": 756,
      "ການຄ້າ": 757,
      "ສືບ": 758,
      "ເວັນ": 759,
      "ໄຂ": 760,
      "ໄຕ": 761,
      "ເລກ": 762,
      "ຈາ": 763,
      "ທ້າຍ": 764,
      "ຮັກ": 765,
      "ic": 766,
      "່ຳ": 767,
      "17": 768,
      "ເລື່ອງ": 769,
      "ສາກົນ": 770,
      "ດຽວ": 771,
      "ນົດ": 772,
      "ຄົງ": 773,
      "່ອນ": 774,
      "ຫລຸດ": 775,
      "ສົມ": 776,
      "ແດງ": 777,
      "ີມ": 778,
      "100": 779,
      "ໄລ່": 780,
      "ld": 781,
      "ີ່": 782,
      "ແໜ": 783,
      "ເມື່ອທຽບ": 784,
      "ແຜນການ": 785,
      "ນາຍົກລັດຖະມົນຕີ": 786,
      "vov": 787,
      "ປົກ": 788,
      "ຕຳ": 789,
      "Trump": 790,
      "ຫຼຸດ": 791,
      "ສົ່ງອອກ": 792,
      "ສັງຄົມ": 793,
      "ຄູ່": 794,
      "ລັດຖະບານ": 795,
      "ູບ": 796,
      "ອົງການ": 797,
      "orld": 798,
      "ໄສ": 799,
      "ເສຍ": 800,
      "ສົນ": 801,
      "ad": 802,
      "ໂຮ": 803,
      "ດົ່ງ": 804,
      "່ຍ": 805,
      "ກອນ": 806,
      "ມ່": 807,
      "ໃນການ": 808,
      "ຖິ": 809,
      "ອມ": 810,
      "ບັບ": 811,
      "້ມ": 812,
      "ນາງ": 813,
      "world": 814,
      "ຫນ້າ": 815,
      "ໃຫມ່": 816,
      "ພວກ": 817,
      "ສິ່ງ": 818,
      "ຄືນ": 819,
      "60": 820,
      "ເພາ": 821,
      "onal": 822,
      "້ອຍ": 823,
      "vovworld": 824,
      "ເພາະ": 825,
      "ແບບ": 826,
      "ter": 827,
      "ສຽງ": 828,
      "ຮອບ": 829,
      "ປະຈຸບັນ": 830,
      "ເມື່ອທຽບໃສ່": 831,
      "ຊວງ": 832,
      "ຫາກ": 833,
      "ໄດ້ຮັບການ": 834,
      "ຢູ": 835,
      "ອາຍຸ": 836,
      "ໜຶ່ງ": 837,
      "ຜ່ານມາ": 838,
      "onald": 839,
      "it": 840,
      "ທົບ": 841,
      "ອຸດ": 842,
      "ແຫຼ": 843,
      "ເຊື່ອ": 844,
      "ຄາດໝາຍ": 845,
      "2019": 846,
      "ໂຍ": 847,
      "້າວ": 848,
      "as": 849,
      "ຕິດ": 850,
      "ທູດ": 851,
      "ນິ": 852,
      "ແຫ່ງຊາດ": 853,
      "ຂົງ": 854,
      "ໃດ": 855,
      "ເນື້ອ": 856,
      "ຊຶ່ງ": 857,
      "ອາດ": 858,
      "ຫຍາຍ": 859,
      "ຮ່ວມມື": 860,
      "Donald": 861,
      "ເບ": 862,
      "199": 863,
      "ພາຍຫຼັງ": 864,
      "ຈົດ": 865,
      "ໄວ": 866,
      "ເຂົ້າຮ່ວມ": 867,
      "),": 868,
      "ຮູບ": 869,
      "ການເຕີບໂຕ": 870,
      "ຄັ້ງທີ": 871,
      "າະ": 872,
      "ຶງ": 873,
      "ລາວ": 874,
      "ຂ່າວ": 875,
      "ສະພາບ": 876,
      "ອີກ": 877,
      "500": 878,
      "ສຳຄັນ": 879,
      "ຍາດ": 880,
      "ທັນ": 881,
      "ຕ່ຳ": 882,
      "ບຽນ": 883,
      "ເກົາ": 884,
      "ຢ້ຽມຢາມ": 885,
      "ຍູ້": 886,
      "ໃນນັ້ນ": 887,
      "16": 888,
      "ທິດ": 889,
      "ູກ": 890,
      "ສິນຄ້າ": 891,
      "ສາມາດ": 892,
      "ອຳ": 893,
      "ແລ": 894,
      "ກຳນົດ": 895,
      "ac": 896,
      "ong": 897,
      "ບໍລິສັດ": 898,
      "ກົດໝາຍ": 899,
      "ກອບ": 900,
      "ພົນ": 901,
      "ສູ້": 902,
      "45": 903,
      "ຄ້": 904,
      "ຊື່": 905,
      "ຫລັງ": 906,
      "ເອກະ": 907,
      "ເລ່ຍ": 908,
      "ສຳລັບ": 909,
      "ປະຊາຊົນ": 910,
      "ol": 911,
      "ຜັນ": 912,
      "ຕ່າງປະເທດ": 913,
      "70": 914,
      "ຂ້າ": 915,
      "ຮຽນ": 916,
      "ໝົດ": 917,
      "2021": 918,
      "at": 919,
      "ບາຍ": 920,
      "ແປ": 921,
      "ຕັດ": 922,
      "ຮ່າ": 923,
      "ຊີວິດ": 924,
      "ເປີ": 925,
      "ro": 926,
      "ດູດ": 927,
      "ແຈ": 928,
      "ປະຈຳ": 929,
      "ໍາ": 930,
      "ດັ່ງກ່າວ": 931,
      "ດຳເນີນ": 932,
      "40": 933,
      "es": 934,
      "ຂາ": 935,
      "ດິນ": 936,
      "ຮ່າງ": 937,
      "im": 938,
      "ຄອບ": 939,
      "ມະນ": 940,
      "ວົງເງິນ": 941,
      "ສາຫະກິດ": 942,
      "ທະເລ": 943,
      "ຕົກລົງ": 944,
      "ສະບັບ": 945,
      "ວິສາຫະກິດ": 946,
      "ຄົວ": 947,
      "ປ້ອງ": 948,
      "ໂຕນ": 949,
      "ຂະນະ": 950,
      "ເຟ": 951,
      "ປຸງ": 952,
      "ກ້າວ": 953,
      "ກຳລັງ": 954,
      "ກົນ": 955,
      "ຍຸ": 956,
      "ດຶງ": 957,
      "ຜ່ອນ": 958,
      "ໂນ້": 959,
      "ທ່ຽວ": 960,
      "ຄິດ": 961,
      "ໄພ": 962,
      "ສປ": 963,
      "ພາບປະກອບ": 964,
      "ລາຄາ": 965,
      "ນະຄອນ": 966,
      "ໂນ້ຍ": 967,
      "il": 968,
      "ປັບ": 969,
      "197": 970,
      "and": 971,
      "80": 972,
      "un": 973,
      "ຫັນ": 974,
      "ແທນ": 975,
      "ກິ": 976,
      "ຕ້": 977,
      "ບຸກ": 978,
      "ປະກາດ": 979,
      "24": 980,
      "ອັງ": 981,
      "ແຫນ": 982,
      "ທ່ອງ": 983,
      "ແກ້": 984,
      "ເປີດ": 985,
      "ກົງ": 986,
      "ຊຸກ": 987,
      "ກະຊວງ": 988,
      "DI": 989,
      "ຫຼີ": 990,
      "ເຄື່ອງ": 991,
      "28": 992,
      "vn": 993,
      "ດົງ": 994,
      "ລັ່ງ": 995,
      "ອິນ": 996,
      "ໃຕ້": 997,
      "27": 998,
      "ໝູ່": 999,
      "​,": 1000,
      "ຄອງ": 1001,
      "ຍຸດ": 1002,
      "is": 1003,
      "ເຈລະ": 1004,
      "ທີ່ມີ": 1005,
      "ທີ່ສຸດ": 1006,
      "ທ່ານປະທານາທິບໍດີ": 1007,
      "2010": 1008,
      "FDI": 1009,
      "ທຸ": 1010,
      "ໜູນ": 1011,
      "ຂອງຫວຽດນາມ": 1012,
      "ສຳເລັດ": 1013,
      "ເຢ": 1014,
      "ໄຊ": 1015,
      "ການພົວພັນ": 1016,
      "ອຳນ": 1017,
      "id": 1018,
      "ຣີ": 1019,
      "23": 1020,
      "ວີ": 1021,
      "ຸ້ງ": 1022,
      "ແຕ່ລະ": 1023,
      "ຶກສາ": 1024,
      "ໂທ": 1025,
      "ຂະຫຍາຍ": 1026,
      "ia": 1027,
      "ຄົ້ນ": 1028,
      "ຕອນ": 1029,
      "ຈັດຕັ້ງ": 1030,
      "ແຍ": 1031,
      "ເລືອກຕັ້ງ": 1032,
      "ນັບແຕ່": 1033,
      "ເຕັກ": 1034,
      "ສະຫຼ": 1035,
      "ເພດ": 1036,
      "ເຜ": 1037,
      "ບັນລຸໄດ້": 1038,
      "ສະພາແຫ່ງຊາດ": 1039,
      "ປະກອບສ່ວນ": 1040,
      "ເລີ່ມ": 1041,
      "ສ້າງຕັ້ງ": 1042,
      "ຕົ້ນປີ": 1043,
      "ລາດ": 1044,
      "ເໜ": 1045,
      "ຕະພັນ": 1046,
      "ama": 1047,
      "26": 1048,
      "ກຳມະ": 1049,
      "ຖ້າ": 1050,
      "ພົບ": 1051,
      "ໃນໄລຍະ": 1052,
      "ເປົ້າ": 1053,
      "ອຸດສາຫະ": 1054,
      "22": 1055,
      "ເກີດ": 1056,
      "ch": 1057,
      "ທະບຽນ": 1058,
      "om": 1059,
      "ກາດ": 1060,
      "ລະບ": 1061,
      "ໃນວັນທີ": 1062,
      "ຫະກິດ": 1063,
      "ຄາດວ່າ": 1064,
      "ຮັກສາ": 1065,
      "ື່ມ": 1066,
      "ພາສີ": 1067,
      "ບັນດ": 1068,
      "ເຫດການ": 1069,
      "Ob": 1070,
      "ut": 1071,
      "ໄມ": 1072,
      "90": 1073,
      "net": 1074,
      "ປັດ": 1075,
      "ເຫຼືອ": 1076,
      "ຄອບຄົວ": 1077,
      "ຮອດປີ": 1078,
      "Obama": 1079,
      "re": 1080,
      "ຍິງ": 1081,
      "ສູ່": 1082,
      "ໃຫ້ແກ່": 1083,
      "ຍາວ": 1084,
      "ປະກັນ": 1085,
      "ແມ່": 1086,
      "ເຄື່ອນໄຫວ": 1087,
      "ເຈລະຈາ": 1088,
      "ອຸດສາຫະກຳ": 1089,
      "ba": 1090,
      "iet": 1091,
      "ຂາຍ": 1092,
      "ຣານ": 1093,
      "ປີແຫ່ງ": 1094,
      "ອາຊີ": 1095,
      "us": 1096,
      "ຄຸນ": 1097,
      "ີຍ": 1098,
      "ໝັກ": 1099,
      "ຕ່າງປະ": 1100,
      "TP": 1101,
      "ໄໝ": 1102,
      "ຂ້າພະ": 1103,
      "ot": 1104,
      "ຍີ່": 1105,
      "ຶດ": 1106,
      "ລະດ": 1107,
      "ເກົາຫຼີ": 1108,
      "Bar": 1109,
      "ຖຸ": 1110,
      "ໂນ": 1111,
      "ໄຟ": 1112,
      "ຫວັດ": 1113,
      "ອັນດັບ": 1114,
      "ອາຍຸການ": 1115,
      "ງົບ": 1116,
      "ສິງ": 1117,
      "ຕະຫຼ": 1118,
      "ທ່າ": 1119,
      "ມື້": 1120,
      "ເຫລ": 1121,
      "ຂີດ": 1122,
      "ນອກ": 1123,
      "ຄວນ": 1124,
      "ເຮັກ": 1125,
      "ໂຮ່": 1126,
      "ຂອບ": 1127,
      "ສັບ": 1128,
      "ມູນຄ່າ": 1129,
      "ແດນ": 1130,
      "ເປົ້າໝາຍ": 1131,
      "ir": 1132,
      "ສັກ": 1133,
      "ເດັ່ນ": 1134,
      "198": 1135,
      "ແຈ້ງ": 1136,
      "TPP": 1137,
      "ໂມ": 1138,
      "ຫນຶ່ງ": 1139,
      "ປຸ່ນ": 1140,
      "ພື້ນຖານເສດຖະກິດ": 1141,
      "ມາຮອດ": 1142,
      "og": 1143,
      "ຢັນ": 1144,
      "ທາງການ": 1145,
      "ພິມ": 1146,
      "ຂອງປີ": 1147,
      "ທະນະ": 1148,
      "ລວມມີ": 1149,
      "ອື່ນ": 1150,
      "ແສ": 1151,
      "ໝັ້ນຄົງ": 1152,
      "ດັດ": 1153,
      "ຟ້າ": 1154,
      "ມິດ": 1155,
      "ສົບ": 1156,
      "ສືບຕໍ່": 1157,
      "ປູ": 1158,
      "ສາຍ": 1159,
      "ລັດເຊຍ": 1160,
      "ເກາະ": 1161,
      "ສົ້ນ": 1162,
      "ໝາກຜົນ": 1163,
      "ແຫນງ": 1164,
      "ທະນະທຳ": 1165,
      "35": 1166,
      "ຍ້ອນ": 1167,
      "ອຸ": 1168,
      "ແນວ": 1169,
      "29": 1170,
      "UN": 1171,
      "han": 1172,
      "ກວ": 1173,
      "ພົ້ນ": 1174,
      "ລື": 1175,
      "ການນຳ": 1176,
      "ລະບາດ": 1177,
      "ສະຖານ": 1178,
      "ບັນຫາ": 1179,
      "ternet": 1180,
      "ກຳມະການ": 1181,
      "..": 1182,
      "ຈິງ": 1183,
      "ຊື": 1184,
      "ິບ": 1185,
      "ສະໜັບ": 1186,
      "ໂຍບາຍ": 1187,
      "AS": 1188,
      "ສຸມ": 1189,
      "ເໝ": 1190,
      "ໂຮງ": 1191,
      "ທ່ານນາຍົກລັດຖະມົນຕີ": 1192,
      "ວັດທະນະທຳ": 1193,
      "ສົນທິ": 1194,
      "ເຊື່ອມ": 1195,
      "ຊາຍ": 1196,
      "ສະໜູນ": 1197,
      "ສະແດງ": 1198,
      "ມີຄວາມ": 1199,
      "ທະຫານ": 1200,
      "ບັນດາປະເທດ": 1201,
      "ຫລາດ": 1202,
      "ພິເສດ": 1203,
      "ອຳນາດ": 1204,
      "ສະຫຼອງ": 1205,
      "ເໜີ": 1206,
      "ສະໜັບສະໜູນ": 1207,
      "uy": 1208,
      "ຈີ": 1209,
      "ລູກ": 1210,
      "ອາກ": 1211,
      "internet": 1212,
      "ຖິ່ນ": 1213,
      "ອັງກິດ": 1214,
      "CO": 1215,
      "ສອນ": 1216,
      "ໂອ": 1217,
      "ທົ່ວໂລກ": 1218,
      "ສປຊ": 1219,
      "CP": 1220,
      "ທ້ອງ": 1221,
      "ບຸນ": 1222,
      "້າມ": 1223,
      "ກ່ຽວກັບການ": 1224,
      "ຮັບຮອງ": 1225,
      "ວິທະ": 1226,
      "ສິດທິ": 1227,
      "ປັບປຸງ": 1228,
      "ul": 1229,
      "ຜິດ": 1230,
      "ດ້ວຍຍອດ": 1231,
      "ໂລກລະບາດ": 1232,
      ")-": 1233,
      "່ອງ": 1234,
      "ພາຍຫລັງ": 1235,
      "ຫຍຸ້ງ": 1236,
      "ແໜງ": 1237,
      "ພົນລະ": 1238,
      "ແສງ": 1239,
      "ລັກ": 1240,
      "ຕ່າງໆ": 1241,
      "ໂອກ": 1242,
      "ຂໍ້ຕົກລົງ": 1243,
      "ພາກພື້ນ": 1244,
      "ຊື່ງ": 1245,
      "ak": 1246,
      "ລະນະ": 1247,
      "ສຸດຍອດ": 1248,
      "ຊະນີ": 1249,
      "ມະນູນ": 1250,
      "ຊຸກຍູ້": 1251,
      "ton": 1252,
      "ກວດ": 1253,
      "ຄານ": 1254,
      "ທັບ": 1255,
      "ປີຜ່ານມາ": 1256,
      "ເສັ້ນ": 1257,
      "ເສລີ": 1258,
      "ແຫລ": 1259,
      "ຕາເວັນ": 1260,
      "ໄມ້": 1261,
      "ສົນທິສັນຍາ": 1262,
      "ໂອກາດ": 1263,
      "ບາງ": 1264,
      "ພຶດ": 1265,
      "ຮ້ອງ": 1266,
      "ລັດຖະທຳ": 1267,
      "ຕາງ": 1268,
      "ນຸ": 1269,
      "ລື່ນ": 1270,
      "ແຜ່ນ": 1271,
      "ເຜົ່າ": 1272,
      "300": 1273,
      "le": 1274,
      "ຈັກ": 1275,
      "ຍາມ": 1276,
      "ກໍ່ສ້າງ": 1277,
      "ນິວ": 1278,
      "ແປງ": 1279,
      "EU": 1280,
      "2025": 1281,
      "ເວທີ": 1282,
      "ເຮັກຕາ": 1283,
      "ຸ່ງ": 1284,
      "ທຸລະ": 1285,
      "ri": 1286,
      "ຕື່ມ": 1287,
      "ໂປ": 1288,
      "ແຕ່ວ": 1289,
      "ເງິນລົງທຶນ": 1290,
      "ແລກ": 1291,
      "400": 1292,
      "ກອມ": 1293,
      "ຈິ": 1294,
      "ຊົມ": 1295,
      "2009": 1296,
      "ha": 1297,
      "ຊີ້": 1298,
      "ມະຕິ": 1299,
      "ກຽມ": 1300,
      "ຖາ": 1301,
      "ລ້ວນ": 1302,
      "ພາຍໃນ": 1303,
      "ຕໍ": 1304,
      "ແຄ້": 1305,
      "ສະຫະປະຊາ": 1306,
      "ງົບປະມານ": 1307,
      "lin": 1308,
      "ກັດ": 1309,
      "ຮ້ານ": 1310,
      "ຫຼວງ": 1311,
      "ເດືອນຕົ້ນປີ": 1312,
      "ລ້ານຄົນ": 1313,
      "ຂາດ": 1314,
      "ທັດ": 1315,
      "ລາງ": 1316,
      "ຶ້": 1317,
      "່ານັ້ນ": 1318,
      "ເດີນ": 1319,
      "ທຳອິດ": 1320,
      "ຫນູນ": 1321,
      "ປ່ອຍ": 1322,
      "ບໍລິຫານ": 1323,
      "ແຫຼງ": 1324,
      "ຕະຫຼາດ": 1325,
      "IP": 1326,
      "ຕອບ": 1327,
      "ສົງ": 1328,
      "ເຮືອນ": 1329,
      "ເວົ້າ": 1330,
      "ສະຫະປະຊາຊາດ": 1331,
      "ra": 1332,
      "ur": 1333,
      "ສະຖິ": 1334,
      "ພະຍ": 1335,
      "ບົດບາດ": 1336,
      "ຜະລິດຕະພັນ": 1337,
      "ຫຍຸ້ງຍາກ": 1338,
      "VN": 1339,
      "ed": 1340,
      "od": 1341,
      "oh": 1342,
      "ຕ້ານ": 1343,
      "ມໍ": 1344,
      "ປະສົບ": 1345,
      "ເຮົາ": 1346,
      "ອີຣານ": 1347,
      "TA": 1348,
      "ຍືນ": 1349,
      "ປັ່ນ": 1350,
      "ຮ້າຍ": 1351,
      "ໄຫ": 1352,
      "ທະສາດ": 1353,
      "ແໜ່ງ": 1354,
      "ທ່ອງທ່ຽວ": 1355,
      "ຕາເວັນອອກ": 1356,
      "os": 1357,
      "ran": 1358,
      "ພໍ": 1359,
      "ົ່ານັ້ນ": 1360,
      "ັນທີ": 1361,
      "ໃນໂລກ": 1362,
      "est": 1363,
      "ຣາ": 1364,
      "ຮຽກ": 1365,
      "​.": 1366,
      "ກໍລະ": 1367,
      "ຢືນຢັນ": 1368,
      "ໂມງ": 1369,
      "ສະຖິຕິ": 1370,
      "--": 1371,
      "31": 1372,
      "OS": 1373,
      "ກົມ": 1374,
      "ຄັດ": 1375,
      "ເຊີນ": 1376,
      "ເຫຼີມ": 1377,
      "ວົງເງິນການຄ້າ": 1378,
      "ung": 1379,
      "ມາຮອດປະຈຸບັນ": 1380,
      "ແຕ່ວັນທີ": 1381,
      "ຊອບ": 1382,
      "ບິນ": 1383,
      "ມັງ": 1384,
      "ອຽດ": 1385,
      "ໃນຂະນະ": 1386,
      "ຫວັງ": 1387,
      "ດຳລົງ": 1388,
      "ຄຸມ": 1389,
      "ບຸ": 1390,
      "ຫາຍ": 1391,
      "ໜ້ອຍ": 1392,
      "ເທົ່ານັ້ນ": 1393,
      "inh": 1394,
      "ລາຍຮັບ": 1395,
      "ແຂ່ງ": 1396,
      "ສິກຳ": 1397,
      "ຍຸດທະສາດ": 1398,
      "%/": 1399,
      "ຍົງ": 1400,
      "ລຳ": 1401,
      "2030": 1402,
      "​​​": 1403,
      "ຕົວເລກ": 1404,
      "uyen": 1405,
      "600": 1406,
      "hu": 1407,
      "ຊັບ": 1408,
      "ຕຶ້": 1409,
      "ຢຸດ": 1410,
      "ປະຫວັດ": 1411,
      "ຮັບປະກັນ": 1412,
      "ພິທີ": 1413,
      "An": 1414,
      "ໄຈ": 1415,
      "ບ້ານ": 1416,
      "ມັດ": 1417,
      "່ຽວ": 1418,
      "ຄວາມໝັ້ນຄົງ": 1419,
      "ຂົງເຂດ": 1420,
      "ຈົດທະບຽນ": 1421,
      "Ng": 1422,
      "TT": 1423,
      "ກູ": 1424,
      "ກ້": 1425,
      "ຈິດ": 1426,
      "ຕ້ອນ": 1427,
      "ນ້ອຍ": 1428,
      "ໂຄວ": 1429,
      "ປະລິ": 1430,
      "ຫຼື": 1431,
      "ທ່ານນາງ": 1432,
      "ຊຸດທີ": 1433,
      "ຕັດສິນ": 1434,
      "ສັກສິດ": 1435,
      "ມັງກອນ": 1436,
      "ໂຄວິດ": 1437,
      "co": 1438,
      "ຕຸ": 1439,
      "ີບ": 1440,
      "ການລົງທຶນ": 1441,
      "ສະເລ່ຍ": 1442,
      "ດີດ": 1443,
      "ກະສິກຳ": 1444,
      "ກວມເອົາ": 1445,
      "ເມື່ອທຽບໃສ່ປີ": 1446,
      "ຍີ່ປຸ່ນ": 1447,
      "ໄຫມ": 1448,
      "ປຶກສາ": 1449,
      "ຟຸກ": 1450,
      "ໂຫຍ": 1451,
      "ການເຄື່ອນໄຫວ": 1452,
      "ຕະການ": 1453,
      "ຕະຫລາດ": 1454,
      "ສະຫະລັດ": 1455,
      "ດຽວກັນ": 1456,
      "ໄວ້": 1457,
      "ຄົບ": 1458,
      "ທ້າ": 1459,
      "ປູກ": 1460,
      "ເສີມ": 1461,
      "ແຕ່ງ": 1462,
      "utin": 1463,
      "1982": 1464,
      "EF": 1465,
      "Re": 1466,
      "XVN": 1467,
      "ຕົນ": 1468,
      "ຢັ້ງ": 1469,
      "ຮົບ": 1470,
      "ມີນາ": 1471,
      "ທະວີ": 1472,
      "ົດສະ": 1473,
      "ທິປະ": 1474,
      "ເຊື້ອ": 1475,
      "art": 1476,
      "ພັດທະນາເສດຖະກິດ": 1477,
      "ແຫຼ່ງ": 1478,
      "Barac": 1479,
      "ຂີດໝາຍ": 1480,
      "ວິທະຍາ": 1481,
      "TTXVN": 1482,
      "ຂ້ອງ": 1483,
      "ມອບ": 1484,
      "ສຸ": 1485,
      "ຫຼັກ": 1486,
      "ລົງນາມ": 1487,
      "ເດັກ": 1488,
      "ເກດ": 1489,
      "ເຈຍ": 1490,
      "ປ່ອນ": 1491,
      "ປາໄສ": 1492,
      "ສູນກາງ": 1493,
      "FTA": 1494,
      "Putin": 1495,
      "iv": 1496,
      "land": 1497,
      "ຍານ": 1498,
      "ແຊ": 1499,
      "ຂຶ້ນເຖິງ": 1500,
      "ຕະພາບ": 1501,
      "ຊະນະ": 1502,
      "ປີແຫ່ງວັນ": 1503,
      "55": 1504,
      "CL": 1505,
      "em": 1506,
      "ຂຽນ": 1507,
      "ຈາຍ": 1508,
      "ສື່": 1509,
      "ການຮ່ວມມື": 1510,
      "ແຕ່ປີ": 1511,
      "ບັນລຸລະດັບ": 1512,
      "ang": 1513,
      "ມະຫາ": 1514,
      "ກາຍເປັນ": 1515,
      "ແບ່ງ": 1516,
      "ດັດຊະນີ": 1517,
      "lad": 1518,
      "ຕູ": 1519,
      "ທາຍ": 1520,
      "ບົນ": 1521,
      "ໃນເດືອນ": 1522,
      "ສະໝັກ": 1523,
      "ຫລີ": 1524,
      "ປະລິມານ": 1525,
      "800": 1526,
      "Viet": 1527,
      "ຝລັ່ງ": 1528,
      "ມິ": 1529,
      "ສອຍ": 1530,
      "ພຽງແຕ່": 1531,
      "ກອງປະຊຸມສຸດຍອດ": 1532,
      "ສາມັນ": 1533,
      "ດຶງດູດ": 1534,
      "ປະຫວັດສາດ": 1535,
      "700": 1536,
      "ຄ້ານ": 1537,
      "ໃນລະດັບ": 1538,
      "ມານີ້": 1539,
      "ກັນຍາ": 1540,
      "ເຮັດໃຫ້": 1541,
      "ພ້ອມກັບ": 1542,
      "ອາດຈະ": 1543,
      "ສະພາບການ": 1544,
      "ມະນຸດ": 1545,
      "ອາກາດ": 1546,
      "Fran": 1547,
      "ຂັນ": 1548,
      "ແນະ": 1549,
      "້ຍ": 1550,
      "ຈຸບັນ": 1551,
      "ເຄີຍ": 1552,
      "ລາຍງານ": 1553,
      "ໄຕມາດ": 1554,
      "ຄູ່ຮ່ວມມື": 1555,
      "ປັດຈຸບັນ": 1556,
      "ເວທີປາໄສ": 1557,
      "ແຄ້ວນ": 1558,
      "VO": 1559,
      "Vlad": 1560,
      "hi": 1561,
      "nam": 1562,
      "ຂາທິ": 1563,
      "ຄາມ": 1564,
      "ດວກ": 1565,
      "ຟູ": 1566,
      "ສຶກສາ": 1567,
      "ໜຸ່ມ": 1568,
      "ຖະແຫຼງ": 1569,
      "ວິວັດ": 1570,
      "ໜ້າທີ່": 1571,
      "ລາຍການ": 1572,
      "ປະຕິວັດ": 1573,
      "ບໍລິການ": 1574,
      "ເຫຼີມສະຫຼອງ": 1575,
      "la": 1576,
      "up": 1577,
      "ຊານ": 1578,
      "ສາທາ": 1579,
      "ຫາລື": 1580,
      "2008": 1581,
      "ຫົວໜ້າ": 1582,
      "ອະນຸ": 1583,
      "ກວ້າງ": 1584,
      "ພຶດສະພາ": 1585,
      "Nguyen": 1586,
      "Barack": 1587,
      "ປັກ": 1588,
      "ຢາກ": 1589,
      "້ວ": 1590,
      "້ຳ": 1591,
      "ການສົ່ງອອກ": 1592,
      "ໄດ້ວາງ": 1593,
      "ເປັນປະທານ": 1594,
      "ຄວບ": 1595,
      "ລ້ອມ": 1596,
      "ທ້າຍປີ": 1597,
      "ຂ້າພະເຈົ້າ": 1598,
      "ຖຸນາ": 1599,
      "ASE": 1600,
      "WEF": 1601,
      "ຈ່າຍ": 1602,
      "ຖອນ": 1603,
      "ບາ": 1604,
      "ບູ": 1605,
      "ມຸ່ງ": 1606,
      "ແວດ": 1607,
      "ປະສິດທິ": 1608,
      "ສະຫງ": 1609,
      "ສະເຫຼີມສະຫຼອງ": 1610,
      "ໄດ້ມີ": 1611,
      "ນັກງານ": 1612,
      "ປົກຄອງ": 1613,
      "ໂຮມ": 1614,
      "ເອກະສານ": 1615,
      "ຮຽກຮ້ອງ": 1616,
      "Vladim": 1617,
      "oi": 1618,
      "uter": 1619,
      "ນິດ": 1620,
      "ແຄ": 1621,
      "ມີຜົນ": 1622,
      "ເລຂາທິ": 1623,
      "ເປັນທາງການ": 1624,
      "ເກີນ": 1625,
      "ເຫັນດີ": 1626,
      "ເອີລົບ": 1627,
      "ຈຸດໝາຍ": 1628,
      "ຜັນຂະຫຍາຍ": 1629,
      "ທຸລະກິດ": 1630,
      "ສາທາລະນະ": 1631,
      "Vladimir": 1632,
      "ຄີ": 1633,
      "ໄກ": 1634,
      "ປະເພດ": 1635,
      "າຍາມ": 1636,
      "ເຊັນ": 1637,
      "ຄະເນ": 1638,
      "ຄາດຄະເນ": 1639,
      "ຕຳແໜ່ງ": 1640,
      "ອັນດັບທີ": 1641,
      "ພະຍາຍາມ": 1642,
      "VOV": 1643,
      "75": 1644,
      "ບີ": 1645,
      "ຝະ": 1646,
      "ຫຸ": 1647,
      "້ວງ": 1648,
      "ໃນຈຳນວນ": 1649,
      "ຕາລີ": 1650,
      "ຖືວ່າ": 1651,
      "ຊົນນະ": 1652,
      "ກ່ອນນີ້": 1653,
      "ນ້ຳມັນ": 1654,
      "ວົງເງິນສົ່ງອອກ": 1655,
      "ເຢຍ": 1656,
      "ໂທລະ": 1657,
      "ແລກປ່ຽນ": 1658,
      "ເລຂາທິການ": 1659,
      "ຈ້ອງ": 1660,
      "ຊວນ": 1661,
      "ມໍ່": 1662,
      "ໄດ້ເພີ່ມຂຶ້ນ": 1663,
      "ວ່າດ້ວຍ": 1664,
      "ແມັດ": 1665,
      "ນັ້ນແມ່ນ": 1666,
      "ທັງໝົດ": 1667,
      "ທົ່ວປະເທດ": 1668,
      "ຂັ້ນສູງ": 1669,
      "ຫລຸດຜ່ອນ": 1670,
      "ທັນວາ": 1671,
      "ລະບົບ": 1672,
      "ສິງຫາ": 1673,
      "ໂລກລະບາດໂຄວິດ": 1674,
      "Bre": 1675,
      "Clin": 1676,
      "St": 1677,
      "ນິກ": 1678,
      "ຫ້ອງ": 1679,
      "ໂກ": 1680,
      "ໜາ": 1681,
      "ໜັງ": 1682,
      "ຕີລາຄາ": 1683,
      "ກະຕິ": 1684,
      "ແຂກ": 1685,
      "ທຸກຍາກ": 1686,
      "ສິ້ນ": 1687,
      "ill": 1688,
      "ມິຖຸນາ": 1689,
      "ຊົນນະບົດ": 1690,
      "Clinton": 1691,
      "32": 1692,
      "ES": 1693,
      "xit": 1694,
      "ທາດ": 1695,
      "ທ້ອນ": 1696,
      "ອັກ": 1697,
      "ສະນະ": 1698,
      "ເລິກ": 1699,
      "ຢ່າງເປັນທາງການ": 1700,
      "ພະຈ": 1701,
      "ເນື່ອງ": 1702,
      "ທະນາຄານ": 1703,
      "ມູນິດ": 1704,
      "ແຮງງານ": 1705,
      "ເຫລືອ": 1706,
      "ຕຸລາ": 1707,
      "Brexit": 1708,
      "Ca": 1709,
      "Ro": 1710,
      "ຊື້": 1711,
      "ປາຍ": 1712,
      "ຂອງທ່ານ": 1713,
      "ມານະ": 1714,
      "ໂຍງ": 1715,
      "TO": 1716,
      "ກີ": 1717,
      "ກູ້": 1718,
      "ງາມ": 1719,
      "ປັນ": 1720,
      "ຟິກ": 1721,
      "ລົດ": 1722,
      "ການຕ່າງປະເທດ": 1723,
      "ສະຫ": 1724,
      "ມາເຖິງ": 1725,
      "196": 1726,
      "132": 1727,
      "ປ້ອງກັນ": 1728,
      "ເຟີ້": 1729,
      "ພົນລະເມືອງ": 1730,
      "IPU": 1731,
      "ພະຈິກ": 1732,
      "33": 1733,
      "Ab": 1734,
      "ist": 1735,
      "tt": 1736,
      "ນຸດ": 1737,
      "ຜັກ": 1738,
      "ມິນ": 1739,
      "ອົບ": 1740,
      "ໜັກ": 1741,
      "ລະອຽດ": 1742,
      "່ວງ": 1743,
      "ລຸງ": 1744,
      "ສະພາຄວາມໝັ້ນຄົງ": 1745,
      "ຮອບດ້ານ": 1746,
      "ph": 1747,
      "ດິດ": 1748,
      "ພູ": 1749,
      "ເກັບ": 1750,
      "ເລີ່": 1751,
      "ຈະມາເຖິງ": 1752,
      "ນີ້ແມ່ນ": 1753,
      "ເຖິງວ່າ": 1754,
      "ຈາກນັ້ນ": 1755,
      "ໄລຍະດຽວກັນ": 1756,
      "ືອບິນ": 1757,
      "ສັນຕິ": 1758,
      "ຫຍິບ": 1759,
      "ແນັດ": 1760,
      "ປົກກະຕິ": 1761,
      "ຢູ່ນ": 1762,
      "ບັນດາກ": 1763,
      "ຈຶ່ງ": 1764,
      "ຊົ່ວ": 1765,
      "ຮ່": 1766,
      "ເລັກ": 1767,
      "ຕື້ດົ່ງ": 1768,
      "ເງື່ອນ": 1769,
      "ເຕີນ": 1770,
      "2006": 1771,
      "ຕຳ່": 1772,
      "ຫຼຸດລົງ": 1773,
      "ແຍ້ງ": 1774,
      "ນັບແຕ່ປີ": 1775,
      "38": 1776,
      "FP": 1777,
      "Hol": 1778,
      "ບັງ": 1779,
      "ໂຣ": 1780,
      "ມີການ": 1781,
      "ຢູ່ຫວຽດນາມ": 1782,
      "ຕັ້ງໜ້າ": 1783,
      "ເຈັບ": 1784,
      "ເຮືອບິນ": 1785,
      "ຕາມການ": 1786,
      "ine": 1787,
      "ແຂງ": 1788,
      "ໄຊຊະນະ": 1789,
      "//": 1790,
      "36": 1791,
      "37": 1792,
      "de": 1793,
      "viet": 1794,
      "2000": 1795,
      "ຂອງປະເທດ": 1796,
      "ຫນັງ": 1797,
      "ຮູ້ວ່າ": 1798,
      "ເທື່ອຄົນ": 1799,
      "ich": 1800,
      "uro": 1801,
      "ຊອກ": 1802,
      "ສະເພາະ": 1803,
      "ອີຢູ": 1804,
      "ບົດລາຍງານ": 1805,
      "ຮ່າໂນ້ຍ": 1806,
      "1975": 1807,
      "ໂທດ": 1808,
      "ສັນຕິພາບ": 1809,
      "ber": 1810,
      "ik": 1811,
      "ຖຽນ": 1812,
      "ມູ": 1813,
      "ແນນ": 1814,
      "ອະດີດ": 1815,
      "ໄລ່ຮອດ": 1816,
      "ສປປ": 1817,
      "ພົ້ນເດັ່ນ": 1818,
      "ພາຍໃນປະເທດ": 1819,
      "ttp": 1820,
      "ກວາງ": 1821,
      "ຈໍ": 1822,
      "ບວນ": 1823,
      "ປອດ": 1824,
      "ຜູ": 1825,
      "ວຸດ": 1826,
      "ໄທ": 1827,
      "ການເມືອງ": 1828,
      "ຫລວງ": 1829,
      "ກະຈາຍ": 1830,
      "ing": 1831,
      "ສູງກວ່າ": 1832,
      "ສິລະ": 1833,
      "ash": 1834,
      "ເນື້ອທີ່": 1835,
      "ລະດູ": 1836,
      "ລາງວັນ": 1837,
      "ຫຸ້ນ": 1838,
      "98": 1839,
      "he": 1840,
      "ກຸມ": 1841,
      "ຊ່ຽວ": 1842,
      "ຖີ": 1843,
      "ຟື້ນ": 1844,
      "ການປະຕິບັດ": 1845,
      "ສະເໜີ": 1846,
      "າກອນ": 1847,
      "ເດຍ": 1848,
      "ກຳປູ": 1849,
      "ເຈົ້າພາບ": 1850,
      "ບາດກ້າວ": 1851,
      "ອິດສະ": 1852,
      "UNCL": 1853,
      "ຕ້ອນຮັບ": 1854,
      "ມີຜົນສັກສິດ": 1855,
      "UNCLOS": 1856,
      "Ch": 1857,
      "ok": 1858,
      "ຈານ": 1859,
      "ດົນ": 1860,
      "ປືນ": 1861,
      "ຼຍ": 1862,
      "ເອງ": 1863,
      "້ນຳ": 1864,
      "ເຄຼຍ": 1865,
      "ກໍ່ຕາມ": 1866,
      "ອີງ": 1867,
      "ດ້ານເສດຖະກິດ": 1868,
      "ປາຊີ": 1869,
      "ຫລຸດລົງ": 1870,
      "ແກ້ໄຂ": 1871,
      "ຜິດຊອບ": 1872,
      "ໂຫຍດ": 1873,
      "Franco": 1874,
      "Holland": 1875,
      "54": 1876,
      "kel": 1877,
      "ຂົນ": 1878,
      "ຂ້າມ": 1879,
      "ຖາມ": 1880,
      "ີກ": 1881,
      "ໂຈ": 1882,
      "ໜາດ": 1883,
      "ໃຫ້ຮູ້ວ່າ": 1884,
      "ເປັນເວລາ": 1885,
      "ເມື່ອປີ": 1886,
      "ທຶນຈົດທະບຽນ": 1887,
      "ກະທຳ": 1888,
      "ຊ້ອນ": 1889,
      "ແກ່ຍາວ": 1890,
      "ປະຊາຄົມ": 1891,
      "ປະຊາທິປະ": 1892,
      "ຄ້ວາ": 1893,
      "ລະດົກ": 1894,
      "ໄຟຟ້າ": 1895,
      "ສັບປະ": 1896,
      "02": 1897,
      "As": 1898,
      "II": 1899,
      "Joh": 1900,
      "Mar": 1901,
      "io": 1902,
      "ຖ້": 1903,
      "ບຳ": 1904,
      "ມຽນ": 1905,
      "ສັ່ງ": 1906,
      "ສຶກ": 1907,
      "ເນັ້ນ": 1908,
      "ໂຊ": 1909,
      "ໃສ": 1910,
      "ເມສາ": 1911,
      "ເປັນສະມາຊິກ": 1912,
      "ພັນທະ": 1913,
      "ກ່ຽວຂ້ອງ": 1914,
      "erkel": 1915,
      "ຕົ້ນຕໍ": 1916,
      "ຍົກອອກ": 1917,
      "ela": 1918,
      "ອັດຕາສ່ວນ": 1919,
      "CPTPP": 1920,
      "ວິທະຍາສາດ": 1921,
      "uters": 1922,
      "ກະຈາຍສຽງ": 1923,
      "ສັບປະດາ": 1924,
      "John": 1925,
      "47": 1926,
      "Al": 1927,
      "Co": 1928,
      "az": 1929,
      "qu": 1930,
      "ຍິ່ງ": 1931,
      "ດຸນ": 1932,
      "ບ້ວງ": 1933,
      "ແຖ": 1934,
      "ຮັບຜິດຊອບ": 1935,
      "ອອກຈາກ": 1936,
      "ບັນລຸກວ່າ": 1937,
      "ວິທີ": 1938,
      "ຄະດີ": 1939,
      "ຜົນສຳເລັດ": 1940,
      "ໄປຍັງ": 1941,
      "ເມື່ອທຽບໃສ່ໄລຍະດຽວກັນ": 1942,
      "ໃນນັ້ນມີ": 1943,
      "UNES": 1944,
      "ເໝາະ": 1945,
      "ໂຈມ": 1946,
      "UNESCO": 1947,
      "Merkel": 1948,
      "Tan": 1949,
      "ລອງ": 1950,
      "ທີ່ໄດ້": 1951,
      "ຫລື": 1952,
      "ລະດັບເຕີບໂຕ": 1953,
      "ລະດັບການເຕີບໂຕ": 1954,
      "ອັດຕາພາສີ": 1955,
      "ເບີດ": 1956,
      "ແຍກ": 1957,
      "ກໍລະກົດ": 1958,
      "52": 1959,
      "Ma": 1960,
      "oc": 1961,
      "ຢາງ": 1962,
      "“​": 1963,
      "ອາທິດ": 1964,
      "ຊີຣີ": 1965,
      "ຍອດຈຳນວນ": 1966,
      "1992": 1967,
      "ສູ້ຊົນ": 1968,
      "ທະເລຕາເວັນອອກ": 1969,
      "ຕາງໜ້າ": 1970,
      "Francois": 1971,
      "150": 1972,
      "34": 1973,
      "95": 1974,
      "IC": 1975,
      "ey": 1976,
      "ຈົນ": 1977,
      "ປ່າ": 1978,
      "ມວນ": 1979,
      "ຢື": 1980,
      "ລຽນ": 1981,
      "ອານ": 1982,
      "ອົດສະ": 1983,
      "ໃບ": 1984,
      "ສະດວກ": 1985,
      "ມີນ": 1986,
      "ແມ່ນປີ": 1987,
      "ເມື່ອວັນທີ": 1988,
      "ເຫ້ວ": 1989,
      "ຂະແໜງ": 1990,
      "ສັນຍານ": 1991,
      "ສົມຄວນ": 1992,
      "CPI": 1993,
      "ມໍລະດົກ": 1994,
      "ບຸລິ": 1995,
      "ປະສິດທິຜົນ": 1996,
      "ກຸມພາ": 1997,
      "ອົດສະຕາລີ": 1998,
      "42": 1999,
      "G20": 2000,
      "ຍົມ": 2001,
      "ປຶ": 2002,
      "ລາມ": 2003,
      "ສສ": 2004,
      "ປະຊ": 2005,
      "ການເຈລະຈາ": 2006,
      "ສະທ້ອນ": 2007,
      "ກະທົບ": 2008,
      "ຫນອງ": 2009,
      "ພະນັກງານ": 2010,
      "ອະນາ": 2011,
      "ວາລະ": 2012,
      "ປ່ຽນແປງ": 2013,
      "ປະຈຳການ": 2014,
      "ຖ້າຫາກ": 2015,
      "ພົບປະ": 2016,
      "ມໍ່ໆ": 2017,
      ",​": 2018,
      "AM": 2019,
      "ig": 2020,
      "ຂວ": 2021,
      "ຄຸ": 2022,
      "ຊິງ": 2023,
      "ວະ": 2024,
      "ສໍາ": 2025,
      "ຫາງ": 2026,
      "ັ້ມ": 2027,
      "ໜ່ວຍ": 2028,
      "ຢູ່ໃນລະດັບ": 2029,
      "ຄວ້າ": 2030,
      "ເກຼ": 2031,
      "1945": 2032,
      "ບັນລຸເກືອບ": 2033,
      "2005": 2034,
      "ກອງປະຊຸມໃຫຍ່": 2035,
      "ຫຼຸດຜ່ອນ": 2036,
      "ລື່ນກາຍ": 2037,
      "ສູນກາງພັກ": 2038,
      "ເຢຍລະ": 2039,
      "Hollande": 2040,
      "AN": 2041,
      "Fest": 2042,
      "eb": 2043,
      "hm": 2044,
      "ou": 2045,
      "ນອນ": 2046,
      "ນັ່ງ": 2047,
      "ປື້": 2048,
      "ສຸກ": 2049,
      "ະຄອນ": 2050,
      "ຸງ": 2051,
      "ໄດ້ສ້າງ": 2052,
      "ື້ອງ": 2053,
      "ປະເທດສະມາຊິກ": 2054,
      "ຊີບ": 2055,
      "ຈັດວາງ": 2056,
      "ພ້ອມກັນ": 2057,
      "ສະຫະພາບ": 2058,
      "ສະຫະພັນ": 2059,
      "ກົດໝາຍວ່າດ້ວຍ": 2060,
      "ແຕ່ລະປີ": 2061,
      "ເຕັກໂນ": 2062,
      "ສົງຄາມ": 2063,
      "ຍືນຍົງ": 2064,
      "ດຳລົງຕຳແໜ່ງ": 2065,
      "Reuters": 2066,
      "Cast": 2067,
      "ແຖວ": 2068,
      "ເຕັກໂນໂລ": 2069,
      "67": 2070,
      "://": 2071,
      "AFP": 2072,
      "Sa": 2073,
      "http": 2074,
      "ຮານ": 2075,
      "ການປະຕິວັດ": 2076,
      "ລະໂອກາດ": 2077,
      "ໃນຊຸມ": 2078,
      "ລ້ຽງ": 2079,
      "ກະກຽມ": 2080,
      "ໂຕ້": 2081,
      "ນຳເຂົ້າ": 2082,
      "ໄປເຖິງ": 2083,
      "ຕ້ອງການ": 2084,
      "ໂຄງການລົງທຶນ": 2085,
      "ເທົ່າກັບ": 2086,
      "ແທດ": 2087,
      "ics": 2088,
      "ສະພາແຫ່ງຊາດຫວຽດນາມ": 2089,
      "ເໝີ": 2090,
      "ແຫລງ": 2091,
      "ival": 2092,
      "ໄດ້ວາງອອກ": 2093,
      "250": 2094,
      "43": 2095,
      "46": 2096,
      "Cat": 2097,
      "ip": 2098,
      "ຄົດ": 2099,
      "ດອກ": 2100,
      "ຖັງ": 2101,
      "ທົດ": 2102,
      "ບູນ": 2103,
      "ພາດ": 2104,
      "ຢາ": 2105,
      "ລ້າງ": 2106,
      "ສະໄໝ": 2107,
      "ແຫ່ງວັນ": 2108,
      "ວຍການ": 2109,
      "ຄວາມຫຍຸ້ງຍາກ": 2110,
      "ທຶກ": 2111,
      "ຂະໜາດ": 2112,
      "ສາມັກ": 2113,
      "ສະໜອງ": 2114,
      "ເສຍຊີວິດ": 2115,
      "ນິຕິ": 2116,
      "----": 2117,
      "ໃນຂະນະນັ້ນ": 2118,
      "ແນະນຳ": 2119,
      "ປຶ້ມ": 2120,
      "Festival": 2121,
      "ປື້ມ": 2122,
      "48": 2123,
      "49": 2124,
      "77": 2125,
      "ev": 2126,
      "ew": 2127,
      "ຊັກ": 2128,
      "ຖົມ": 2129,
      "ເວນ": 2130,
      "ານວນ": 2131,
      "ເມື່ອເດືອນ": 2132,
      "ຕະວັດ": 2133,
      "ຄັ້ງທຳອິດ": 2134,
      "ທັງປີ": 2135,
      "ຫຼາຍກວ່າ": 2136,
      "ເລກທີ": 2137,
      "ຕັດຫຍິບ": 2138,
      "ທ້າທາຍ": 2139,
      "ໜັງສື": 2140,
      "ຄຸ້ມ": 2141,
      "ເກຼັກ": 2142,
      "La": 2143,
      "Ph": 2144,
      "man": 2145,
      "ຂັບ": 2146,
      "ພິດ": 2147,
      "ຫໍ": 2148,
      "ໃນບັນດາ": 2149,
      "ທີ່ນ": 2150,
      "ໃຫ້ເຫັນ": 2151,
      "ເປັນເອກະ": 2152,
      "ເກົ່າ": 2153,
      "ເຂດແຄ້ວນ": 2154,
      "ເຮືອ": 2155,
      "ຜົນງານ": 2156,
      "ລັດຖະມົນຕີການຕ່າງປະເທດ": 2157,
      "ສົນໃຈ": 2158,
      "ແບບຍືນຍົງ": 2159,
      "ອິນເຕີ": 2160,
      "ທາງການທູດ": 2161,
      "ຊາຍແດນ": 2162,
      "ທ້ອງຖິ່ນ": 2163,
      "ແຫລ່ງ": 2164,
      "ຢຸດຕິ": 2165,
      "ເມື່ອທຽບໃສ່ໄລຍະດຽວກັນຂອງປີ": 2166,
      "Castro": 2167,
      "(​": 2168,
      "08": 2169,
      "58": 2170,
      "te": 2171,
      "ນາດ": 2172,
      "ບັ້ນ": 2173,
      "ແພ": 2174,
      "ໜ້ານ": 2175,
      "ສະມັດ": 2176,
      "ນະໂຍບາຍ": 2177,
      "ລັດຖະສະພາ": 2178,
      "ຕາມນັ້ນ": 2179,
      "ພະລັງ": 2180,
      "ກໍລະນີ": 2181,
      "Ang": 2182,
      "ASEAN": 2183,
      "ພູມ": 2184,
      "ຈໍານວນ": 2185,
      "01": 2186,
      "63": 2187,
      "Par": 2188,
      "op": 2189,
      "ຄຽງ": 2190,
      "ນານ": 2191,
      "ັມ": 2192,
      "ເຄື": 2193,
      "ໜີ້": 2194,
      "ການເງິນ": 2195,
      "ການເລືອກຕັ້ງ": 2196,
      "ໃນເວລາ": 2197,
      "ເຂົາ": 2198,
      "ກ່ຳ": 2199,
      "ຫລອງ": 2200,
      "ຜູ້ແທນ": 2201,
      "ເພື່ອໃຫ້": 2202,
      "ສົມທົບ": 2203,
      "ແລນ": 2204,
      "ສ້າງຕັ້ງການພົວພັນ": 2205,
      "ບັນດານ": 2206,
      "ຮັບຮອງເອົາ": 2207,
      "ໃນຂະນະທີ່": 2208,
      "ມານະພະຍາຍາມ": 2209,
      "ປາຊີຟິກ": 2210,
      "ສາມັກຄີ": 2211,
      "53": 2212,
      "68": 2213,
      "aul": 2214,
      "ຊູ": 2215,
      "ທົ່ງ": 2216,
      "ການພັດທະນາ": 2217,
      "ການຜະລິດ": 2218,
      "ປີທີ່": 2219,
      "ມາຈາກ": 2220,
      "ຂຶ້ນກັບ": 2221,
      "ເຈືອງ": 2222,
      "ນຳໃຊ້": 2223,
      "ເຕີມ": 2224,
      "ເຄົາ": 2225,
      "ຈຳນວນເງິນ": 2226,
      "ມາດຕາ": 2227,
      "ent": 2228,
      "ວຽກງານ": 2229,
      "ຫາກໍ່": 2230,
      "ເບື້ອງ": 2231,
      "ເກົາຫລີ": 2232,
      "Barak": 2233,
      "ລັກສະນະ": 2234,
      "ບຸລິມະ": 2235,
      "ປະຊາກອນ": 2236,
      "Angela": 2237,
      "05": 2238,
      "65": 2239,
      "Moh": 2240,
      "ay": 2241,
      "com": 2242,
      "res": 2243,
      "ຍື່ນ": 2244,
      "ລ່າງ": 2245,
      "ລົມ": 2246,
      "ຸ່ນ": 2247,
      "ໝູນ": 2248,
      "າມະ": 2249,
      "ຂອງພັກ": 2250,
      "ຫຼວດ": 2251,
      "ອາວຸດ": 2252,
      "ສາສະໜ": 2253,
      "ລຸກວ່າ": 2254,
      "ບັນດາອົງການ": 2255,
      "ina": 2256,
      "ຫນ້ອຍ": 2257,
      "ຍັງຄົງ": 2258,
      "ວັດຖຸ": 2259,
      "ຫຼາຍຢ່າງ": 2260,
      "ເທື່ອທີ": 2261,
      "ໜູນຊ່ວຍ": 2262,
      "oto": 2263,
      "ສິງກະ": 2264,
      "ອື່ນໆ": 2265,
      "ມິດຕະພາບ": 2266,
      "ແຂ່ງຂັນ": 2267,
      "ຝະລັ່ງ": 2268,
      "ບຸລິມະສິດ": 2269,
      "ສາສະໜາ": 2270,
      "59": 2271,
      "Sh": 2272,
      "ຊັ້ນ": 2273,
      "ພີ": 2274,
      "ຣູ": 2275,
      "ິ່ນ": 2276,
      "ການປົກຄອງ": 2277,
      "ໃນໄຕມາດ": 2278,
      "ແມ່ນ້ຳ": 2279,
      "ບັນດາການ": 2280,
      "ແຜ່": 2281,
      "2007": 2282,
      "ary": 2283,
      "ແກຼ": 2284,
      "ຄະນະບໍລິຫານ": 2285,
      "ພວກຂ້າພະເຈົ້າ": 2286,
      "ສິ່ງທ້າທາຍ": 2287,
      "ອຳນວຍການ": 2288,
      "ໂຮງຮຽນ": 2289,
      "ລ້ວນແຕ່": 2290,
      "ຢືນຢັນວ່າ": 2291,
      "ຢັ້ງຢືນ": 2292,
      "ຢູ່ນະຄອນ": 2293,
      "IM": 2294,
      "ຂັດ": 2295,
      "ຊ່ອງ": 2296,
      "ຕິນ": 2297,
      "ຖຳ": 2298,
      "ປຶກ": 2299,
      "ແງ": 2300,
      "“.": 2301,
      "ການປະ": 2302,
      "ປີນ": 2303,
      "ເປັນປົກກະຕິ": 2304,
      "ຕາແສງ": 2305,
      "ລັດຖະທູດ": 2306,
      "ເຄັ່ງ": 2307,
      "ແນໃສ່": 2308,
      "ສະມາຄົມ": 2309,
      "ແໜ້ນ": 2310,
      "ເຟັ້ນ": 2311,
      "ລະບຽບ": 2312,
      "ອັກຄະ": 2313,
      "vietnam": 2314,
      "ຜູ້ນຳ": 2315,
      "ອະນາຄົດ": 2316,
      "130": 2317,
      "Mad": 2318,
      "ei": 2319,
      "ho": 2320,
      "ob": 2321,
      "son": 2322,
      "ta": 2323,
      "ດົກ": 2324,
      "ນົງ": 2325,
      "ນູນ": 2326,
      "ວັງ": 2327,
      "ໃກ້": 2328,
      "ໜັບ": 2329,
      "ໃນພາກພື້ນ": 2330,
      "ໄດ້ດຳເນີນ": 2331,
      "ທີ່ກອງ": 2332,
      "ຢູ່ເຂດ": 2333,
      "ແຕກ": 2334,
      "ທ່ານປະທານ": 2335,
      "ແຫ່": 2336,
      "ສ່ຽງ": 2337,
      "one": 2338,
      "ບໍ່ປະຈຳການ": 2339,
      "ຫັນປ່ຽນ": 2340,
      "ປະກາດໃຊ້": 2341,
      "ຕະຫຼອດ": 2342,
      "ໂຮ່ຈິ": 2343,
      "ເດີນທາງ": 2344,
      "ສະຫງວນ": 2345,
      "Moham": 2346,
      "AI": 2347,
      "CE": 2348,
      "ni": 2349,
      "ow": 2350,
      "ook": 2351,
      "ry": 2352,
      "ຖັດ": 2353,
      "ນຽບ": 2354,
      "ມາກ": 2355,
      "ຢູງ": 2356,
      "ມີປະສິດທິຜົນ": 2357,
      "ທີ່ເປັນ": 2358,
      "ຄວາມສາມາດ": 2359,
      "ເຊັ່ນ": 2360,
      "ເຂົ້າໃນ": 2361,
      "ຢ່າງແຮງ": 2362,
      "ກາລະໂອກາດ": 2363,
      "ບັນລຸກ່ວາ": 2364,
      "ຕະຖານ": 2365,
      "ຄັ້ງນີ້": 2366,
      "ສູງສຸດ": 2367,
      "ດ້ານການຄ້າ": 2368,
      "ຄຳໝັ້ນ": 2369,
      "ແກ່ງ": 2370,
      "COP": 2371,
      "ເສັ້ນທາງ": 2372,
      "ລົງນາມໃນ": 2373,
      "ຊ່ຽວຊານ": 2374,
      "ມຽນມາ": 2375,
      "ຢືມ": 2376,
      "ສສຊ": 2377,
      "ເຄືອ": 2378,
      "%;": 2379,
      "57": 2380,
      "P5": 2381,
      "Vin": 2382,
      "WTO": 2383,
      "ຕັນ": 2384,
      "ບົບ": 2385,
      "ປົດ": 2386,
      "ຟະ": 2387,
      "ມື້ນ": 2388,
      "ຢີ": 2389,
      "ລານ": 2390,
      "ໝູ": 2391,
      "ທະລຸ": 2392,
      "ເສົາ": 2393,
      "ເຂົ້າສານ": 2394,
      "ວິໄສ": 2395,
      "ຜູ້ອຳນວຍການ": 2396,
      "ຖານະ": 2397,
      "ວາງສະແດງ": 2398,
      "ອະນ": 2399,
      "ຢືນອັນດັບທີ": 2400,
      "ຄະນະກຳມະການ": 2401,
      "1995": 2402,
      "ຂາວ": 2403,
      "ກິລາ": 2404,
      "ອຸປະ": 2405,
      "ຕື່ມອີກ": 2406,
      "Vietnam": 2407,
      "ແຂກທ່ອງທ່ຽວ": 2408,
      "ຂວາຍ": 2409,
      "09": 2410,
      "99": 2411,
      "Ben": 2412,
      "Car": 2413,
      "Da": 2414,
      "Is": 2415,
      "ya": 2416,
      "ກິນ": 2417,
      "ດໍາ": 2418,
      "ບົ": 2419,
      "ຟີ": 2420,
      "ມັກ": 2421,
      "ຢີບ": 2422,
      "ສອບ": 2423,
      "ສວນ": 2424,
      "ັ້": 2425,
      "ຼາມ": 2426,
      "ເຕື້": 2427,
      "ເຕະ": 2428,
      "ປະດິດ": 2429,
      "ໃນສະພາບການ": 2430,
      "ເລີກ": 2431,
      "ເພື່ອນ": 2432,
      "ເຂັ້ມ": 2433,
      "ລຸບ": 2434,
      "ແຫ່ງການ": 2435,
      "ດ້ວຍການ": 2436,
      "ກອງທັບ": 2437,
      "ເຫນີ": 2438,
      "ລ້ານເທື່ອຄົນ": 2439,
      "ບໍ່ທັນ": 2440,
      "ກໍ່ໄດ້": 2441,
      "ດຳລັດ": 2442,
      "ໂດຍກົງ": 2443,
      "ລັດຖະມົນຕີກະຊວງ": 2444,
      "ຍົກສູງ": 2445,
      "ຕົວຢ່າງ": 2446,
      "ຫົວຂໍ້": 2447,
      "ຄືນໃໝ່": 2448,
      "ເບ້ຍ": 2449,
      "ເຂົ້າຮ່ວມຂອງ": 2450,
      "1973": 2451,
      "ບຸກທະລຸ": 2452,
      "ຄົ້ນຄວ້າ": 2453,
      "ອຳນາດການປົກຄອງ": 2454,
      "ເລຂາທິການໃຫຍ່": 2455,
      "ໜ້ານັ້ນ": 2456,
      "ຄະນະບໍລິຫານງານ": 2457,
      "ແງ່": 2458,
      "03": 2459,
      "85": 2460,
      "AR": 2461,
      "Raul": 2462,
      "ex": 2463,
      "ng": 2464,
      "um": 2465,
      "ຍົບ": 2466,
      "ທູ": 2467,
      "ນ້ອງ": 2468,
      "ບ່ອນ": 2469,
      "ວ່ອງ": 2470,
      "ປະຕູ": 2471,
      "ປີນີ້": 2472,
      "ສະຖາ": 2473,
      "ຂອງຈີນ": 2474,
      "ມີສິດ": 2475,
      "ລຸ້ນ": 2476,
      "ຸມັດ": 2477,
      "ທິບໍດີ": 2478,
      "ນຳ້": 2479,
      "ຄະແນນ": 2480,
      "ບໍ່ມີ": 2481,
      "ນັກຮຽນ": 2482,
      "ord": 2483,
      "etro": 2484,
      "ການຄ້າເສລີ": 2485,
      "ແປ້ງ": 2486,
      "ໝູ່ເກາະ": 2487,
      "bao": 2488,
      "ອາກອນ": 2489,
      "ວິທະຍຸ": 2490,
      "ປຶກສາຫາລື": 2491,
      "ສາມັນເທື່ອທີ": 2492,
      "ໂທລະພາບ": 2493,
      "ສິລະປະ": 2494,
      "ກຳປູເຈຍ": 2495,
      "ເຕັກໂນໂລຊີ": 2496,
      "ໜັງສືພິມ": 2497,
      "ຕາມນັ້ນແລ້ວ": 2498,
      "ສ້າງຕັ້ງການພົວພັນທາງການທູດ": 2499,
      "IMF": 2500,
      "ຄຳໝັ້ນສັນຍາ": 2501,
      "ວິໄສທັດ": 2502,
      "ອະນຸມັດ": 2503,
      "ເຕື້ອງ": 2504,
      "\"\"": 2505,
      "07": 2506,
      "Je": 2507,
      "ຊາງ": 2508,
      "ຕວກ": 2509,
      "ຜ່າ": 2510,
      "ຢັ່ງ": 2511,
      "ຫ່າງ": 2512,
      "ສະຖຽນ": 2513,
      "ສະຕະວັດ": 2514,
      "ວ່າງ": 2515,
      "ແມ່ນປະມານ": 2516,
      "ເພງ": 2517,
      "ກັບການ": 2518,
      "ທິການ": 2519,
      "ເຊົ້າ": 2520,
      "ກອງທຶນ": 2521,
      "ມະນາ": 2522,
      "ລ້ານໂຕນ": 2523,
      "ສັງກັດ": 2524,
      "ສັງເກດ": 2525,
      "ເຮັດວຽກ": 2526,
      "hang": 2527,
      "ກວດກາ": 2528,
      "ຄົບຮອບ": 2529,
      "ອະນຸຍາດ": 2530,
      "ສະຫງົບ": 2531,
      "photo": 2532,
      "Ass": 2533,
      "ບຳລຸງ": 2534,
      "ຈັດວາງອັດຕາພາສີ": 2535,
      "04": 2536,
      "44": 2537,
      "BR": 2538,
      "DA": 2539,
      "Mor": 2540,
      "Nic": 2541,
      "go": 2542,
      "si": 2543,
      "~~": 2544,
      "ຂຸດ": 2545,
      "ຂວາງ": 2546,
      "ງວຽນ": 2547,
      "ຊິນ": 2548,
      "ຍັດ": 2549,
      "ບັກ": 2550,
      "ພໍ່": 2551,
      "ິວ": 2552,
      "ົ້ມ": 2553,
      "ແອນ": 2554,
      "ໄນ": 2555,
      "ການຢ້ຽມຢາມ": 2556,
      "ສະຫນອງ": 2557,
      "ື່ອກ": 2558,
      "ພາສາ": 2559,
      "ທີ່ກອງປະຊຸມ": 2560,
      "ເລຂາ": 2561,
      "ອາບ": 2562,
      "ເປັນຕົ້ນ": 2563,
      "ລິບ": 2564,
      "ຈະມີ": 2565,
      "ທິມ": 2566,
      "ເງົາ": 2567,
      "ເຈີນ": 2568,
      "ຂະແຫນງ": 2569,
      "ລ້ານດົ່ງ": 2570,
      "onia": 2571,
      "ນັກຂ່າວ": 2572,
      "ປະກົດ": 2573,
      "2004": 2574,
      "ມາດຕະຖານ": 2575,
      "ລະຫວ່າງຫວຽດນາມ": 2576,
      "ຫລາຍຢ່າງ": 2577,
      "ເອກະລາດ": 2578,
      "ogist": 2579,
      "ສຸຂະ": 2580,
      "ASEM": 2581,
      "ດົນຕີ": 2582,
      "ເນັ້ນໜັກ": 2583,
      "ລຽນຕິດ": 2584,
      "ບັນດານັກ": 2585,
      "Assad": 2586,
      "BRIC": 2587,
      "G7": 2588,
      "Hill": 2589,
      "In": 2590,
      "Sam": 2591,
      "ຂວັນ": 2592,
      "ຂ່າຍ": 2593,
      "ຈີມ": 2594,
      "ຖ່າຍ": 2595,
      "ປາດ": 2596,
      "ປິນ": 2597,
      "ສື່ມ": 2598,
      "ອອນ": 2599,
      "ຮ້ອນ": 2600,
      "ປະທັບ": 2601,
      "ການບິນ": 2602,
      "າດາ": 2603,
      "ເລີນ": 2604,
      "ເລີດ": 2605,
      "ກັບບັນດາ": 2606,
      "ເກືອ": 2607,
      "ເຂົ້າສູ່": 2608,
      "ເງິ": 2609,
      "ຫລັກ": 2610,
      "ເພີ່ມທະວີ": 2611,
      "ເງິນຕາ": 2612,
      "ຜູ້ຕາງໜ້າ": 2613,
      "ຜົນສະທ້ອນ": 2614,
      "ຫນາດ": 2615,
      "ນັບແຕ່ວັນທີ": 2616,
      "2003": 2617,
      "ທຸກໆ": 2618,
      "ເຕືອນ": 2619,
      "ແທງ": 2620,
      "ໂຮ່ຈີມ": 2621,
      "ຂອບຂະໜາດ": 2622,
      "ລັດຖະທຳມະນູນ": 2623,
      "ກອມມູນິດ": 2624,
      "ຄັດຄ້ານ": 2625,
      "Catal": 2626,
      "ເປັນເອກະພາບ": 2627,
      "ກ່ຳປັ່ນ": 2628,
      "Nicol": 2629,
      "ສື່ມວນ": 2630,
      "ປະທັບໃຈ": 2631,
      "ໂຮ່ຈີມິນ": 2632,
      "41": 2633,
      "51": 2634,
      "Bash": 2635,
      "Euro": 2636,
      "Kim": 2637,
      "NA": 2638,
      "oe": 2639,
      "ron": 2640,
      "ຂ້": 2641,
      "ຈູ": 2642,
      "ຍີ": 2643,
      "ດູ": 2644,
      "ປານ": 2645,
      "ລວງ": 2646,
      "ວໍ": 2647,
      "ອ້າຍ": 2648,
      "ຮ່ຳ": 2649,
      "ແຟ": 2650,
      "ຂອງລັດຖະບານ": 2651,
      "່ນີ້": 2652,
      "ທ່ານເລຂາທິການໃຫຍ່": 2653,
      "ບັນດາເປົ້າໝາຍ": 2654,
      "ເສດຖະກິດໂລກ": 2655,
      "ຫນັບ": 2656,
      "ຍັງບໍ່ທັນ": 2657,
      "ard": 2658,
      "ຄາວ": 2659,
      "ສອງຝ່າຍ": 2660,
      "ຫງວຽນຊວນ": 2661,
      "ກຸ່ມບໍລິສັດ": 2662,
      "ຍາດໄດ້": 2663,
      "ເຫຼືອພຽງ": 2664,
      "ເຫລີມ": 2665,
      "ນອກຈາກ": 2666,
      "...": 2667,
      "ASOS": 2668,
      "ເຊື່ອມໂຍງ": 2669,
      "ສະຫນາ": 2670,
      "ສັບປະດາຂັ້ນສູງ": 2671,
      "ຄະນະບໍລິຫານງານສູນກາງພັກ": 2672,
      "ogistics": 2673,
      "ສຸຂະພາບ": 2674,
      "BRICS": 2675,
      "ຫງວຽນຊວນຟຸກ": 2676,
      "ASOSAI": 2677,
      "**": 2678,
      "-​": 2679,
      "06": 2680,
      "120": 2681,
      "1000": 2682,
      "39": 2683,
      "81": 2684,
      "97": 2685,
      "Ho": 2686,
      "con": 2687,
      "ly": 2688,
      "ກຸນ": 2689,
      "ຄ່": 2690,
      "ຈູງ": 2691,
      "ດິບ": 2692,
      "ສິກ": 2693,
      "ແວ": 2694,
      "ໂບ": 2695,
      "“,": 2696,
      "ບັນທຶກ": 2697,
      "ເມືອ": 2698,
      "ມາຢ້ຽມຢາມ": 2699,
      "ສາສະຫນາ": 2700,
      "ຄວາມທຸກຍາກ": 2701,
      "ເຊີ": 2702,
      "ເຊັກ": 2703,
      "ປະເທດຊາດ": 2704,
      "ກະສິກ": 2705,
      "ບັນລຸປະມານ": 2706,
      "ວິຊາ": 2707,
      "ເຈດ": 2708,
      "ຊົນເຜົ່າ": 2709,
      "ຈັດອັນດັບ": 2710,
      "ອະທິປະ": 2711,
      "ເອີ້ນ": 2712,
      "ໂຕນິກ": 2713,
      "ສຳເລັດຜົນ": 2714,
      "ເຢືອງ": 2715,
      "ເໜືອ": 2716,
      "hanh": 2717,
      "ສະແດງໃຫ້ເຫັນ": 2718,
      "ຂອງປະເທດຊາດ": 2719,
      "ມໍ່ໆມານີ້": 2720,
      "ພະລັງງານ": 2721,
      "ບົ່ມ": 2722,
      "Bashar": 2723,
      "160": 2724,
      "82": 2725,
      "Cov": 2726,
      "IS": 2727,
      "Ker": 2728,
      "Rom": 2729,
      "ez": 2730,
      "ko": 2731,
      "sk": 2732,
      "san": 2733,
      "ກອ": 2734,
      "ທອດ": 2735,
      "ຟອງ": 2736,
      "ມາຍ": 2737,
      "ໝໍ": 2738,
      "ການພົບປະ": 2739,
      "າມາດ": 2740,
      "ໃນລະຫວ່າງ": 2741,
      "ສະນັ້ນ": 2742,
      "ແມ່ນກວ່າ": 2743,
      "ລາຊະ": 2744,
      "ຕື້ດົງ": 2745,
      "ant": 2746,
      "ເອເລັກ": 2747,
      "ເພື່ອແນໃສ່": 2748,
      "ນຳມາ": 2749,
      "ສະພາສູງ": 2750,
      "ປຸ່ນ": 2751,
      "ຄຳເຫັນ": 2752,
      "ແຜນການພັດທະນາເສດຖະກິດ": 2753,
      "ສັງຄົມປີ": 2754,
      "ໄດ້ຮັບການສ້າງຕັ້ງ": 2755,
      "ຮູບແບບ": 2756,
      "aceb": 2757,
      "ເກີດຂຶ້ນ": 2758,
      "ຄາດວ່າບັນລຸ": 2759,
      "ogle": 2760,
      "ກຳມະການບໍ່ປະຈຳການ": 2761,
      "ເຊື່ອມຕໍ່": 2762,
      "ມີຄວາມໝາຍ": 2763,
      "ຊັບພະ": 2764,
      "ເດັກນ້ອຍ": 2765,
      "ແຊກ": 2766,
      "ຄວບຄຸມ": 2767,
      "ມຸ່ງໄປເຖິງ": 2768,
      "ແຄມ": 2769,
      "ໂຊມ": 2770,
      "ເຢຍລະມັນ": 2771,
      "ອິນເຕີແນັດ": 2772,
      "Mohamed": 2773,
      "ອອນລາຍ": 2774,
      "Covid": 2775,
      "acebook": 2776,
      "Ale": 2777,
      "AIP": 2778,
      "ODA": 2779,
      "eg": 2780,
      "phu": 2781,
      "uel": 2782,
      "ກັ້ນ": 2783,
      "ກຸ້ງ": 2784,
      "ຕານ": 2785,
      "ທຽມ": 2786,
      "ປິດ": 2787,
      "ປຸກ": 2788,
      "ປຽບ": 2789,
      "ຝັ່ງ": 2790,
      "ພ້າວ": 2791,
      "ຫນາ": 2792,
      "ຮາກ": 2793,
      "ຮຸ່ງ": 2794,
      "໋ງ": 2795,
      "ໃນປະຈຸບັນ": 2796,
      "ສະນາ": 2797,
      "ບັນຊີ": 2798,
      "ຂອງທ່ານປະທານາທິບໍດີ": 2799,
      "ມີດ": 2800,
      "ໃຫ່ຍ": 2801,
      "ຮ່ວາງ": 2802,
      "ເອົ": 2803,
      "ໂຄສະນາ": 2804,
      "ແລ້ວນີ້": 2805,
      "ເຊິ່ງແມ່ນ": 2806,
      "ຊາວໜຸ່ມ": 2807,
      "ແກ່ນ": 2808,
      "ເອກອັກຄະ": 2809,
      "ພວກເຮົາ": 2810,
      "ນິຍົມ": 2811,
      "ເນື້ອໃນ": 2812,
      "ຕ່ຳກ່ວາ": 2813,
      "ດຳເນີນທຸລະກິດ": 2814,
      "ດິນຟ້າ": 2815,
      "ບຸກຄະ": 2816,
      "ອິນເດຍ": 2817,
      "ເຢັນ": 2818,
      "baod": 2819,
      "ແຈ້ງວ່າ": 2820,
      "ສະຖານທູດ": 2821,
      "ທັດສະນະ": 2822,
      "ປະສົບກັບ": 2823,
      "ຖະແຫຼງການ": 2824,
      "ບີງ": 2825,
      "ເງື່ອນໄຂ": 2826,
      "ອິດສະຣາ": 2827,
      "ຂົນຂວາຍ": 2828,
      "AMM": 2829,
      "ມື້ນັບ": 2830,
      "Hillary": 2831,
      "ເອເລັກໂຕນິກ": 2832,
      "AIPA": 2833,
      "ເອກອັກຄະລັດຖະທູດ": 2834,
      "ດິນຟ້າອາກາດ": 2835,
      "62": 2836,
      "66": 2837,
      "72": 2838,
      "86": 2839,
      "94": 2840,
      "Dung": 2841,
      "Le": 2842,
      "New": 2843,
      "ck": 2844,
      "ef": 2845,
      "of": 2846,
      "ຊຳ": 2847,
      "ດ່ວນ": 2848,
      "ນໍາ": 2849,
      "ບ່າຍ": 2850,
      "ລ່ງ": 2851,
      "ືອກ": 2852,
      "໋າງ": 2853,
      "ການາດາ": 2854,
      "ໃນຮອບ": 2855,
      "ໄດ້ປະຕິບັດ": 2856,
      "ຂອງໂລກ": 2857,
      "່ນອນ": 2858,
      "ແຫ້ງ": 2859,
      "ຮັບມື": 2860,
      "ລິເລີ່ມ": 2861,
      "ຈະແຈ້ງ": 2862,
      "ເຊີຍ": 2863,
      "ຢ່າງໃດ": 2864,
      "ຜູ້ມີສິດ": 2865,
      "ຂະຫນາດ": 2866,
      "ບັດສະໜັບສະໜູນ": 2867,
      "ຕໍ່ໜ້າ": 2868,
      "ພະຍາດ": 2869,
      "ກໍາ": 2870,
      "ຂໍ້ສັງເກດ": 2871,
      "ຫົວຄົນ": 2872,
      "ໄດ້ຮັບຮອງ": 2873,
      "ສັດຕະ": 2874,
      "ເຕັມ": 2875,
      "ຊ່ວຍເຫຼືອ": 2876,
      "ທ້າຍເດືອນ": 2877,
      "ເບິ່ງ": 2878,
      "1998": 2879,
      "ເຜີຍ": 2880,
      "ບັນດາມາດ": 2881,
      "ນອກນັ້ນ": 2882,
      "ຂອບເຂດ": 2883,
      "ປູຊະນີ": 2884,
      "ແຄ້ວ": 2885,
      "ໄຈ້": 2886,
      "ມະຫາວິທະຍາ": 2887,
      "ແວດລ້ອມ": 2888,
      "Start": 2889,
      "ຫ້ອງການ": 2890,
      "Dav": 2891,
      "ດໍາເນີນ": 2892,
      "Catalonia": 2893,
      "ຜູ້ມີສິດເລືອກຕັ້ງ": 2894,
      ");": 2895,
      "AD": 2896,
      "Cr": 2897,
      "Lu": 2898,
      "Mo": 2899,
      "Pr": 2900,
      "Van": 2901,
      "ai": 2902,
      "do": 2903,
      "her": 2904,
      "kg": 2905,
      "zone": 2906,
      "ຄູ": 2907,
      "ຄັບ": 2908,
      "ງການ": 2909,
      "ນົມ": 2910,
      "ຟິ": 2911,
      "ມົງ": 2912,
      "ສັ້ນ": 2913,
      "ຫອມ": 2914,
      "ຮັດ": 2915,
      "ັຍ": 2916,
      "ໜຳ": 2917,
      "ປະພັນ": 2918,
      "ການກໍ່": 2919,
      "ທີ່ບໍ່": 2920,
      "ວັນນະ": 2921,
      "ຢູ່ໃນ": 2922,
      "ເປັນຂີດໝາຍ": 2923,
      "ກິດການ": 2924,
      "ລຸກ": 2925,
      "ແຫ່ງລັດ": 2926,
      "ບັນດາພື້ນຖານເສດຖະກິດ": 2927,
      "ຕັ້ງຫນ້າ": 2928,
      "ຫລວດ": 2929,
      "ງານວາງສະແດງ": 2930,
      "ຜູ້ອອກ": 2931,
      "ເຖິງຢ່າງໃດ": 2932,
      "ຈາກຕ່າງປະເທດ": 2933,
      "ເສດຖະກິດຫວຽດນາມ": 2934,
      "ຜ່ານການ": 2935,
      "ກໍຕາມ": 2936,
      "ຊ້ຳ": 2937,
      "ສິນໃນ": 2938,
      "ຂໍ້ມູນ": 2939,
      "ຂໍ້ກຳນົດ": 2940,
      "org": 2941,
      "ພາກໃຕ້": 2942,
      "ຄຳສັ່ງ": 2943,
      "ລວມມູນຄ່າ": 2944,
      "ກອງປະຊຸມສະໄໝ": 2945,
      "ຈຸດເວລາ": 2946,
      "ຂ່າວສານ": 2947,
      "ເອກະຊົນ": 2948,
      "ແຫນ່ງ": 2949,
      "ເປີດກວ້າງ": 2950,
      "ກວ໋າງ": 2951,
      "ລູກສອນ": 2952,
      "ກ້ວາງ": 2953,
      "ວິວັດທະນາ": 2954,
      "ຄາດຄະເນວ່າ": 2955,
      "ສະພາຄວາມໝັ້ນຄົງສະຫະປະຊາຊາດ": 2956,
      "oud": 2957,
      "ທົ່ງພຽງ": 2958,
      "ແກຼນ": 2959,
      "Jean": 2960,
      "ເນັ້ນໜັກວ່າ": 2961,
      "NATO": 2962,
      "%​": 2963,
      "/​": 2964,
      "88": 2965,
      "900": 2966,
      "AC": 2967,
      "Mit": 2968,
      "Net": 2969,
      "PF": 2970,
      "ce": 2971,
      "ct": 2972,
      "nh": 2973,
      "ກມ": 2974,
      "ກຼາມ": 2975,
      "ຈັບ": 2976,
      "ຕຶງ": 2977,
      "ຫນີ້": 2978,
      "ອຽນ": 2979,
      "ເມີດ": 2980,
      "ແອດ": 2981,
      "໋າຍ": 2982,
      "ໜ່າຍ": 2983,
      "ປະສານ": 2984,
      "ລະຄອນ": 2985,
      "ໃນໂອກາດ": 2986,
      "ສະກັດ": 2987,
      "ໄດ້ຖືກ": 2988,
      "ຂອງຕ່າງປະເທດ": 2989,
      "ມີກວ່າ": 2990,
      "ມີວິສາຫະກິດ": 2991,
      "ທີ່ຍັງ": 2992,
      "ຫຼ້າ": 2993,
      "ເສັງ": 2994,
      "ແຕ້ມ": 2995,
      "ເປັນຄັ້ງທຳອິດ": 2996,
      "ຈຳກັດ": 2997,
      "ຢ່າງດີ": 2998,
      "ກາເຟ": 2999,
      "ສຳນັກງານ": 3000,
      "ຮ່ວມກອງ": 3001,
      "193": 3002,
      "ຍະສະຖານ": 3003,
      "ເຈື່ອງ": 3004,
      "ຍາບັນ": 3005,
      "ຕໍ່ສູ້": 3006,
      "ບໍ່ພຽງແຕ່": 3007,
      "2002": 3008,
      "arus": 3009,
      "ພາກເອກະຊົນ": 3010,
      "ແນ່ນອນ": 3011,
      "ເຂົ້າຮ່ວມການ": 3012,
      "ນະຄອນຫຼວງ": 3013,
      "ເຄື່ອງໝາຍ": 3014,
      "ລະບອບ": 3015,
      "ຄາດວ່າຈະ": 3016,
      "ລະດົມ": 3017,
      "ແບ່ງປັນ": 3018,
      "ຫນັງສື": 3019,
      "ສິງກະໂປ": 3020,
      "ອຸປະຖຳ": 3021,
      "ສະຖາບັນ": 3022,
      "ແຟ້ນ": 3023,
      "Kerry": 3024,
      "ໃນລະຫວ່າງວັນທີ": 3025,
      "Alex": 3026,
      "ປະສົບກັບຄວາມຫຍຸ້ງຍາກ": 3027,
      "ບັນດາມາດຕະການ": 3028,
      "ສິນໃນນ້ຳ": 3029,
      "110": 3030,
      "Bel": 3031,
      "Po": 3032,
      "ap": 3033,
      "aw": 3034,
      "bi": 3035,
      "bas": 3036,
      "sung": 3037,
      "ຂຽວ": 3038,
      "ຂື້ນ": 3039,
      "ຈາງ": 3040,
      "ຊວັນ": 3041,
      "ທົດສະ": 3042,
      "ສົກ": 3043,
      "ສໍ້": 3044,
      "ອ່": 3045,
      "ອ່ານ": 3046,
      "ົ້າມ": 3047,
      "ເຕິ": 3048,
      "ການທູດ": 3049,
      "ການບໍລິການ": 3050,
      "ສະປາຍ": 3051,
      "ສະເໝີ": 3052,
      "ສະຫລອງ": 3053,
      "ພາລະ": 3054,
      "ທີ່ຜ່ານມາ": 3055,
      "ເມື": 3056,
      "ເພີ່": 3057,
      "ດາວ": 3058,
      "ມາເປັນເວລາ": 3059,
      "ນີງ": 3060,
      "ເປັນປະເທດ": 3061,
      "ກິດຈະ": 3062,
      "ບັນດາການນຳ": 3063,
      "ກາວ": 3064,
      "ປະທານາ": 3065,
      "ຍອດຜະລິດຕະພັນ": 3066,
      "ນັກລົງທຶນ": 3067,
      "ຍ່ອຍ": 3068,
      "ພິຈາ": 3069,
      "ນັບມື້ນັບ": 3070,
      "ໂດຍບໍ່": 3071,
      "ພ້ອມທັງ": 3072,
      "ປາຣີ": 3073,
      "ແບນ": 3074,
      "ຢືນອັນດັບ": 3075,
      "ເຕັດ": 3076,
      "ແໜ່": 3077,
      "ເມື່ອທຽບກັບ": 3078,
      "ສຳຄັນທີ່ສຸດ": 3079,
      "ກິໂລກ": 3080,
      "ແກ້ວ": 3081,
      "ຄົ້ນຄ້ວາ": 3082,
      "ສຸມໃສ່": 3083,
      "ທ່ານນາຍົກລັດຖະມົນຕີຫວຽດນາມ": 3084,
      "ສິດທິມະນຸດ": 3085,
      "ດ້ວຍຍອດຈຳນວນ": 3086,
      "ນິວເຄຼຍ": 3087,
      "inhphu": 3088,
      "ປ່ອນບັດ": 3089,
      "ສະຫລຸບ": 3090,
      "ຊົ່ວໂມງ": 3091,
      "bert": 3092,
      "azak": 3093,
      "ໃນຊຸມປີ": 3094,
      "ຄຸ້ມຄອງ": 3095,
      "ແມ່ນ້ຳຂອງ": 3096,
      "Nicolas": 3097,
      "ຄ່ອຍ": 3098,
      "ວັນນະຄະດີ": 3099,
      "ທົດສະວັດ": 3100,
      "ພິຈາລະ": 3101,
      "96": 3102,
      "Ge": 3103,
      "Go": 3104,
      "Her": 3105,
      "Sch": 3106,
      "XII": 3107,
      "ney": 3108,
      "ps": 3109,
      "ກູບ": 3110,
      "ຂ້າງ": 3111,
      "ຄ່ຳ": 3112,
      "ຈັນ": 3113,
      "ດ່ານ": 3114,
      "ຕຽນ": 3115,
      "ນ້າ": 3116,
      "ຝູ": 3117,
      "ມຸດ": 3118,
      "ລາກ": 3119,
      "ິ້ນ": 3120,
      "​:": 3121,
      "ການບໍ່": 3122,
      "2045": 3123,
      "ໃນວັນ": 3124,
      "ໃນທົ່ວໂລກ": 3125,
      "ໃນທົ່ວປະເທດ": 3126,
      "ທີ່ວ": 3127,
      "ໄດ້ເຫັນດີ": 3128,
      "ຂອງສະຫະປະຊາຊາດ": 3129,
      "ເລເຊຍ": 3130,
      "ແມ່ນປະເທດ": 3131,
      "ຫຼຽນ": 3132,
      "ມາເລເຊຍ": 3133,
      "ແຕ່ນີ້": 3134,
      "ເປັນເຈົ້າ": 3135,
      "ເປັນຢ່າງດີ": 3136,
      "ສົ້ມ": 3137,
      "ຢ່າງໜ້ອຍ": 3138,
      "ຢ່າງມີປະສິດທິຜົນ": 3139,
      "ສ້າງວຽກ": 3140,
      "ກະເສດ": 3141,
      "ເຫນ": 3142,
      "ເວັບ": 3143,
      "ເຄິ່ງ": 3144,
      "ຍັງມີ": 3145,
      "ພັກສາ": 3146,
      "ຂໍ້ລິເລີ່ມ": 3147,
      "ປາຈາ": 3148,
      "APPF": 3149,
      "ສັນຍາການຄ້າເສລີ": 3150,
      "start": 3151,
      "ເຫຼີ": 3152,
      "ເຕົ້າ": 3153,
      "ຕ່ຳກວ່າ": 3154,
      "ກຳນົດທິດ": 3155,
      "ດຳເນີນງານ": 3156,
      "ກຳລັງໜູນ": 3157,
      "ບຸກຄົນ": 3158,
      "ເລີ່ມຕົ້ນ": 3159,
      "ປີແຫ່ງການປະຕິບັດ": 3160,
      "ພິເສດແມ່ນ": 3161,
      "ຕາງຫນ້າ": 3162,
      "ຜະລິດຕະພັນກະເສດ": 3163,
      "ຄັດເລືອກ": 3164,
      "ທະວີບ": 3165,
      "ເວທີປາໄສເສດຖະກິດໂລກ": 3166,
      "ບູຊາ": 3167,
      "ສິ້ນສຸດ": 3168,
      "ກວາງນາມ": 3169,
      "ລະດູບານ": 3170,
      "ຟື້ນຟູ": 3171,
      "ພັນທະມິດ": 3172,
      "ຍົກອອກມາ": 3173,
      "ເໝາະສົມ": 3174,
      "Mahm": 3175,
      "ວິທະຍຸກະຈາຍສຽງ": 3176,
      "Samsung": 3177,
      "ຮ່ຳຮຽນ": 3178,
      "ກະສິກອນ": 3179,
      "ສັດຕະຍາບັນ": 3180,
      "ກອງປະຊຸມສະໄໝສາມັນເທື່ອທີ": 3181,
      "ລູກສອນໄຟ": 3182,
      "Mitt": 3183,
      "Belarus": 3184,
      "ກູບາ": 3185,
      "Am": 3186,
      "Air": 3187,
      "Ky": 3188,
      "MW": 3189,
      "Mac": 3190,
      "Mich": 3191,
      "RCE": 3192,
      "SO": 3193,
      "bia": 3194,
      "if": 3195,
      "th": 3196,
      "tel": 3197,
      "ກັງ": 3198,
      "ງວດ": 3199,
      "ຕື": 3200,
      "ຕູ້": 3201,
      "ທວງ": 3202,
      "ນິງ": 3203,
      "ນລັງ": 3204,
      "ຟັງ": 3205,
      "ຟ້ອງ": 3206,
      "ຮັ່ງ": 3207,
      "ຮຸນ": 3208,
      "ຮ້ອຍ": 3209,
      "ແອ": 3210,
      "ໂສ": 3211,
      "ໝື່ນ": 3212,
      "ປະຖົມ": 3213,
      "ການສ້າງ": 3214,
      "ໄດ້ປະກາດ": 3215,
      "ໄດ້ກາຍເປັນ": 3216,
      "ຂອງການ": 3217,
      "ຂອງອົງການ": 3218,
      "ຂອງຂວັນ": 3219,
      "ເລີ": 3220,
      "ອາຟະ": 3221,
      "ທ່ານລັດຖະມົນຕີການຕ່າງປະເທດ": 3222,
      "ຈຳໜ່າຍ": 3223,
      "ດ້ວຍຫົວຂໍ້": 3224,
      "ເຂົ້າເປັນສະມາຊິກ": 3225,
      "ດີຈີ": 3226,
      "ກາຣີ": 3227,
      "ງານທຳ": 3228,
      "ຜູ້ຕິດ": 3229,
      "ສຸດທ້າຍ": 3230,
      "ຜົນກະທົບ": 3231,
      "ກໍ່ແມ່ນ": 3232,
      "ໃຫຍ່ຫຼວງ": 3233,
      "ເນັດ": 3234,
      "ຫວ່າງແລ້ວນີ້": 3235,
      "ສັງລວມ": 3236,
      "orn": 3237,
      "ມາດຕະການ": 3238,
      "ell": 3239,
      "ລົບລ້າງ": 3240,
      "ເສຍຫາຍ": 3241,
      "ຄາດໝາຍເຕີບໂຕ": 3242,
      "ola": 3243,
      "ເຢັຍ": 3244,
      "ຄອບຄົວທຸກຍາກ": 3245,
      "ມາຮອດປັດຈຸບັນ": 3246,
      "ໂຮງງານ": 3247,
      "ກວດສອບ": 3248,
      "ຍາມໃດ": 3249,
      "ປອດໄພ": 3250,
      "ຫຸ້ນສ່ວນ": 3251,
      "ກອງປະຊຸມໃຫຍ່ຄັ້ງທີ": 3252,
      "ແຖວໜ້າ": 3253,
      "ເຄົາລົບ": 3254,
      "Maduro": 3255,
      "ແກ່ງແຍ້ງ": 3256,
      "ຕວກກີ": 3257,
      "ບຳລຸງສ້າງ": 3258,
      "Romney": 3259,
      "Mahmoud": 3260,
      "Michel": 3261,
      "RCEP": 3262,
      "ອາຟະລິກາ": 3263,
      "ດີຈີຕອນ": 3264,
      "%).": 3265,
      "69": 3266,
      "76": 3267,
      "Ahm": 3268,
      "Col": 3269,
      "Jer": 3270,
      "Jong": 3271,
      "Joe": 3272,
      "Mic": 3273,
      "Mik": 3274,
      "Phu": 3275,
      "WB": 3276,
      "ag": 3277,
      "our": 3278,
      "uz": 3279,
      "ຂໍ": 3280,
      "ຂູ່": 3281,
      "ຍ້າຍ": 3282,
      "ດຶກ": 3283,
      "ບຣາ": 3284,
      "ປົວ": 3285,
      "ຝາກ": 3286,
      "ມສະຫຼອງ": 3287,
      "ຣັບ": 3288,
      "ຣັກ": 3289,
      "ລອຍ": 3290,
      "ວາດ": 3291,
      "ວອນ": 3292,
      "ສົດ": 3293,
      "ຫ້າມ": 3294,
      "ອ່ອນ": 3295,
      "ເຣ": 3296,
      "ໂພ": 3297,
      "ໝວດ": 3298,
      "ໃນຂອບເຂດ": 3299,
      "ໄດ້ຊີ້": 3300,
      "ເທດສະ": 3301,
      "ເພື່ອກ": 3302,
      "ເປັນຫຸ້ນສ່ວນ": 3303,
      "​​​​": 3304,
      "ນາບ": 3305,
      "ນາທີ": 3306,
      "ຄວາມມານະພະຍາຍາມ": 3307,
      "anya": 3308,
      "ໂດເນ": 3309,
      "ນັກທຸລະກິດ": 3310,
      "ers": 3311,
      "ຄົມມະນາ": 3312,
      "ຈັດຂຶ້ນ": 3313,
      "ລົງທຶນເຂົ້າ": 3314,
      "all": 3315,
      "alem": 3316,
      "ເຈົ້າໜ້າທີ່": 3317,
      "ປະຕິບັດງານ": 3318,
      "ກ່ອນໜ້ານັ້ນ": 3319,
      "stan": 3320,
      "ໝາກພ້າວ": 3321,
      "140": 3322,
      "ຫງວຽນຊວັນ": 3323,
      "ໄດ້ຮັບການລົງນາມ": 3324,
      "ຄາດໝາຍການເຕີບໂຕ": 3325,
      "ຕິດພັນ": 3326,
      "ຕິດຕາມ": 3327,
      "1993": 3328,
      "ກິໂລ": 3329,
      "ອິນໂດເນ": 3330,
      "ທີ່ມີມູນຄ່າ": 3331,
      "ida": 3332,
      "ກຳມະກອນ": 3333,
      "ປັດໄຈ": 3334,
      "ປີແຫ່ງການ": 3335,
      "ສະຖານທີ່": 3336,
      "ນິວຊີ": 3337,
      "ພະຍົບ": 3338,
      "ປີແຫ່ງວັນສ້າງຕັ້ງການພົວພັນທາງການທູດ": 3339,
      "ສື່ສານ": 3340,
      "ກາຍເປັນປະເທດ": 3341,
      "ຄູ່ຮ່ວມມືຮອບດ້ານ": 3342,
      "ໂທລະສັບ": 3343,
      "Abe": 3344,
      "ມີການເຂົ້າຮ່ວມຂອງ": 3345,
      "ປະຊາທິປະໄຕ": 3346,
      "ຖ້ວນ": 3347,
      "--------": 3348,
      "ແພງ": 3349,
      "ໝູນໃຊ້": 3350,
      "ໃນໄຕມາດທີ": 3351,
      "Eurozone": 3352,
      "ໄດ້ຮັບຮອງເອົາ": 3353,
      "ປູຊະນີຍະສະຖານ": 3354,
      "ຄ່ອຍໆ": 3355,
      "ຄົມມະນາຄົມ": 3356,
      "ອິນໂດເນເຊຍ": 3357,
      "220": 3358,
      "230": 3359,
      "3000": 3360,
      "4000": 3361,
      "5000": 3362,
      "73": 3363,
      "Br": 3364,
      "Bill": 3365,
      "Em": 3366,
      "Facebook": 3367,
      "Kazak": 3368,
      "San": 3369,
      "Shang": 3370,
      "TC": 3371,
      "Thi": 3372,
      "ab": 3373,
      "hstan": 3374,
      "lor": 3375,
      "pres": 3376,
      "uan": 3377,
      "ຈໍາ": 3378,
      "ຊຸ": 3379,
      "ຕຸກ": 3380,
      "ນົວ": 3381,
      "ປັ້ນ": 3382,
      "ຝຶກ": 3383,
      "ພູດ": 3384,
      "ຟູ້": 3385,
      "ວົນ": 3386,
      "ອົດ": 3387,
      "ອີນ": 3388,
      "ຮີບ": 3389,
      "ໃນສະພາບ": 3390,
      "ສະດາ": 3391,
      "ບັນຍັດ": 3392,
      "ໄດ້ຫຼຸດ": 3393,
      "ຂອງອາເມລິກາ": 3394,
      "ຂອງແຂວງ": 3395,
      "ຂອງທ່ານນາຍົກລັດຖະມົນຕີ": 3396,
      "ຂອງດິນຟ້າອາກາດ": 3397,
      "ທີ່ຕັ້ງ": 3398,
      "ທະກັນ": 3399,
      "ວັນບຸນ": 3400,
      "ລັດວິສາຫະກິດ": 3401,
      "ເປັນຫນ້າ": 3402,
      "ຮັບຮູ້": 3403,
      "ຂຶ້": 3404,
      "ບັນດາການເຄື່ອນໄຫວ": 3405,
      "ເກີບ": 3406,
      "ດ້ວຍຄວາມ": 3407,
      "ຢ່າງວ່ອງ": 3408,
      "ນີ້ຈະ": 3409,
      "ສຳພັນ": 3410,
      "ທຳລາຍ": 3411,
      "ທຳນຽບ": 3412,
      "ຮອດວັນທີ": 3413,
      "ຮອດທ້າຍປີ": 3414,
      "ຕໍ່ຫົວຄົນ": 3415,
      "ເຄມີ": 3416,
      "ເຄາະ": 3417,
      "ຫນັກ": 3418,
      "ຫນ່າຍ": 3419,
      "ຍອດວົງເງິນການຄ້າ": 3420,
      "ສູງທີ່ສຸດ": 3421,
      "ເລືອດ": 3422,
      "ຖືກຕ້ອງ": 3423,
      "ສາດສະດາ": 3424,
      "ໄດ້ຮັບຄວາມ": 3425,
      "ື້ອມ": 3426,
      "ຫລາຍກວ່າ": 3427,
      "ອັດຕາການ": 3428,
      "180": 3429,
      "ຈຸດສຸມ": 3430,
      "Truong": 3431,
      "ສົມບູນ": 3432,
      "ສັງຄົມໄລຍະ": 3433,
      "ໃນການພົວພັນ": 3434,
      "1994": 3435,
      "ທີ່ມີຄວາມ": 3436,
      "ແຍ້": 3437,
      "ນັບແຕ່ເມື່ອ": 3438,
      "ສະພາແຫ່ງຊາດຊຸດທີ": 3439,
      "chinhphu": 3440,
      "omoi": 3441,
      "baomoi": 3442,
      "uss": 3443,
      "rael": 3444,
      "ຈິດໃຈ": 3445,
      "ຕັດສິນໃຈ": 3446,
      "ບັນລຸລະດັບເຕີບໂຕ": 3447,
      "ຄູ່ຮ່ວມມືຍຸດທະສາດ": 3448,
      "ບູຮານ": 3449,
      "ຕີລາຄາວ່າ": 3450,
      "ທາດພິດ": 3451,
      "ເນື່ອງໃນໂອກາດ": 3452,
      "ປ້ອງກັນປະເທດ": 3453,
      "istan": 3454,
      "ໄລ່ຮອດທ້າຍປີ": 3455,
      "Mark": 3456,
      "quoc": 3457,
      "ປ່ຽນແປງຂອງດິນຟ້າອາກາດ": 3458,
      "ກົດໝາຍວ່າດ້ວຍທະເລ": 3459,
      "ສະມັດຕະພາບ": 3460,
      "Israel": 3461,
      "ປະດິດສ້າງ": 3462,
      "ນຳ້ມັນ": 3463,
      "Morsi": 3464,
      "ຂ້ຽວ": 3465,
      "ໂບດ": 3466,
      "ຂໍ້ສັງເກດວ່າ": 3467,
      "Netanya": 3468,
      "ສະກັດກັ້ນ": 3469,
      "ພິຈາລະນາ": 3470,
      "ຢ່າງໜ້ອຍສຸດ": 3471,
      "SOM": 3472,
      "Kazakhstan": 3473,
      "Netanyahu": 3474,
      "61": 3475,
      "64": 3476,
      "71": 3477,
      "Bus": 3478,
      "Bog": 3479,
      "CS": 3480,
      "Has": 3481,
      "Logistics": 3482,
      "PC": 3483,
      "ie": 3484,
      "pl": 3485,
      "ww": 3486,
      "zo": 3487,
      "ຄໍາ": 3488,
      "ງົວ": 3489,
      "ຈົ່ງ": 3490,
      "ຊື່ນ": 3491,
      "ດາຍ": 3492,
      "ດຸ່ນ": 3493,
      "ທຽນ": 3494,
      "ທໍາ": 3495,
      "ບົກ": 3496,
      "ປວງ": 3497,
      "ປິ່ນ": 3498,
      "ມຕົ້ນ": 3499,
      "ສອດ": 3500,
      "ອ້າງ": 3501,
      "ຮີ": 3502,
      "ຮູ": 3503,
      "ິ້": 3504,
      "ໜອງ": 3505,
      "ປະຈໍາ": 3506,
      "ການດຶງດູດ": 3507,
      "ການກະທຳ": 3508,
      "ໃນແຕ່ລະປີ": 3509,
      "ສະກຸນ": 3510,
      "ໄດ້ສົ່ງ": 3511,
      "ຂອງລັດ": 3512,
      "ວ່າການ": 3513,
      "ທີ່ໜ້າ": 3514,
      "ທີ່ມາຈາກ": 3515,
      "ຢູ່ບັນດາ": 3516,
      "ໃຫ້ສັດຕະຍາບັນ": 3517,
      "ລ້ຳ": 3518,
      "ບັນດາບັນຫາ": 3519,
      "ເຂົ້າກັບ": 3520,
      "ຫລຽນ": 3521,
      "ວິກິດການ": 3522,
      "ຊີງ": 3523,
      "ຊີນ": 3524,
      "ຊີ້ນ": 3525,
      "105": 3526,
      "ຕາມທ່ານ": 3527,
      "inzo": 3528,
      "ປະທານປະເທດ": 3529,
      "ກໍ່ຄື": 3530,
      "ປະກອນ": 3531,
      "ພິພິ": 3532,
      "2001": 3533,
      "ຂໍ້ສະເໜີ": 3534,
      "ເຮັດງານທຳ": 3535,
      "ບໍລິເວນ": 3536,
      "ຫົວຄິດ": 3537,
      "ຫົວໜ່ວຍ": 3538,
      "ອົງສາ": 3539,
      "ລີບ": 3540,
      "ເພີ່ມຂຶ້ນປະມານ": 3541,
      "ວາທີ": 3542,
      "ສອງສົ້ນ": 3543,
      "ຊ່ວຍໃຫ້": 3544,
      "ແທ້": 3545,
      "ສົ່ງອອກໄປຍັງ": 3546,
      "ເພາະວ່າ": 3547,
      "ໜຶ່ງໃນ": 3548,
      "1990": 3549,
      "ຈົດໝາຍ": 3550,
      "ຊື່ວ່າ": 3551,
      "ຮ່າງກົດໝາຍ": 3552,
      "ກ້າວເຂົ້າສູ່": 3553,
      "rist": 3554,
      "ເວົ້າວ່າ": 3555,
      "ພໍສົມຄວນ": 3556,
      "CLM": 3557,
      "Viettel": 3558,
      "1967": 3559,
      "ຊອກຫາ": 3560,
      "ໄລ່ຮອດເດືອນ": 3561,
      "ບວນການ": 3562,
      "ໂຈມຕີ": 3563,
      "ປ່ຽນແປງໃໝ່": 3564,
      "ສໍາລັບ": 3565,
      "ພ້ອມກັນນັ້ນ": 3566,
      "ຫໍພິພິ": 3567,
      "ເມື່ອທຽບໃສ່ໄລຍະດຽວກັນຂອງປີກາຍ": 3568,
      "Shinzo": 3569,
      "ສື່ມວນຊົນ": 3570,
      "ນຳມາເຊິ່ງ": 3571,
      "David": 3572,
      "ເຫນືອ": 3573,
      "Macron": 3574,
      "ຫງວຽນຊວັນຟຸກ": 3575,
      "ນິວຊີແລນ": 3576,
      "Shangri": 3577,
      "ສາດສະດາຈານ": 3578,
      "350": 3579,
      "78": 3580,
      "750": 3581,
      "91": 3582,
      "Ay": 3583,
      "Bid": 3584,
      "Flor": 3585,
      "IL": 3586,
      "IV": 3587,
      "Min": 3588,
      "VFTA": 3589,
      "ea": 3590,
      "ek": 3591,
      "ib": 3592,
      "ian": 3593,
      "ma": 3594,
      "rid": 3595,
      "ud": 3596,
      "uong": 3597,
      "ຂວາ": 3598,
      "ງ່າຍ": 3599,
      "ຊັງ": 3600,
      "ຍອມ": 3601,
      "ທ້ວງ": 3602,
      "ບົວ": 3603,
      "ມຸກ": 3604,
      "ຢັດ": 3605,
      "ຢຸງ": 3606,
      "ຣັ່ງ": 3607,
      "ລ່": 3608,
      "ລ້າ": 3609,
      "ອິ": 3610,
      "ອໍ": 3611,
      "ຮ້": 3612,
      "ີງ": 3613,
      "ົ້": 3614,
      "ແອງ": 3615,
      "ໄດ": 3616,
      "​(": 3617,
      "….": 3618,
      "ປະໂຫຍດ": 3619,
      "ການສະ": 3620,
      "ການປ່ອຍ": 3621,
      "ລະພາບ": 3622,
      "ໃນຕອນ": 3623,
      "ໃນຂົງເຂດ": 3624,
      "ໄດ້ຍົກອອກ": 3625,
      "ໄດ້ສົມທົບ": 3626,
      "ຫວນ": 3627,
      "ຂອງປະທານາທິບໍດີ": 3628,
      "ຂອງບໍລິສັດ": 3629,
      "ມີງ": 3630,
      "ມີຜູ້": 3631,
      "ທີ່ຈະ": 3632,
      "ທີ່ກ່ຽວຂ້ອງ": 3633,
      "ທີ່ໄດ້ວາງອອກ": 3634,
      "ແມດ": 3635,
      "ອາຣັບ": 3636,
      "ໃຫ້ໄດ້": 3637,
      "ໃຫ້ຂໍ້ສັງເກດວ່າ": 3638,
      "ເປັນເຈົ້າພາບ": 3639,
      "ຂຶ້ນກວ່າ": 3640,
      "ຄົນຖືກ": 3641,
      "ຈຳນົງ": 3642,
      "ສຳພັນທະມິດ": 3643,
      "1930": 3644,
      "1980": 3645,
      "ania": 3646,
      "ຊີ້ນຳ": 3647,
      "ນຳພາ": 3648,
      "ຕໍ່ໄປ": 3649,
      "ຫນຸ່ມ": 3650,
      "ຍອດວົງເງິນສົ່ງອອກ": 3651,
      "ສູງກ່ວາ": 3652,
      "erg": 3653,
      "ປະຕິເສດ": 3654,
      "ວາງອອກ": 3655,
      "ຫຍັນ": 3656,
      "ຍົກເລີກ": 3657,
      "ພັດທະນາແບບຍືນຍົງ": 3658,
      "ກ່ຽວກັບກົດໝາຍວ່າດ້ວຍທະເລ": 3659,
      "ປະຕິບັດການ": 3660,
      "ລີ້ນ": 3661,
      "ກອງປະຊຸມຄັ້ງທີ": 3662,
      "ເຊິ່ງເປັນ": 3663,
      "ທຸກຂັ້ນ": 3664,
      "ກວມກວ່າ": 3665,
      "ເອີໂຣ": 3666,
      "mpic": 3667,
      "170": 3668,
      "ອົງການຈັດຕັ້ງ": 3669,
      "1997": 3670,
      "ຮູບເງົາ": 3671,
      "ສຳຄັນຂອງ": 3672,
      "ach": 3673,
      "ຊື່ສຽງ": 3674,
      "ກ້າວໜ້າ": 3675,
      "ຄິດໄລ່": 3676,
      "ບຸກໂຈມຕີ": 3677,
      "ທ່ານປະທານາທິບໍດີອາເມລິກາ": 3678,
      "ໃນໄລຍະຜ່ານມາ": 3679,
      "ລະບຸ": 3680,
      "utu": 3681,
      "ອາຊີຕາເວັນອອກ": 3682,
      "ຄຸນຄ່າ": 3683,
      "ສາຍພົວພັນ": 3684,
      "ຈີເລ": 3685,
      "ດ້ວຍຍອດເງິນລົງທຶນ": 3686,
      "odong": 3687,
      "ຕາເວັນອອກກາງ": 3688,
      "ກົມໃຫຍ່": 3689,
      "່ຽວກັບ": 3690,
      "ທ່ານນາງນາຍົກລັດຖະມົນຕີ": 3691,
      "ສະເລ່ຍຕໍ່ຫົວຄົນ": 3692,
      "ເສີມຂະຫຍາຍ": 3693,
      "ຫຼັກໝາຍ": 3694,
      "ໄຕມາດທີ": 3695,
      "ອະນຸລັກ": 3696,
      "ຖອນຕົວ": 3697,
      "Robert": 3698,
      "ບັງຄັບ": 3699,
      "ຕາມການສະຖິຕິ": 3700,
      "berg": 3701,
      "ບວນປະ": 3702,
      "ເນື້ອທີ່ດິນ": 3703,
      "ອານາ": 3704,
      "ດຳລົງຕຳແໜ່ງເປັນປະທານ": 3705,
      "ແງ່ຫວັງ": 3706,
      "ສະຖຽນລະພາບ": 3707,
      "ເຖິງຢ່າງໃດກໍ່ຕາມ": 3708,
      "Mike": 3709,
      "press": 3710,
      "Bogor": 3711,
      "ຫໍພິພິທະ": 3712,
      "Biden": 3713,
      "Florida": 3714,
      "ILO": 3715,
      "87": 3716,
      "Af": 3717,
      "B52": 3718,
      "CD": 3719,
      "Cam": 3720,
      "EA": 3721,
      "Pal": 3722,
      "Sc": 3723,
      "So": 3724,
      "Sang": 3725,
      "The": 3726,
      "ah": 3727,
      "ກິງ": 3728,
      "ງວ່າ": 3729,
      "ຈົບ": 3730,
      "ນອງ": 3731,
      "ນາກ": 3732,
      "ພັງ": 3733,
      "ພຸດ": 3734,
      "ຣົບ": 3735,
      "ລໍ": 3736,
      "ລາກອນ": 3737,
      "ລົ້ມ": 3738,
      "ສູ": 3739,
      "ຫີນ": 3740,
      "ອຶດ": 3741,
      "າວ": 3742,
      "ແອັດ": 3743,
      "ໂອນ": 3744,
      "້ວຍ": 3745,
      "ໜົນ": 3746,
      "ໜົມ": 3747,
      "ລະເບີດ": 3748,
      "ໄດ້ປະມານ": 3749,
      "ໄດ້ເຂົ້າຮ່ວມ": 3750,
      "ໄດ້ປະກອບສ່ວນ": 3751,
      "ໄດ້ເຮັດໃຫ້": 3752,
      "ໄດ້ລົງນາມໃນ": 3753,
      "ຫວູ": 3754,
      "ຂອງບັນດາ": 3755,
      "ຂອງກຸ່ມ": 3756,
      "ຂອງບັນດາປະເທດ": 3757,
      "ຂອງຕົນ": 3758,
      "ທີ່ພົ້ນເດັ່ນ": 3759,
      "ເລຍ": 3760,
      "ຖະໜົນ": 3761,
      "ເປັນຄັ້ງທີ": 3762,
      "ນະພາ": 3763,
      "ລິມ": 3764,
      "ເດັດ": 3765,
      "ຄົນເສຍຊີວິດ": 3766,
      "ດ້ວຍລະດັບ": 3767,
      "ເງິນເຟີ້": 3768,
      "ວິໄຈ": 3769,
      "ໂລຍ": 3770,
      "ເຈາະ": 3771,
      "ເຂດເສດຖະກິດ": 3772,
      "ນຳໜ້າ": 3773,
      "ຕາມແຜນການ": 3774,
      "ບໍ່ແມ່ນ": 3775,
      "ທາງອອນລາຍ": 3776,
      "ນັກທ່ອງທ່ຽວ": 3777,
      "ນັກຮົບ": 3778,
      "ພັດທະ": 3779,
      "ໂຄງປະກອບ": 3780,
      "ໃຫຍ່ກວ່າ": 3781,
      "ໃຫຍ່ທີ່ສຸດ": 3782,
      "ສະພາຕ່ຳ": 3783,
      "ກໍາມະ": 3784,
      "ໃຊ້ສອຍ": 3785,
      "ຕົວຈິງ": 3786,
      "ລວມຂອງ": 3787,
      "ຫງົບ": 3788,
      "ທ່ຽງ": 3789,
      "ເທົ່າເມື່ອທຽບໃສ່": 3790,
      "ສອງປະເທດ": 3791,
      "ado": 3792,
      "ໃນການປະຕິບັດ": 3793,
      "ລາວໄດ້": 3794,
      "ແລດ": 3795,
      "acel": 3796,
      "ແຫນ້ນ": 3797,
      "ໃນໄລຍະຈະມາເຖິງ": 3798,
      "ປະສົບຜົນສຳເລັດ": 3799,
      "ປີແຫ່ງວັນສ້າງຕັ້ງ": 3800,
      "lah": 3801,
      "ຫົວໜ້າຄະນະ": 3802,
      "ແຄບ": 3803,
      "ປະເພດສິນຄ້າ": 3804,
      "ປະເພດພາສີ": 3805,
      "Abd": 3806,
      "ຢູ່ນອກ": 3807,
      "ຊົ່ວຄາວ": 3808,
      "ຜົນສຳເລັດຂອງ": 3809,
      "ການປະຕິວັດອຸດສາຫະກຳ": 3810,
      "manuel": 3811,
      "Paris": 3812,
      "ການປະທະກັນ": 3813,
      "ແຕກຕ່າງ": 3814,
      "ທ່ານປະທານປະເທດ": 3815,
      "ຖັດຈາກ": 3816,
      "ຕົວຢ່າງຄື": 3817,
      "ເຕື້ອງເຖິງ": 3818,
      "ມາຢ້ຽມຢາມຫວຽດນາມ": 3819,
      "ໃນຮອບເວລາ": 3820,
      "Georg": 3821,
      "ເປັນເຈົ້າການ": 3822,
      "Emmanuel": 3823,
      "ບູຮານຄະດີ": 3824,
      "56": 3825,
      "74": 3826,
      "79": 3827,
      "83": 3828,
      "84": 3829,
      "92": 3830,
      "Ar": 3831,
      "At": 3832,
      "Cla": 3833,
      "Ham": 3834,
      "Pul": 3835,
      "Petro": 3836,
      "Tim": 3837,
      "VG": 3838,
      "ca": 3839,
      "cong": 3840,
      "ee": 3841,
      "ne": 3842,
      "vi": 3843,
      "vt": 3844,
      "ກ້າ": 3845,
      "ຂົວ": 3846,
      "ຈອດ": 3847,
      "ຊ້າ": 3848,
      "ຕາຍ": 3849,
      "ຕົ້ມ": 3850,
      "ນວຍ": 3851,
      "ບຽບ": 3852,
      "ບືນ": 3853,
      "ປິ": 3854,
      "ຝິກ": 3855,
      "ວຽ": 3856,
      "ຫັດ": 3857,
      "ີ່ນ": 3858,
      "ຸບ": 3859,
      "ແຮ": 3860,
      "ແຄວ": 3861,
      "໋ນ": 3862,
      "ການນີ້": 3863,
      "ການທ່ອງທ່ຽວ": 3864,
      "ການແລກປ່ຽນ": 3865,
      "ໃນຫຼາຍ": 3866,
      "ໃນກຸ່ມ": 3867,
      "ໃນຍອດຈຳນວນ": 3868,
      "ປີມານີ້": 3869,
      "ຂອງຊາວ": 3870,
      "ມີຊາວ": 3871,
      "ເທດນີ້": 3872,
      "ຖະໜາ": 3873,
      "ຖະແຫລງ": 3874,
      "ຫຼ່": 3875,
      "ໃຫ້ບັນດາ": 3876,
      "ເປັນກຳມະການບໍ່ປະຈຳການ": 3877,
      "ລົງໂທດ": 3878,
      "ນະພາບ": 3879,
      "ຂຶ້ນເປັນ": 3880,
      "ຂຶ້ນໄປ": 3881,
      "ເດີມ": 3882,
      "ຈະຖືກ": 3883,
      "ເກນ": 3884,
      "ເຊີດ": 3885,
      "ເຂົ້າຫວຽດນາມ": 3886,
      "ຊາບ": 3887,
      "ຢ່າງລຽນຕິດ": 3888,
      "ເພີ່ມເຕີມ": 3889,
      "ສ້າງຄວາມ": 3890,
      "ຊຸມປີ": 3891,
      "1946": 3892,
      "ກັນຊາ": 3893,
      "ເຈົາ": 3894,
      "ເຈົ້າມ": 3895,
      "ຄ້າຍ": 3896,
      "ສ່ອງ": 3897,
      "ເວັ້ນ": 3898,
      "ເວລາກ": 3899,
      "ຍອດເງິນລົງທຶນ": 3900,
      "ອີຕາລີ": 3901,
      "ປະຕິຮູບ": 3902,
      "ວົງການ": 3903,
      "ປະຕິບັດສຳເລັດ": 3904,
      "enko": 3905,
      "ກ່າວເຕືອນ": 3906,
      "ຍາກອນ": 3907,
      "ແກ້ງ": 3908,
      "ສະມາຊິກຂອງ": 3909,
      "ເອີຣົບ": 3910,
      "ໝາກໄມ້": 3911,
      "ສຽງເລືອກຕັ້ງ": 3912,
      "ໜຶ່ງໃນບັນດາ": 3913,
      "1996": 3914,
      "ການເຕີບໂຕເສດຖະກິດ": 3915,
      "ກົດໝາຍສາກົນ": 3916,
      "ພົນທະຫານ": 3917,
      "ຄ້ຳ": 3918,
      "ate": 3919,
      "ດຳເນີນການ": 3920,
      "ປຸງແຕ່ງ": 3921,
      "1972": 3922,
      "1977": 3923,
      "1979": 3924,
      "andan": 3925,
      "ເຕັກນິກ": 3926,
      "ປະກອບສ່ວນຂອງ": 3927,
      "ຄຸນນະພາບ": 3928,
      "ໂອ້": 3929,
      "ຊຸກຍູ້ການ": 3930,
      "ຖາວອນ": 3931,
      "ຫຼັກການ": 3932,
      "ແຊງ": 3933,
      "ມະຫາພາກ": 3934,
      "ປະລິມານການຜະລິດ": 3935,
      "ຖີຕິ": 3936,
      "ອີງໃສ່": 3937,
      "ປະຊາຄົມອາຊຽນ": 3938,
      "igon": 3939,
      "ຊິງຕັນ": 3940,
      "ຫາງສຽງ": 3941,
      "ເບື້ອງຕົ້ນ": 3942,
      "ລານີ້": 3943,
      "~~~~": 3944,
      "ເປັນຕົ້ນໄປ": 3945,
      "ຊັບພະຍາກອນ": 3946,
      "ປຸກລະດົມ": 3947,
      "ຊ້ຳບໍ່": 3948,
      "ວິວັດທະນາການ": 3949,
      "ອ່ຽງ": 3950,
      "Google": 3951,
      "ຜູ້ຕິດເຊື້ອ": 3952,
      "ໂພກ": 3953,
      "ອານາຈັກ": 3954,
      "Palest": 3955,
      "ແຄວ້ນ": 3956,
      "260": 3957,
      "270": 3958,
      "240": 3959,
      "Ap": 3960,
      "Eb": 3961,
      "Er": 3962,
      "Ja": 3963,
      "Mc": 3964,
      "Mart": 3965,
      "Nor": 3966,
      "Oly": 3967,
      "Pen": 3968,
      "Ros": 3969,
      "Rio": 3970,
      "Un": 3971,
      "Wal": 3972,
      "da": 3973,
      "mit": 3974,
      "ras": 3975,
      "sen": 3976,
      "ກຽວ": 3977,
      "ຂອ": 3978,
      "ຄຸກ": 3979,
      "ຊ່ວງ": 3980,
      "ດັນ": 3981,
      "ຖົ່ວ": 3982,
      "ທວນ": 3983,
      "ນັດ": 3984,
      "ຜັດ": 3985,
      "ຢອກ": 3986,
      "ຣຸດ": 3987,
      "ລັ": 3988,
      "ສູດ": 3989,
      "ສເກົາຫລີ": 3990,
      "ຮຸງ": 3991,
      "ືຶ": 3992,
      "ົ້ວ": 3993,
      "ເຍ": 3994,
      "ແນວນ": 3995,
      "ອງປະຊຸມ": 3996,
      "ໃນອາຍຸການ": 3997,
      "ດ້າຍ": 3998,
      "ໄດ້ເພີ່ມ": 3999,
      "ໄດ້ກຳນົດ": 4000,
      "ໄດ້ຈັດຕັ້ງ": 4001,
      "ໄດ້ດຶງດູດ": 4002,
      "ຂອງທັງ": 4003,
      "ຂອງທົ່ວປະເທດ": 4004,
      "ຂອງທັງປີ": 4005,
      "ມີຫຼາຍ": 4006,
      "ມີລາຍຮັບ": 4007,
      "ແມ່ຍ": 4008,
      "ເລັ່ງ": 4009,
      "ຢູ່ແຂວງ": 4010,
      "ຢູ່ພາກພື້ນ": 4011,
      "ອາໄສ": 4012,
      "ທ່ານຮອງ": 4013,
      "ທ່ານເອກອັກຄະລັດຖະທູດ": 4014,
      "ໃຫ້ສຳເລັດ": 4015,
      "ເປັນຈິງ": 4016,
      "USS": 4017,
      "ແຫ່ງຄວາມ": 4018,
      "ອອກສຽງ": 4019,
      "ບັນດາໝາກຜົນ": 4020,
      "ຄວາມວ່າ": 4021,
      "ຄວາມທຸກ": 4022,
      "ດ້ວຍຖານະ": 4023,
      "ຢ່າງຕັ້ງໜ້າ": 4024,
      "ຢ່າງຈະແຈ້ງ": 4025,
      "ໝາຍຄວາມວ່າ": 4026,
      "ສ້າງການພົວພັນ": 4027,
      "ຮ່ວາ": 4028,
      "ສຳນັກ": 4029,
      "anh": 4030,
      "ເຂດທະເລ": 4031,
      "ລັດຖະກິດ": 4032,
      "ຕະລາງ": 4033,
      "ເຕີແນັດ": 4034,
      "inm": 4035,
      "ໂດດ": 4036,
      "ໂດລາ": 4037,
      "ຫນ່ວຍ": 4038,
      "ບໍ່ສາມາດ": 4039,
      "ຜ່ານຜ່າ": 4040,
      "ພັກປະຊາທິປະໄຕ": 4041,
      "ລາຍຈ່າຍ": 4042,
      "ເນົາ": 4043,
      "ພຽງພໍ": 4044,
      "ກ່ວາອີກ": 4045,
      "ມາດຖານ": 4046,
      "ຄຳຕັດສິນ": 4047,
      "ມູນເຊື້ອ": 4048,
      "ອົງຄະ": 4049,
      "ຫງວນ": 4050,
      "ກ່ອນທີ່": 4051,
      "ເຊິ່ງລວມມີ": 4052,
      "ເພີ່ມຂຶ້ນເກືອບ": 4053,
      "ເພີ່ມຂຶ້ນທົບ": 4054,
      "ສະມາຊິກສະພາສູງ": 4055,
      "ສັນຍາຄູ່ຮ່ວມມືຮອບດ້ານ": 4056,
      "189": 4057,
      "ສືບສວນ": 4058,
      "ປົກປັກ": 4059,
      "adine": 4060,
      "ໂຮນລັງ": 4061,
      "asat": 4062,
      "1999": 4063,
      "ສູ້ຮົບ": 4064,
      "ros": 4065,
      "ilk": 4066,
      "ດົງນາຍ": 4067,
      "ເຈລະຈາກ": 4068,
      "ແຍ່ງ": 4069,
      "ປະກອບສ່ວນເຂົ້າ": 4070,
      "ombia": 4071,
      "usalem": 4072,
      "ott": 4073,
      "ອຸ່ນ": 4074,
      "ອຸປະກອນ": 4075,
      "hani": 4076,
      "ການນຳເຂົ້າ": 4077,
      "ນິວຢອກ": 4078,
      "And": 4079,
      "Anton": 4080,
      "emen": 4081,
      "laodong": 4082,
      "ບີ່ງ": 4083,
      "ຕີລາຄາສູງ": 4084,
      "ichinh": 4085,
      "ບາດກ້າວບຸກທະລຸ": 4086,
      "Ash": 4087,
      "ຖ້ຽວ": 4088,
      "ວິທີການ": 4089,
      "ມໍລະດົກວັດທະນະທຳ": 4090,
      "ພົບປະກັບ": 4091,
      "ເຕັກໂນໂລຢີ": 4092,
      "Phil": 4093,
      "ສະມັດຊາ": 4094,
      "າມະຕິ": 4095,
      "ບັນດາອົງການຈັດຕັ້ງ": 4096,
      "ລະບຽບການ": 4097,
      "Madrid": 4098,
      "nien": 4099,
      "ທີ່ເປັນໜ້າ": 4100,
      "Vinasat": 4101,
      "ເຂັ້ມແຂງ": 4102,
      "baoquoc": 4103,
      "ສະຕະວັດທີ": 4104,
      "ກອງທຶນເງິນຕາ": 4105,
      "ຮາກຖານ": 4106,
      "ບຸກຄະລາກອນ": 4107,
      "eff": 4108,
      "ຮັບມືກັບ": 4109,
      "ມະຫາວິທະຍາໄລ": 4110,
      "ADB": 4111,
      "ACM": 4112,
      "ເຄື່ອງໝາຍການຄ້າ": 4113,
      "ກິດຈະກຳ": 4114,
      "Jerusalem": 4115,
      "Hassan": 4116,
      "ຫົວຄິດປະດິດສ້າງ": 4117,
      "CDU": 4118,
      "Atl": 4119,
      "VGP": 4120,
      "ເຈົ້າມີ": 4121,
      "Ebola": 4122,
      "Olympic": 4123,
      "ແນວນັ້ນ": 4124,
      "ແມ່ຍິງ": 4125,
      "ປົກປັກຮັກສາ": 4126,
      "adinej": 4127,
      "baoquocte": 4128,
      "ກອງທຶນເງິນຕາສາກົນ": 4129,
      "BC": 4130,
      "Bor": 4131,
      "Binh": 4132,
      "Cha": 4133,
      "EP": 4134,
      "EVFTA": 4135,
      "GM": 4136,
      "Gi": 4137,
      "Guter": 4138,
      "Kh": 4139,
      "PD": 4140,
      "Serg": 4141,
      "Ted": 4142,
      "VTC": 4143,
      "aj": 4144,
      "ghan": 4145,
      "iev": 4146,
      "jam": 4147,
      "sp": 4148,
      "su": 4149,
      "thanh": 4150,
      "ude": 4151,
      "ye": 4152,
      "ກູນ": 4153,
      "ກັ່ນ": 4154,
      "ຄອມ": 4155,
      "ຈອກ": 4156,
      "ຊຶ": 4157,
      "ດ່າ": 4158,
      "ດອນ": 4159,
      "ດັງ": 4160,
      "ທໍ": 4161,
      "ນລົງທຶນ": 4162,
      "ບອບ": 4163,
      "ບວກ": 4164,
      "ປາກ": 4165,
      "ຜືນ": 4166,
      "ຟ່ອງ": 4167,
      "ວານ": 4168,
      "ຫິວ": 4169,
      "ອ້ອມ": 4170,
      "ອຸນ": 4171,
      "ະໂຍບາຍ": 4172,
      "ແຣ": 4173,
      "ແອບ": 4174,
      "ໃຊ": 4175,
      "ໜ່ວງ": 4176,
      "ໝຸດ": 4177,
      "ໃນຕະຫຼອດ": 4178,
      "ສະອາດ": 4179,
      "ສະໄຫມ": 4180,
      "ໄດ້ແຕ່": 4181,
      "ໄດ້ອອກ": 4182,
      "ໄດ້ມອບ": 4183,
      "ໄດ້ຕ້ອນຮັບ": 4184,
      "ຂອງກອງ": 4185,
      "ຂອງປະຊາຊົນ": 4186,
      "ຂອງພື້ນຖານເສດຖະກິດ": 4187,
      "ຂອງທະນາຄານ": 4188,
      "ມີບັນດາ": 4189,
      "ມີຫລາຍ": 4190,
      "ມີມູນຄ່າ": 4191,
      "ມີຫົວຄິດປະດິດສ້າງ": 4192,
      "ທີ່ການ": 4193,
      "ແມ່ນຂຶ້ນເຖິງ": 4194,
      "ຢູ່ຮ່າໂນ້ຍ": 4195,
      "ເປັນພິເສດ": 4196,
      "ລົງເຫຼືອພຽງ": 4197,
      "ລ້ຽວ": 4198,
      "ລຸ່ນ": 4199,
      "ຈະບັນລຸ": 4200,
      "ຈະເພີ່ມຂຶ້ນ": 4201,
      "ຈະດຳເນີນ": 4202,
      "ຈະສືບຕໍ່": 4203,
      "ດ້ວຍມູນຄ່າ": 4204,
      "ເຂົ້າເມືອງ": 4205,
      "ຢ່າງບໍ່": 4206,
      "ດີໂອ": 4207,
      "ສຳຫຼວດ": 4208,
      "ani": 4209,
      "ຜູ້ຕາງຫນ້າ": 4210,
      "ຄືດັ່ງ": 4211,
      "101": 4212,
      "ຕາມກວດ": 4213,
      "ຄັ້ງທີ່": 4214,
      "ຫາສຽງເລືອກຕັ້ງ": 4215,
      "ເສດຖະກິດທົ່ວໂລກ": 4216,
      "ັ່ງກ່າວ": 4217,
      "ນັກສຶກສາ": 4218,
      "ໃຊ້ຈ່າຍ": 4219,
      "ແຜນທີ່": 4220,
      "ເຫັນໄດ້": 4221,
      "ທົ່ວປວງ": 4222,
      "ພາກສ່ວນ": 4223,
      "ames": 4224,
      "ໃໝ່ຂອງ": 4225,
      "ຫົວເລື່ອງ": 4226,
      "ໂຄງການດຳເນີນງານ": 4227,
      "ກ່ອນນັ້ນ": 4228,
      "ຊຸດໂຊມ": 4229,
      "ສະມາຊິກສະພາແຫ່ງຊາດ": 4230,
      "ອັດຕາຄອບຄົວທຸກຍາກ": 4231,
      "ສິບ": 4232,
      "ອົງການກວດສອບ": 4233,
      "ໃນການເລືອກຕັ້ງ": 4234,
      "ສິ່ງແວດລ້ອມ": 4235,
      "1991": 4236,
      "imea": 4237,
      "ຄິດສ້າງ": 4238,
      "ໄພເງິນເຟີ້": 4239,
      "1976": 4240,
      "ish": 4241,
      "ການພົວພັນລະຫວ່າງ": 4242,
      "idel": 4243,
      "ນັບແຕ່ຕົ້ນປີ": 4244,
      "ສະຫຼະ": 4245,
      "ສະຫຼຸບ": 4246,
      "ໃຫ້ແກ່ບັນດາ": 4247,
      "ປະກັນສຸຂະພາບ": 4248,
      "ອາຊີບ": 4249,
      "ສັບສົນ": 4250,
      "ປູເຈຍ": 4251,
      "ສະແດງຄວາມ": 4252,
      "ull": 4253,
      "ແຜ່ນຕັດຫຍິບ": 4254,
      "ຊົມໃຊ້": 4255,
      "hael": 4256,
      "ກຽມພ້ອມ": 4257,
      "ຮ້າຍແຮງ": 4258,
      "ມັງກອນປີ": 4259,
      "ແຊນ": 4260,
      "ຟູ໋": 4261,
      "ຖະແຫຼງວ່າ": 4262,
      "ເລິກເຊິ່ງ": 4263,
      "Johnson": 4264,
      "ແຍກຕົວ": 4265,
      "ທົດລອງ": 4266,
      "ທີ່ນັ່ງ": 4267,
      "ປີທີ່ຜ່ານມາ": 4268,
      "vietnamnet": 4269,
      "Benjam": 4270,
      "express": 4271,
      "ຂຸດຄົ້ນ": 4272,
      "****": 4273,
      "Hoa": 4274,
      "conom": 4275,
      "ອະທິປະໄຕ": 4276,
      "ກໍາປູເຈຍ": 4277,
      "Crimea": 4278,
      "ເປັນປະເທດເຈົ້າພາບ": 4279,
      "ຍອດຜະລິດຕະພັນພາຍໃນປະເທດ": 4280,
      "ຍາມໃດກໍ່": 4281,
      "Michael": 4282,
      "ຢ່າງວ່ອງໄວ": 4283,
      "ຄໍາເຫັນ": 4284,
      "Afghan": 4285,
      "ແຕກຕ່າງກັນ": 4286,
      "Claude": 4287,
      "ແຮມ": 4288,
      "ຊ້ຳບໍ່ໜຳ": 4289,
      "Palestine": 4290,
      "ຊຶມ": 4291,
      "ທົ່ວປວງຊົນ": 4292,
      "Benjamin": 4293,
      "Afghanistan": 4294,
      "450": 4295,
      "7000": 4296,
      "CN": 4297,
      "Fidel": 4298,
      "Gl": 4299,
      "Gu": 4300,
      "Http": 4301,
      "Jun": 4302,
      "Mot": 4303,
      "Mod": 4304,
      "Mos": 4305,
      "OC": 4306,
      "PR": 4307,
      "Qu": 4308,
      "Ram": 4309,
      "iam": 4310,
      "pha": 4311,
      "ward": 4312,
      "ຂ່າ": 4313,
      "ຄ່ອງ": 4314,
      "ງ່ອນ": 4315,
      "ຊ້າຍ": 4316,
      "ຍົດ": 4317,
      "ດັກ": 4318,
      "ຕໍາ": 4319,
      "ຖຸດ": 4320,
      "ຖີ່": 4321,
      "ທິນ": 4322,
      "ທ໋າຍ": 4323,
      "ນ່ານ": 4324,
      "ນຶກ": 4325,
      "ບາກ": 4326,
      "ປອກ": 4327,
      "ຝຣັ່ງ": 4328,
      "ຟົດ": 4329,
      "ຟ້ອນ": 4330,
      "ມ່ວນ": 4331,
      "ຢິບ": 4332,
      "ຮາ": 4333,
      "ຮວ່າ": 4334,
      "ັສ": 4335,
      "ືດ": 4336,
      "ົ້ງ": 4337,
      "ໄຫຼ່": 4338,
      "ານົດ": 4339,
      "ປະລະ": 4340,
      "ປະທາ": 4341,
      "ປະມຸກ": 4342,
      "ປະຢັດ": 4343,
      "ການສຶກສາ": 4344,
      "ໃນບົດລາຍງານ": 4345,
      "ດ້ຽນ": 4346,
      "ທີ່ວາ": 4347,
      "ປີໃໝ່": 4348,
      "ສະໝຸດ": 4349,
      "ບັນຈຸ": 4350,
      "ໄດ້ກວ່າ": 4351,
      "ໄດ້ນຳໃຊ້": 4352,
      "ໄດ້ປະກາດໃຊ້": 4353,
      "ຂອງວິ": 4354,
      "ມີປະມານ": 4355,
      "ທີ່ບັນລຸໄດ້": 4356,
      "ແມ່ນມີ": 4357,
      "ແມ່ນບັນດາ": 4358,
      "ຫຼານ": 4359,
      "ກັບບັນດາປະເທດ": 4360,
      "ຢູ່ພາຍໃນປະເທດ": 4361,
      "ຢູ່ທະເລຕາເວັນອອກ": 4362,
      "ເສີນ": 4363,
      "ທ່ານປະ": 4364,
      "ບັນດາເຫດການ": 4365,
      "ບັນດາເຜົ່າ": 4366,
      "ເກື": 4367,
      "ດ້ວຍຈຳນວນເງິນ": 4368,
      "ກຳປັ່ນ": 4369,
      "ຕາຕະລາງ": 4370,
      "ເດືອນຜ່ານມາ": 4371,
      "ເດືອນກັນຍາ": 4372,
      "ສຳພາດ": 4373,
      "1970": 4374,
      "1954": 4375,
      "ວິຫານ": 4376,
      "ວິຕົກ": 4377,
      "ວິຖີ": 4378,
      "ຈາກການ": 4379,
      "ຈາກລະດັບ": 4380,
      "ຈາກໂລກລະບາດໂຄວິດ": 4381,
      "ເຂດນີ້": 4382,
      "ເຮຣານ": 4383,
      "ຂະຫຍັນ": 4384,
      "ຮອດເດືອນ": 4385,
      "ຜົນສຳ": 4386,
      "ຜົນປະໂຫຍດ": 4387,
      "ຜົນເປັນຈິງ": 4388,
      "int": 4389,
      "ເສດຖະກິດພາກເອກະຊົນ": 4390,
      "ຍອດລາຍຮັບ": 4391,
      "ສູງທົບ": 4392,
      "ນັກຊ່ຽວຊານ": 4393,
      "ກໍ່ຈະ": 4394,
      "ກໍ່ຄວາມ": 4395,
      "ສ່ວນໜ້ອຍ": 4396,
      "ຜ່ານນັ້ນ": 4397,
      "ກໍານົດ": 4398,
      "ວັດທະນາ": 4399,
      "ວັດຖຸດ": 4400,
      "ລາຍຊື່": 4401,
      "ຊິກສະ": 4402,
      "ສິນເຊື່ອ": 4403,
      "ເອົາໃຈ": 4404,
      "ຫຼາຍທີ່ສຸດ": 4405,
      "ໃນປີນີ້": 4406,
      "ຕົວເມືອງ": 4407,
      "ໄດ້ຮັບຖືວ່າ": 4408,
      "ກ່າວຄຳເຫັນ": 4409,
      "ສັດຕະວັດ": 4410,
      "ຢືນຢູ່": 4411,
      "Tre": 4412,
      "Trong": 4413,
      "ວຽກເຮັດງານທຳ": 4414,
      "ເຫຼົ່າ": 4415,
      "ຫຼັງຈາກນັ້ນ": 4416,
      "ສີສັນ": 4417,
      "ຄະນະພັກ": 4418,
      "ນາຍົກລັດຖະມົນຕີຫວຽດນາມ": 4419,
      "ຕຳແຫນ່ງ": 4420,
      "ລັດຖະບານຫວຽດນາມ": 4421,
      "ເມື່ອທຽບໃສ່ລະດັບ": 4422,
      "ໄດ້ຮັບການປະຕິບັດ": 4423,
      "ita": 4424,
      "ເຊື່ອໝັ້ນ": 4425,
      "ໃດໆ": 4426,
      "ເບີກ": 4427,
      "ສະພາບແວດລ້ອມ": 4428,
      "ກຳນົດເວລາ": 4429,
      "ati": 4430,
      "ແຈກ": 4431,
      "ປະຈຳປີ": 4432,
      "ກຳລັງຄວາມສາມາດ": 4433,
      "ຫັນເປັນ": 4434,
      "ກະຊວງແຜນການ": 4435,
      "vnexpress": 4436,
      "hano": 4437,
      "ສະຖານີ": 4438,
      "ໂຮງໝໍ": 4439,
      "COC": 4440,
      "ໂປໂລຍ": 4441,
      "ມະຕິເລກທີ": 4442,
      "urg": 4443,
      "ກວມເອົາປະມານ": 4444,
      "ປູກຕົ້ນ": 4445,
      "ເຄີຍມີ": 4446,
      "ການສົ່ງອອກເກີນ": 4447,
      "ເຫັນດີເປັນເອກະພາບ": 4448,
      "VOV5": 4449,
      "ໂກນ": 4450,
      "Rouss": 4451,
      "Abbas": 4452,
      "ອະດີດປະທານາທິບໍດີ": 4453,
      "ຂ້າມປາຊີຟິກ": 4454,
      "ຂະແໜງການ": 4455,
      "ຂວ້ຳ": 4456,
      "ໂຕ້ຕອບ": 4457,
      "ສະພາແຫ່ງຊາດຫວຽດນາມຊຸດທີ": 4458,
      "ທີ່ນີ້": 4459,
      "ເຄັ່ງຕຶງ": 4460,
      "ສ່ຽງໃຕ້": 4461,
      "Vinam": 4462,
      "ລັດຖະມົນຕີກະຊວງປ້ອງກັນປະເທດ": 4463,
      "ປະກົດຜົນເປັນຈິງ": 4464,
      "ເຊື່ອມໂຍງເຂົ້າກັບ": 4465,
      "ເອີ້ນວ່າ": 4466,
      "ບົ່ມຊ້ອນ": 4467,
      "ບັນຊີລາຍຊື່": 4468,
      "ບຸກຄະລາ": 4469,
      "ຊຳລະ": 4470,
      "Moon": 4471,
      "ຜູ້ອອກແຮງງານ": 4472,
      "nhandan": 4473,
      "ດ້ວຍຍອດຈຳນວນທຶນຈົດທະບຽນ": 4474,
      "ດ່ານັ້ງ": 4475,
      "Airlin": 4476,
      "ກັງວົນ": 4477,
      "ເຢັຍລະ": 4478,
      "Colombia": 4479,
      "ກິໂລແມັດ": 4480,
      "ທີ່ຕັ້ງບົດບາດ": 4481,
      "ທຳນຽບຂາວ": 4482,
      "ຂ້ຽວຂາດ": 4483,
      "CLMV": 4484,
      "ຫວນຄືນ": 4485,
      "ຖອນຕົວອອກຈາກ": 4486,
      "ແອັດສະປາຍ": 4487,
      "Abdul": 4488,
      "Times": 4489,
      "Antonio": 4490,
      "adinejad": 4491,
      "Boris": 4492,
      "Guterres": 4493,
      "Glob": 4494,
      "ວັດຖຸດິບ": 4495,
      "ເອົາໃຈໃສ່": 4496,
      "Rousseff": 4497,
      "%),": 4498,
      "89": 4499,
      "93": 4500,
      "Ban": 4501,
      "Big": 4502,
      "Don": 4503,
      "Dil": 4504,
      "Fin": 4505,
      "Ford": 4506,
      "Hu": 4507,
      "Jas": 4508,
      "Nar": 4509,
      "Nik": 4510,
      "SPD": 4511,
      "TV": 4512,
      "Th": 4513,
      "TFP": 4514,
      "Yemen": 4515,
      "ep": 4516,
      "ial": 4517,
      "kh": 4518,
      "log": 4519,
      "logistics": 4520,
      "ml": 4521,
      "och": 4522,
      "rov": 4523,
      "ug": 4524,
      "van": 4525,
      "ກົວ": 4526,
      "ກ້ອງ": 4527,
      "ງອກ": 4528,
      "ຈ່າ": 4529,
      "ຈອນ": 4530,
      "ຊັດ": 4531,
      "ຊຽງ": 4532,
      "ຍາຍ": 4533,
      "ຕວນ": 4534,
      "ບກອນ": 4535,
      "ບຣູ": 4536,
      "ຝ່": 4537,
      "ຟ້າມ": 4538,
      "ະຊວງ": 4539,
      "ົາກ": 4540,
      "ແອັນ": 4541,
      "ໂຈະ": 4542,
      "່ືອ": 4543,
      "2024": 4544,
      "ໃນແຕ່ລະ": 4545,
      "ດ້ອຍ": 4546,
      "ປີຈະມາເຖິງ": 4547,
      "ໄດ້ຮຽກຮ້ອງ": 4548,
      "ຂອງທາງ": 4549,
      "ຂອງພາກພື້ນ": 4550,
      "ຂອງມວນ": 4551,
      "ມີລະດັບ": 4552,
      "ມີໜ້າ": 4553,
      "ມີບົດ": 4554,
      "ວ່າຈະ": 4555,
      "ທີ່ດີ": 4556,
      "ເລີຍ": 4557,
      "ແມ່ນຜູ້": 4558,
      "ເພນີ": 4559,
      "ຫຼາດ": 4560,
      "ຫຼິ້ນ": 4561,
      "ມາຮອດປີ": 4562,
      "ເສນາ": 4563,
      "ອາຈານ": 4564,
      "ທ່ານລັດຖະມົນຕີ": 4565,
      "ໃຫ້ການ": 4566,
      "ໃຫ້ຂຶ້ນເຖິງ": 4567,
      "ລົງຄະແນນ": 4568,
      "ຮັບດຳລົງຕຳແໜ່ງ": 4569,
      "ຄວັດ": 4570,
      "ວນັ້ນ": 4571,
      "ຄົນງານ": 4572,
      "ຄົນເທົ່ານັ້ນ": 4573,
      "ເກັ່ນ": 4574,
      "ຕັ້ງຢູ່": 4575,
      "ຈຳເປັນ": 4576,
      "ທິພົນ": 4577,
      "ກຳໄລ": 4578,
      "ເຂົ້າຈາກ": 4579,
      "ຫລອດ": 4580,
      "ນີ້ໄດ້": 4581,
      "ເດືອນສິງຫາ": 4582,
      "ສຳມະນາ": 4583,
      "ເອລາ": 4584,
      "ເຂດກອງ": 4585,
      "ຕະລາຍ": 4586,
      "ຕະຫລອດ": 4587,
      "ຄັ້ງໃໝ່": 4588,
      "ond": 4589,
      "ເວດ": 4590,
      "ເສດຖະກິດມະຫາພາກ": 4591,
      "ຍອດມູນຄ່າ": 4592,
      "ບໍ່ເປັນ": 4593,
      "ໄລຍະປີ": 4594,
      "ໄລຍະທາງ": 4595,
      "ສ່ວນຮ້ອຍ": 4596,
      "ໂຄງລ່າງ": 4597,
      "ຈຳນວນພົນລະເມືອງ": 4598,
      "ern": 4599,
      "eron": 4600,
      "ພິວ": 4601,
      "ໃຫຍ່ຂອງ": 4602,
      "ຍັງເຫຼືອ": 4603,
      "ພາຍໃຕ້": 4604,
      "ວາງສະ": 4605,
      "ອັດລົງ": 4606,
      "116": 4607,
      "ດ້ານການເມືອງ": 4608,
      "ອັນວ່າ": 4609,
      "ອັນຕະລາຍ": 4610,
      "ຄຳ້": 4611,
      "ລວມທັງ": 4612,
      "ກ່ຽວກັບເລື່ອງ": 4613,
      "ຫົວຫນ້າ": 4614,
      "eng": 4615,
      "ແຮງລົມ": 4616,
      "ແນກ": 4617,
      "ແນດ": 4618,
      "ຫານີ້": 4619,
      "ເທົ່າເມື່ອທຽບໃສ່ປີ": 4620,
      "ເພີ່ມຂຶ້ນກວ່າ": 4621,
      "ແບກ": 4622,
      "ສະໜາມ": 4623,
      "Tran": 4624,
      "ກວມລວມ": 4625,
      "ກວມເອົ": 4626,
      "ສະຫະກອນ": 4627,
      "ການຄ້າທົ່ວໂລກ": 4628,
      "ica": 4629,
      "ປົກຄຸມ": 4630,
      "ຕຳຫຼວດ": 4631,
      "ຄູ່ຕຳແໜ່ງ": 4632,
      "ໄດ້ຮັບການເລືອກຕັ້ງ": 4633,
      "ໜຶ່ງທີ່": 4634,
      "ເຂົ້າຮ່ວມກອງປະຊຸມ": 4635,
      "ອີກດ້ວຍ": 4636,
      "ບໍລິສັດການບິນ": 4637,
      "ຜັນແປ": 4638,
      "rom": 4639,
      "roup": 4640,
      "imoi": 4641,
      "1971": 4642,
      "ກິມ": 4643,
      "ຫຼີກ": 4644,
      "ເກີດການ": 4645,
      "ຄຸນງາມ": 4646,
      "ຂ້າພະເຈົ້າມີ": 4647,
      "ນອກຈາກນັ້ນ": 4648,
      "1989": 4649,
      "ສົນທິສັນ": 4650,
      "ກ່ຽວກັບການຮ່ວມມື": 4651,
      "ຊຸກຍູ້ການຮ່ວມມື": 4652,
      "ເສັ້ນຊາຍແດນ": 4653,
      "ຕາເວັນຕົກ": 4654,
      "ແຜ່ນດິນ": 4655,
      "ເງິນລົງທຶນໂດຍກົງ": 4656,
      "ເງິນລົງທຶນຂອງຕ່າງປະເທດ": 4657,
      "ຊົມເຊີຍ": 4658,
      "ຕໍ່າ": 4659,
      "ພິທີໄຂ": 4660,
      "ປູກໝາກ": 4661,
      "ສື່ສັງຄົມ": 4662,
      "ບັນລຸລະດັບສະຖິຕິ": 4663,
      "້ຳມັນ": 4664,
      "ຖອນອອກຈາກ": 4665,
      "ແຄ໋ງ": 4666,
      "ໜັກໜ່ວງ": 4667,
      "ບັນດາກອງປະຊຸມ": 4668,
      "ບັນດາກະຊວງ": 4669,
      "ເຮືອບິນສູ້ຮົບ": 4670,
      "ings": 4671,
      "Marc": 4672,
      "ຖ້ວມ": 4673,
      "Ali": 4674,
      "ຢືດ": 4675,
      "ສໍາເລັດ": 4676,
      "Park": 4677,
      "entu": 4678,
      "ມາກ່ອນ": 4679,
      "ປົດປ່ອຍ": 4680,
      "ວ່າງງານ": 4681,
      "ວໍຊິງຕັນ": 4682,
      "ຄະນະບໍລິຫານງານສູນກາງພັກຊຸດທີ": 4683,
      "ເຊັກໂກ": 4684,
      "ລາຊະອານາຈັກ": 4685,
      "ໄຈ້ແຍກ": 4686,
      "Cruz": 4687,
      "ພາກໃຕ້ຫວຽດນາມ": 4688,
      "ກວ໋າງນີງ": 4689,
      "ນັກລົງທຶນຕ່າງປະເທດ": 4690,
      "Herman": 4691,
      "XIII": 4692,
      "ການບໍ່ປະຈໍາ": 4693,
      "ເນື່ອງໃນໂອກາດສະເຫຼີມສະຫຼອງ": 4694,
      "Bush": 4695,
      "ທໍາອິດ": 4696,
      "ປິ່ນປົວ": 4697,
      "ສະກຸນເງິນ": 4698,
      "ອໍານ": 4699,
      "ຫໍພິພິທະພັນ": 4700,
      "ທີ່ພົ້ນເດັ່ນໃນປີ": 4701,
      "ກໍາມະການບໍ່ປະຈໍາ": 4702,
      "Pulo": 4703,
      "ກ່າວເຕືອນວ່າ": 4704,
      "ຮຸງກາຣີ": 4705,
      "ອາໄສຢູ່": 4706,
      "Philip": 4707,
      "thanhnien": 4708,
      "ຕໍາແໜ່ງ": 4709,
      "hanoimoi": 4710,
      "Vinamilk": 4711,
      "Airlines": 4712,
      "Jasan": 4713,
      "ຄຸນງາມຄວາມ": 4714,
      "Ad": 4715,
      "Av": 4716,
      "AEC": 4717,
      "Bl": 4718,
      "CC": 4719,
      "Dam": 4720,
      "DOC": 4721,
      "Ed": 4722,
      "EAS": 4723,
      "G8": 4724,
      "Gaz": 4725,
      "IA": 4726,
      "Man": 4727,
      "Mand": 4728,
      "Mur": 4729,
      "Pet": 4730,
      "SAR": 4731,
      "Tw": 4732,
      "Tel": 4733,
      "XIV": 4734,
      "bon": 4735,
      "blog": 4736,
      "ec": 4737,
      "eo": 4738,
      "ost": 4739,
      "td": 4740,
      "ust": 4741,
      "vrov": 4742,
      "yan": 4743,
      "zania": 4744,
      "ກຽດ": 4745,
      "ກກີ": 4746,
      "ຄຼ": 4747,
      "ຊິດ": 4748,
      "ຊົງ": 4749,
      "ດົມ": 4750,
      "ທໍ້": 4751,
      "ນຶ່ງ": 4752,
      "ປອ": 4753,
      "ຝັງ": 4754,
      "ຟຼ": 4755,
      "ມຂຶ້ນ": 4756,
      "ມຸນ": 4757,
      "ມຸ້ງ": 4758,
      "ມົດສະ": 4759,
      "ມ່ວງ": 4760,
      "ມົ້ງ": 4761,
      "ຢຶດ": 4762,
      "ລວ": 4763,
      "ລູ": 4764,
      "ລອນ": 4765,
      "ລ່ວງ": 4766,
      "ວຸ": 4767,
      "ວຽດ": 4768,
      "ຫຍັງ": 4769,
      "ອ່າວ": 4770,
      "ຮຳ": 4771,
      "ຮຽງ": 4772,
      "າລະໂອກາດ": 4773,
      "ຼແກຼ": 4774,
      "ໄກ່": 4775,
      "່ອ": 4776,
      "ໍ້າ": 4777,
      "ປະສົມ": 4778,
      "ປະພຶດ": 4779,
      "ການຈະ": 4780,
      "ການທະຫານ": 4781,
      "ລະເມີດ": 4782,
      "ໃນທຸກ": 4783,
      "ໃນປະຫວັດສາດ": 4784,
      "ໃນບໍລິເວນ": 4785,
      "ດ້າວ": 4786,
      "ສະຫນູນ": 4787,
      "ສະເຫນີ": 4788,
      "ສະຫນັບ": 4789,
      "ສະເຫລີມ": 4790,
      "ໄດ້ເຂົ້າ": 4791,
      "ໄດ້ເປີດ": 4792,
      "ໄດ້ເຊັນ": 4793,
      "ຂອງສະ": 4794,
      "ຂອງປະທານ": 4795,
      "ທີ່ຖືກ": 4796,
      "ທີ່ພວມ": 4797,
      "ທີ່ກອງປະຊຸມສຸດຍອດ": 4798,
      "ທີ່ປະສົບກັບຄວາມຫຍຸ້ງຍາກ": 4799,
      "ເມື່": 4800,
      "ເມື່ອກ": 4801,
      "ແມ່ນກອງ": 4802,
      "ແມ່ນລະດັບ": 4803,
      "ແມ່ນຕົວເລກ": 4804,
      "ຖະມົນຕີ": 4805,
      "ວັນຊາດ": 4806,
      "ກັບຄືນ": 4807,
      "ຢູ່ປະເທດ": 4808,
      "ຢູ່ລະດັບ": 4809,
      "ຢູ່ອາເມລິກາ": 4810,
      "ທ່ານສາດສະດາຈານ": 4811,
      "ໃຫ້ຂຶ້ນ": 4812,
      "ເປັນສະ": 4813,
      "ເປັນຄັ້ງ": 4814,
      "ເປັນປະຈຳ": 4815,
      "ສາບ": 4816,
      "ຕີນ": 4817,
      "ລິຍາ": 4818,
      "ນັ້ນມີ": 4819,
      "ບັນດາຄາດໝາຍ": 4820,
      "ບັນດາຕົວເລກ": 4821,
      "ຄວາມບໍ່": 4822,
      "ຄວາມໄວ": 4823,
      "ຄວາມຮັບຜິດຊອບ": 4824,
      "ຕັ້ງປະ": 4825,
      "ຕື້ຄົນ": 4826,
      "ຊາວມ": 4827,
      "ຢ່າງຕໍ່": 4828,
      "ດີເດັ່ນ": 4829,
      "ສ້າງໂຄງປະກອບ": 4830,
      "ເດືອນຕົ້ນ": 4831,
      "ຊາດຊຸດ": 4832,
      "ສຳຮອງ": 4833,
      "ຮ່ວມເດີນທາງ": 4834,
      "1947": 4835,
      "ບັນລຸພຽງ": 4836,
      "ເພື່ອຮັບ": 4837,
      "ເພື່ອສ້າງ": 4838,
      "ເຂດອຸດສາຫະກຳ": 4839,
      "ເຂດທົ່ງພຽງ": 4840,
      "ລັດຖະດຳລັດ": 4841,
      "ຄື້ນ": 4842,
      "ທຳມະ": 4843,
      "ຕາມບົດລາຍງານ": 4844,
      "ລ້ານດົງ": 4845,
      "ສຸດແມ່ນ": 4846,
      "ປະທານອາຊຽນ": 4847,
      "ປະທານສະພາແຫ່ງຊາດ": 4848,
      "ຫາປາ": 4849,
      "ເສດຖະກິດຂອງ": 4850,
      "ໂຄສົກ": 4851,
      "ທາງດ້ານ": 4852,
      "ທາງບົກ": 4853,
      "ກໍ່ໃຫ້": 4854,
      "ສ່ວນໜຶ່ງ": 4855,
      "ທຽບເທົ່າ": 4856,
      "ພະລາດ": 4857,
      "ປະຊຸມຂ່າວ": 4858,
      "ໄປຢ້ຽມຢາມ": 4859,
      "ໃຫຍ່ຄື": 4860,
      "ໃຫຍ່ຫລວງ": 4861,
      "ນັບທັງ": 4862,
      "ນັບແຕ່ນີ້": 4863,
      "ຖືກດຳເນີນ": 4864,
      "ຖືກຜົນສະທ້ອນ": 4865,
      "ສະພາສິດທິມະນຸດ": 4866,
      "ຈັດສົ່ງ": 4867,
      "ຈັດກອງປະຊຸມ": 4868,
      "ara": 4869,
      "are": 4870,
      "ປະຕິທິນ": 4871,
      "%...": 4872,
      "ແຜນກຳນົດ": 4873,
      "ຫຼາຍຝ່າຍ": 4874,
      "ບານເຕະ": 4875,
      "ບໍລິຈາກ": 4876,
      "ບໍລິສຸດ": 4877,
      "ໃໝ່ໃຫ້": 4878,
      "end": 4879,
      "ເວລາທີ່": 4880,
      "ຄ່າໃຊ້ຈ່າຍ": 4881,
      "ECS": 4882,
      "ເຊິ່ງໄດ້": 4883,
      "ກ່າວຫາ": 4884,
      "ຄອນຫຼວງ": 4885,
      "ເຫຼື້ອມ": 4886,
      "ຈຸດເວ": 4887,
      "ຈຸດພົ້ນເດັ່ນ": 4888,
      "ສີສົ້ມ": 4889,
      "mpuy": 4890,
      "ຊ່ວຍໜູນ": 4891,
      "ແຜນການສັງລວມ": 4892,
      "ຫາກຍັງ": 4893,
      "ຮູບຫຼາຍ": 4894,
      "ການເຕີບໂຕດ້ານເສດຖະກິດ": 4895,
      "ຕ່ຳສຸດ": 4896,
      "ທິດທາງ": 4897,
      "1978": 4898,
      "ander": 4899,
      "andung": 4900,
      "isong": 4901,
      "ບັນລຸໄດ້ຂໍ້ຕົກລົງ": 4902,
      "chin": 4903,
      "ເຫດການສາກົນ": 4904,
      "ຍິງປືນ": 4905,
      "ຂາຍຍ່ອຍ": 4906,
      "1986": 4907,
      "ສາຍເຫດ": 4908,
      "ບັນຫາທະເລຕາເວັນອອກ": 4909,
      "ໂຮງລະຄອນ": 4910,
      "ບັນດາປະເທດສະມາຊິກ": 4911,
      "ຂໍ້ຕົກລົງນິວເຄຼຍ": 4912,
      "ນິວຄະ": 4913,
      "ໂປຼແກຼ": 4914,
      "ຕອບສະໜອງ": 4915,
      "ປະສົບເຄາະ": 4916,
      "ກົມການເມືອງ": 4917,
      "ວົງເງິນການຄ້າສອງສົ້ນ": 4918,
      "ດຳລົງຊີວິດ": 4919,
      "ຕຸຍ": 4920,
      "ຕົນເອງ": 4921,
      "ປະລິມານສິນຄ້າ": 4922,
      "Frank": 4923,
      "ເຫັນດີເຫັນ": 4924,
      "ທົ່ວປະເທດມີ": 4925,
      "ຫລຸດຜ່ອນຄວາມທຸກຍາກ": 4926,
      "Ste": 4927,
      "Rompuy": 4928,
      "ອົບພະຍົບ": 4929,
      "ບັນດາກາລະໂອກາດ": 4930,
      "//:": 4931,
      "ຂອງປະເທດນີ້": 4932,
      "ວິທະຍາສາດເຕັກໂນໂລຊີ": 4933,
      "que": 4934,
      "quoch": 4935,
      "ບ້ວງເງິນ": 4936,
      "Tanzania": 4937,
      "ວາລະສານ": 4938,
      "ສໍາຄັນ": 4939,
      "ລື່ນກາຍຄາດໝາຍ": 4940,
      "ນິຕິບັນຍັດ": 4941,
      "Lavrov": 4942,
      "ເຂົາເຈົ້າ": 4943,
      "ເຄືອຂ່າຍ": 4944,
      "ARF": 4945,
      "ແປ້ງເຂົ້າ": 4946,
      "ອະນຸຍາດໃຫ້": 4947,
      "google": 4948,
      "ລັດຖະທຳມະນູນປີ": 4949,
      "ປານກາງ": 4950,
      "ລວງຍາວ": 4951,
      "ມີຄວາມໝາຍສຳຄັນ": 4952,
      "ແຄມທະເລ": 4953,
      "ອິດສະຣາແອນ": 4954,
      "ບ່າຍວັນທີ": 4955,
      "herine": 4956,
      "ແຫ່ງລັດຫວຽດນາມ": 4957,
      "ແອດສະປາຍ": 4958,
      "ຫນັງສືພິມ": 4959,
      "ກິໂລກາມ": 4960,
      "ທີ່ວ່າ": 4961,
      "ເໝາະສົມກັບ": 4962,
      "Ahmadinejad": 4963,
      "ເທດສະການ": 4964,
      "ເປັນຫນ້າສົນໃຈ": 4965,
      "ທາດພິດສີສົ້ມ": 4966,
      "CSU": 4967,
      "PCA": 4968,
      "Ayra": 4969,
      "Minsk": 4970,
      "ກ້າວໜ້າຂ້າມປາຊີຟິກ": 4971,
      "vtv": 4972,
      "ດ້າຍກວາງ": 4973,
      "ສະມັດຊາໃຫຍ່": 4974,
      "ACMECS": 4975,
      "yeong": 4976,
      "ທີ່ວາລະ": 4977,
      "ເຊື່ອມໂຍງເຂົ້າກັບສາກົນ": 4978,
      "ບໍ່ເປັນວັດຖຸ": 4979,
      "ກໍາມະການບໍ່ປະຈໍາການ": 4980,
      "Aviv": 4981,
      "SARS": 4982,
      "ມົດສະກູ": 4983,
      "ສະຫນັບສະຫນູນ": 4984,
      "ສະເຫລີມສະຫລອງ": 4985,
      "ຊາວມຸດ": 4986,
      "ໂປຼແກຼມ": 4987,
      "ປະສົບເຄາະຮ້າຍ": 4988,
      "quochoi": 4989,
      "%-": 4990,
      "360": 4991,
      "550": 4992,
      "Ber": 4993,
      "Bit": 4994,
      "Con": 4995,
      "Cal": 4996,
      "Econom": 4997,
      "FM": 4998,
      "FES": 4999,
      "Gen": 5000,
      "LG": 5001,
      "Mu": 5002,
      "Metro": 5003,
      "Nam": 5004,
      "OP": 5005,
      "Per": 5006,
      "RS": 5007,
      "ST": 5008,
      "Se": 5009,
      "Sp": 5010,
      "Su": 5011,
      "Te": 5012,
      "Ts": 5013,
      "UPR": 5014,
      "Vo": 5015,
      "autu": 5016,
      "ff": 5017,
      "ht": 5018,
      "ien": 5019,
      "ium": 5020,
      "ka": 5021,
      "kov": 5022,
      "pch": 5023,
      "ple": 5024,
      "thu": 5025,
      "va": 5026,
      "­­": 5027,
      "ກັ": 5028,
      "ກວນ": 5029,
      "ກີດ": 5030,
      "ຂີ້": 5031,
      "ຂົ້ວ": 5032,
      "ຄ້າງ": 5033,
      "ຄູນ": 5034,
      "ງກັນ": 5035,
      "ຊິ": 5036,
      "ດິງ": 5037,
      "ດູນ": 5038,
      "ດື່ມ": 5039,
      "ຕົງ": 5040,
      "ຕຶກ": 5041,
      "ຖ່ານ": 5042,
      "ນ່າຍ": 5043,
      "ບິ່ງ": 5044,
      "ປໍ": 5045,
      "ປາມ": 5046,
      "ຜິວ": 5047,
      "ພິກ": 5048,
      "ຢວນ": 5049,
      "ຣະ": 5050,
      "ຣັດ": 5051,
      "ລ່າ": 5052,
      "ວິນ": 5053,
      "ສ້າ": 5054,
      "ຫັກ": 5055,
      "ຮຽບ": 5056,
      "ືກ": 5057,
      "ແຮັກ": 5058,
      "ໄຮ້": 5059,
      "ໜິ້": 5060,
      "ປະມົງ": 5061,
      "ປະເພນີ": 5062,
      "ການສົ່ງ": 5063,
      "ການຄາດຄະເນ": 5064,
      "ການປ້ອງກັນ": 5065,
      "ການແຂ່ງຂັນ": 5066,
      "ລະນຶກ": 5067,
      "ໃນທ້າຍປີ": 5068,
      "ໃນເນື້ອທີ່": 5069,
      "ໃນທ້າຍເດືອນ": 5070,
      "ໃນເບື້ອງຕົ້ນ": 5071,
      "ດ້ວ": 5072,
      "ປີ2016": 5073,
      "ສະຕິ": 5074,
      "ສະລິມ": 5075,
      "ໄດ້ປະ": 5076,
      "ໄດ້ນຳ": 5077,
      "ໄດ້ສະແດງໃຫ້ເຫັນ": 5078,
      "ຫວຽ": 5079,
      "ຂອງລາວ": 5080,
      "ຂອງດົງ": 5081,
      "ຂອງທ່ານນາງ": 5082,
      "ຂອງຝລັ່ງ": 5083,
      "ເທນ": 5084,
      "ມີເກືອບ": 5085,
      "ມີພຽງ": 5086,
      "ມີການພົວພັນ": 5087,
      "ມີນັກຮຽນ": 5088,
      "່ວິ": 5089,
      "ໃຫ້ນ": 5090,
      "ເມຍ": 5091,
      "ແມ່ນຕ້ອງ": 5092,
      "າກວ່າ": 5093,
      "ມາລີ": 5094,
      "ເປັ": 5095,
      "ຢູ່ພາຍໃນ": 5096,
      "ເປັນການ": 5097,
      "ເປັນໄປ": 5098,
      "ຮັບດຳລົງ": 5099,
      "ສາສະ": 5100,
      "ແຕ່ເດືອນ": 5101,
      "ບັນດາສະມາຊິກ": 5102,
      "ຈະແກ່ຍາວ": 5103,
      "ຄວາມຈິງ": 5104,
      "ຄົນໄດ້": 5105,
      "ຈຳຫນ່າຍ": 5106,
      "ດ້ວຍຈຳນວນ": 5107,
      "ກຳ່": 5108,
      "ຫລ່": 5109,
      "ຕາລາງ": 5110,
      "ຢ່າງຮອບດ້ານ": 5111,
      "ກາບກອນ": 5112,
      "ເພີ່ມພ": 5113,
      "ສ້າງລາຍຮັບ": 5114,
      "ສ້າງຂີດໝາຍ": 5115,
      "1950": 5116,
      "ບັນລຸແຕ່": 5117,
      "ຫະພູມ": 5118,
      "ເຈນ": 5119,
      "ເຈິ່ນ": 5120,
      "ຍາເອກ": 5121,
      "ຄືບ": 5122,
      "103": 5123,
      "104": 5124,
      "ນຳວິຖີ": 5125,
      "ເຄື່ອ": 5126,
      "ໂຄ່ນ": 5127,
      "ລະດັບຊາດ": 5128,
      "ໄລຍະທີ": 5129,
      "ນັກສິລະປະ": 5130,
      "ນັກປະພັນ": 5131,
      "ສ່ວນບຸກຄົນ": 5132,
      "ຈຳນວນຜູ້": 5133,
      "ໃຫຍ່ອັນດັບທີ": 5134,
      "ພື້ນເມືອງ": 5135,
      "ຖືກຫຼຸດລົງ": 5136,
      "ຖືກຫລຸດລົງ": 5137,
      "ພັກກອມມູນິດ": 5138,
      "ໂດຍແມ່ນ": 5139,
      "ຫວ່າງມໍ່ໆມານີ້": 5140,
      "ບົດບັນທຶກ": 5141,
      "118": 5142,
      "ດ້ານການທູດ": 5143,
      "ຍົກລະດັບ": 5144,
      "ຫຼາຍຄົນ": 5145,
      "ໃຈກາງ": 5146,
      "ພັດທະນາຊົນນະບົດ": 5147,
      "ກ່ຽວກັບບັນດາ": 5148,
      "ກ່ຽວກັບການພົວພັນ": 5149,
      "ຫົວຊາ": 5150,
      "ພ້ອມແລ້ວ": 5151,
      "ປາບ": 5152,
      "ຊະນິດ": 5153,
      "ກ່ອນອື່ນ": 5154,
      "ກ່າວຄໍາເຫັນ": 5155,
      "ເພີ່ມຂຶ້ນກ່ວາ": 5156,
      "ເພີ່ມຂຶ້ນຢ່າງແຮງ": 5157,
      "ພວມຮ່ຳຮຽນ": 5158,
      "1500": 5159,
      "ນ້ຳໃຈ": 5160,
      "ສັນຍາປາຣີ": 5161,
      "ຫລາຍກ່ວາ": 5162,
      "ຄາວນັ້ນ": 5163,
      "ເຫຼືຶ": 5164,
      "ດັ່ງນັ້ນ": 5165,
      "ພື້ນຖານໂຄງລ່າງ": 5166,
      "ສີ່": 5167,
      "ຫງວຽນຝູ": 5168,
      "ico": 5169,
      "ປົກປ້ອງ": 5170,
      "ສັງຄົມນິຍົມ": 5171,
      "ຄູ່ຄ້າ": 5172,
      "ລັດຖະບານເອເລັກໂຕນິກ": 5173,
      "ສິ່ງທີ່ໜ້າ": 5174,
      "ເມື່ອທຽບໃສ່ກັບ": 5175,
      "ໄດ້ຮັບການຄວບຄຸມ": 5176,
      "itter": 5177,
      "ແຫຼມ": 5178,
      "ຍູ້ແຮງ": 5179,
      "ພາບປະກອບອີນ": 5180,
      "ກິລິຍາ": 5181,
      "ເຄື່ອງປ່າ": 5182,
      "ທ່ານປະທານາທິບໍດີລັດເຊຍ": 5183,
      "ທຸງ": 5184,
      "ແຕ່ລະຄົນ": 5185,
      "ເຜົາ": 5186,
      "ອຸດສາຫະກໍາ": 5187,
      "ອຸດສາຫະກຳປຸງແຕ່ງ": 5188,
      "ເຫລືອງ": 5189,
      "ເຫລັ້ມ": 5190,
      "ແດນມາກ": 5191,
      "1988": 5192,
      "ພົ້ນອອກຈາກ": 5193,
      "ການນຳພັກ": 5194,
      "ສະແດງສິລະປະ": 5195,
      "ກ່ຽວກັບການປ່ຽນແປງຂອງດິນຟ້າອາກາດ": 5196,
      "rig": 5197,
      "ຮ້ານນີ້": 5198,
      "urt": 5199,
      "ມີນາປີ": 5200,
      "ບົນພື້ນຖານ": 5201,
      "ຂັນເຄື່ອນ": 5202,
      "ວິວັດການ": 5203,
      "ໄດ້ວາງຄາດໝາຍ": 5204,
      "ຜັນຂະຫຍາຍບັນດາ": 5205,
      "ຫຸ້ມ": 5206,
      "ໄດ້ເພີ່ມຂຶ້ນທົບ": 5207,
      "ປັນຍາ": 5208,
      "1968": 5209,
      "ລະອຽດຄື": 5210,
      "ບັນດາກຸ່ມ": 5211,
      "ລະດູການ": 5212,
      "Char": 5213,
      "ວາລະປະຊຸມ": 5214,
      "ສູນກາງພັກຄັ້ງທີ": 5215,
      "ນອນໃນກຸ່ມ": 5216,
      "Sau": 5217,
      "Saigon": 5218,
      "ລ້ຽງສັດ": 5219,
      "ໃຫ້ເຫັນວ່າ": 5220,
      "Paracel": 5221,
      "ວັດຖຸບູຮານຄະດີ": 5222,
      "ຢັ້ງຢືນວ່າ": 5223,
      "tapch": 5224,
      "nier": 5225,
      "ປະດິດຄິດສ້າງ": 5226,
      "ວິໄສທັດຮອດປີ": 5227,
      "ເຮັດວຽກຢູ່": 5228,
      "ອາບການ": 5229,
      "ບັນດານັກລົງທຶນ": 5230,
      "ຄະນະບໍລິຫານງານສູນກາງພັກກອມມູນິດ": 5231,
      "ໄດ້ຮັບການສ້າງຕັ້ງຂຶ້ນ": 5232,
      "cker": 5233,
      "ທີ່ບໍ່ເຄີຍມີ": 5234,
      "ຂໍ້ມູນຂ່າວສານ": 5235,
      "ສະພາຄວາມໝັ້ນຄົງສະຫະປະຊາຊາດອາຍຸການ": 5236,
      "ປະສານງານ": 5237,
      "ເຈື່ອງຊາ": 5238,
      "ແບ່ງປັນວ່າ": 5239,
      "ແບນຊິກ": 5240,
      "ກຳນົດທິດຮອດປີ": 5241,
      "ວິທະຍຸກະຈາຍສຽງຫວຽດນາມ": 5242,
      "ລູກສອນໄຟນຳວິຖີ": 5243,
      "ດ້ວຍຫົວຂໍ້ວ່າ": 5244,
      "ຍອມຮັບ": 5245,
      "ໄດ້ສົມທົບກັນ": 5246,
      "ອາຊີຕາເວັນອອກສ່ຽງໃຕ້": 5247,
      "ອຶດຫິວ": 5248,
      "Apple": 5249,
      "Martin": 5250,
      "Ashton": 5251,
      "ອຸນຫະພູມ": 5252,
      "Juncker": 5253,
      "Modi": 5254,
      "ຂະຫຍັນຂັນເຄື່ອນ": 5255,
      "itaichinh": 5256,
      "Narend": 5257,
      "ບຣູໄນ": 5258,
      "ຄຸນງາມຄວາມດີ": 5259,
      "Twitter": 5260,
      "ຄຼິດ": 5261,
      "ທຳມະຊາດ": 5262,
      "ກໍາມະການບໍ່ປະຈໍາການສະພາຄວາມໝັ້ນຄົງ": 5263,
      "ຊາວມຸດສະລິມ": 5264,
      "ກ່ອນອື່ນໝົດ": 5265,
      "ເຫຼືຶ້ອມ": 5266,
      "ຫງວຽນຝູຈ້ອງ": 5267,
      "ພາບປະກອບອີນເຕີແນັດ": 5268,
      "ເຄື່ອງປ່າຂອງດົງ": 5269,
      "Narendra": 5270,
      "%)": 5271,
      "850": 5272,
      "Aung": 5273,
      "Boe": 5274,
      "El": 5275,
      "Esp": 5276,
      "Fern": 5277,
      "HO": 5278,
      "Hil": 5279,
      "Jord": 5280,
      "Kat": 5281,
      "Li": 5282,
      "LDP": 5283,
      "Lat": 5284,
      "My": 5285,
      "Mal": 5286,
      "Nel": 5287,
      "Os": 5288,
      "OEC": 5289,
      "Por": 5290,
      "Ronald": 5291,
      "Sar": 5292,
      "Ta": 5293,
      "To": 5294,
      "Thu": 5295,
      "Uran": 5296,
      "Ves": 5297,
      "World": 5298,
      "Will": 5299,
      "burg": 5300,
      "cial": 5301,
      "dog": 5302,
      "eh": 5303,
      "euro": 5304,
      "facebook": 5305,
      "gan": 5306,
      "ientu": 5307,
      "kash": 5308,
      "na": 5309,
      "nia": 5310,
      "ninh": 5311,
      "oit": 5312,
      "prom": 5313,
      "the": 5314,
      "ກຸ": 5315,
      "ກ້ານ": 5316,
      "ກ້ອນ": 5317,
      "ຂຸ": 5318,
      "ຄ້ອງ": 5319,
      "ຈາມ": 5320,
      "ຈີ່": 5321,
      "ຊົ": 5322,
      "ຊັນ": 5323,
      "ຊ້ອມ": 5324,
      "ຕ໋": 5325,
      "ຕາດ": 5326,
      "ຕາກ": 5327,
      "ຖັນ": 5328,
      "ທ່ວງ": 5329,
      "ນວ": 5330,
      "ບັ": 5331,
      "ບູ່": 5332,
      "ບອດ": 5333,
      "ຜັງ": 5334,
      "ຜູກ": 5335,
      "ຟາດ": 5336,
      "ມິງ": 5337,
      "ມມູ": 5338,
      "ມສະຫລອງ": 5339,
      "ຢໍ": 5340,
      "ຢ່າ": 5341,
      "ຣຸກ": 5342,
      "ລິນ": 5343,
      "ວັ": 5344,
      "ສວມ": 5345,
      "ສ້ອມ": 5346,
      "ຫາດ": 5347,
      "ຫໍ່": 5348,
      "ຫລຸບ": 5349,
      "ອູ": 5350,
      "ຮື": 5351,
      "ຮອນ": 5352,
      "ຮວາ": 5353,
      "ັ້ຍ": 5354,
      "ໄຫລ່": 5355,
      "ໝາ": 5356,
      "ໝໍ້": 5357,
      "ໝັ້": 5358,
      "ປະລາ": 5359,
      "ປະສົງ": 5360,
      "ການກະທົບ": 5361,
      "ການຄຸ້ມຄອງ": 5362,
      "2035": 5363,
      "ໃນອະນາຄົດ": 5364,
      "ປີທີ": 5365,
      "ປີແລ້ວ": 5366,
      "່ງານ": 5367,
      "ິດສະຖານ": 5368,
      "ິດຕະພາບ": 5369,
      "ໄດ້ຊ່ວຍ": 5370,
      "ໄດ້ລົງນາມ": 5371,
      "ໄດ້ແນະນຳ": 5372,
      "ໄດ້ເກີດຂຶ້ນ": 5373,
      "ໄດ້ເຊື່ອມຕໍ່": 5374,
      "ໄດ້ໃຫ້ສັດຕະຍາບັນ": 5375,
      "ຂອງກອງປະຊຸມ": 5376,
      "ຂອງອາຊຽນ": 5377,
      "ຂອງສະພາແຫ່ງຊາດ": 5378,
      "ຂອງບັນດາອົງການ": 5379,
      "ທີ່ຫວຽດນາມ": 5380,
      "ທີ່ສຳຄັນ": 5381,
      "ເລີມ": 5382,
      "ແມ່ນທ່ານ": 5383,
      "ແມ່ນບໍ່": 5384,
      "ແມ່ນເກືອບ": 5385,
      "ວັນຄື": 5386,
      "ມາຢ້ຽມ": 5387,
      "ເປຣູ": 5388,
      "ອາສາ": 5389,
      "ອາຫານ": 5390,
      "ອາຄານ": 5391,
      "ໃຫ້ແກ່ນ": 5392,
      "ຮັບການ": 5393,
      "ສາຂາ": 5394,
      "ແຫ່ງນີ້": 5395,
      "ອອກສະໝັກ": 5396,
      "ບັນດາເອກະສານ": 5397,
      "ຈະລາ": 5398,
      "ຈະສ້າງ": 5399,
      "ຈະມີຜົນສັກສິດ": 5400,
      "ຄວາມໄວ້": 5401,
      "ເກີ": 5402,
      "ດ້ວຍລາຄາ": 5403,
      "ດ້ວຍຈໍານວນ": 5404,
      "ຕື້USD": 5405,
      "ກຳມາ": 5406,
      "ຢ່າງໄວ": 5407,
      "ຢ່າງຫນ້ອຍ": 5408,
      "ຢ່າງຮ້າຍແຮງ": 5409,
      "ຢ່າງເລິກເຊິ່ງ": 5410,
      "ກາລະ": 5411,
      "ບໍ່ນ": 5412,
      "ນີ້ກໍ່ແມ່ນ": 5413,
      "ງານມະ": 5414,
      "192": 5415,
      "ບັນລຸການເຕີບໂຕ": 5416,
      "ວິລະ": 5417,
      "ຜູ້ຂຽນ": 5418,
      "ໂຕະ": 5419,
      "ໂຕກຽວ": 5420,
      "ເຈີ": 5421,
      "ເຈ້ຍ": 5422,
      "ພັນລະ": 5423,
      "ເພື່ອຮັບປະກັນ": 5424,
      "ເຂດຊາຍແດນ": 5425,
      "ເຂດແຄວ້ນ": 5426,
      "ຄືວ່າ": 5427,
      "ຄືກັນ": 5428,
      "106": 5429,
      "ຖືສາສະໜາ": 5430,
      "ຕາມທິດ": 5431,
      "ເວີນ": 5432,
      "ຕໍ່ມາ": 5433,
      "ຕໍ່ຈາກນັ້ນ": 5434,
      "ລະດັບນ້ຳ": 5435,
      "ກໍ່ມີ": 5436,
      "ກໍ່ຍັງ": 5437,
      "ສ່ວນຫຼາຍ": 5438,
      "ສ່ວນຫລາຍ": 5439,
      "ທຽບໃສ່": 5440,
      "ພິພາກ": 5441,
      "ຍັງມີຜົນສັກສິດ": 5442,
      "ຖືກຈັດ": 5443,
      "ພາຍຸ": 5444,
      "ປະຕິກິລິຍາ": 5445,
      "ດ້ານການເງິນ": 5446,
      "122": 5447,
      "ເນີດ": 5448,
      "ອັນລ້ຳ": 5449,
      "ແຜນຮ່າງ": 5450,
      "ທົ່ວຂະແໜງ": 5451,
      "ຫຼາຍປະເທດ": 5452,
      "ຕ້ອງມີ": 5453,
      "້ານັ້ນ": 5454,
      "ກ່ຽວກັບທະເລ": 5455,
      "ປະຕິບັດໄດ້": 5456,
      "ໄດ້ຮັບໄຊຊະນະ": 5457,
      "ເຊິ່ງດຳເນີນ": 5458,
      "ເພີ່ມຂຶ້ນແຕ່": 5459,
      "ອິດທິພົນ": 5460,
      "ນ້ຳຂອງ": 5461,
      "ຮູ້ຈັກ": 5462,
      "ຫລາຍຝ່າຍ": 5463,
      "ຈຸດປະສົງ": 5464,
      "ເຫດນັ້ນ": 5465,
      "ຫງວຽນທິ": 5466,
      "ກຸ່ມບັນດາປະເທດ": 5467,
      "ເລກນີ້": 5468,
      "175": 5469,
      "ໄລ່ລວມ": 5470,
      "ເສຍສະຫຼະ": 5471,
      "ດົ່ງຕໍ່": 5472,
      "ໃນການຕໍ່ສູ້": 5473,
      "ເພາະສະ": 5474,
      "tern": 5475,
      "ໄດ້ຮັບການຕີລາຄາວ່າ": 5476,
      "ity": 5477,
      "ເຊື່ອໃຈ": 5478,
      "ເນື້ອເຊື່ອໃຈ": 5479,
      "ອາດສາມາດ": 5480,
      "ໄວຣັດ": 5481,
      "ຍາດແຍ່ງ": 5482,
      "ທິດຕາ": 5483,
      "ສຳລັບສິນຄ້າ": 5484,
      "atic": 5485,
      "ແຈ່ວ": 5486,
      "ຮ່າງເອກະສານ": 5487,
      "ເຟືອງ": 5488,
      "ກຳລັງແຮງ": 5489,
      "ກົນໄກ": 5490,
      "ຍຸຕິ": 5491,
      "ເປີດປະຕູ": 5492,
      "ວີບ": 5493,
      "ນັບແຕ່ເດືອນ": 5494,
      "chi": 5495,
      "ເຫດການທີ": 5496,
      "baot": 5497,
      "ໝັກຮັບ": 5498,
      "ທ່າເຕີບໂຕ": 5499,
      "ທ່າອ່ຽງ": 5500,
      "ເຫລີ": 5501,
      "ເຫລື້ອມ": 5502,
      "ຂອບຂະຫນາດ": 5503,
      "ຫນຶ່ງໃນບັນດາ": 5504,
      "....": 5505,
      "ຊືມ": 5506,
      "ດ້ວຍຍອດທຶນຈົດທະບຽນ": 5507,
      "ສົນທິສັນຍາສະຫະປະຊາຊາດ": 5508,
      "ເງິນລົງທຶນຈາກຕ່າງປະເທດ": 5509,
      "ພາຍໃນກຸ່ມ": 5510,
      "ບົດບາດເປັນປະທານ": 5511,
      "ຣາຊິນ": 5512,
      "ລາຍຮັບສະເລ່ຍຕໍ່ຫົວຄົນ": 5513,
      "ຍຸດທະສາດພັດທະນາເສດຖະກິດ": 5514,
      "ຕົວເລກນີ້": 5515,
      "ຕົວເລກຄາດໝາຍ": 5516,
      "ສະເລ່ຍປະມານ": 5517,
      "ແຕ່ງຕັ້ງ": 5518,
      "ແຫຼ່ງທຶນ": 5519,
      "ມອບໝາຍ": 5520,
      "ປະຫວັດສາດຂອງ": 5521,
      "ກັນຍາປີ": 5522,
      "ອາດຈະເຮັດໃຫ້": 5523,
      "ການສົ່ງອອກສິນຄ້າ": 5524,
      "ການສົ່ງອອກຂອງຫວຽດນາມ": 5525,
      "ນິດຫວຽດ": 5526,
      "ໜາວ": 5527,
      "ໄລຍະດຽວກັນຂອງປີ": 5528,
      "ສັນຕິພາບຢູ່": 5529,
      "ikh": 5530,
      "981": 5531,
      "ບາດກ້າວເດີນ": 5532,
      "ປະຊາຄົມວິສາຫະກິດ": 5533,
      "ຖ້ວຍ": 5534,
      "ກ່ຽວຂ້ອງເຖິງ": 5535,
      "ຕົ້ນຕໍແມ່ນ": 5536,
      "CoV": 5537,
      "Coop": 5538,
      "ອາທິດຜ່ານມາ": 5539,
      "ສະຫະພັນລັດເຊຍ": 5540,
      "ໂຄງການລົງທຶນໂດຍກົງ": 5541,
      "ນິຕິກຳ": 5542,
      "ຊັກຖາມ": 5543,
      "ທີ່ນຳ": 5544,
      "ອິນເຕີແນດ": 5545,
      "ບັ້ນຮົບ": 5546,
      "ຄຽງຄູ່": 5547,
      "ຍື່ນສະເໜີ": 5548,
      "ຢູ່ນະຄອນຫຼວງ": 5549,
      "eier": 5550,
      "ທີ່ເປັນມູນເຊື້ອ": 5551,
      "ແຂກທ່ອງທ່ຽວສາກົນ": 5552,
      "ດໍາລົງ": 5553,
      "exco": 5554,
      "ທິບໍດີອາ": 5555,
      "ເປັນຕົ້ນແມ່ນ": 5556,
      "Ind": 5557,
      "ຖ່າຍຮູບ": 5558,
      "ຫລັກການ": 5559,
      "ວິຊາຊີບ": 5560,
      "ຝັ່ງທະເລ": 5561,
      "ເງື່ອນໄຂສະດວກ": 5562,
      "ອິດສະຣາແອັນ": 5563,
      "ືອກຕັ້ງ": 5564,
      "Startup": 5565,
      "Lukash": 5566,
      "doanh": 5567,
      "ທີ່ຍັງເຫຼືອ": 5568,
      "ຫຼ້າສຸດ": 5569,
      "ພາລະກິດ": 5570,
      "ກິດຈະການ": 5571,
      "ລົບລ້າງພາສີ": 5572,
      "ບຣາຊິນ": 5573,
      "ເທດສະບານ": 5574,
      "----------------": 5575,
      "www": 5576,
      "ຊື່ນຊົມ": 5577,
      "ຂໍ້ສະເໜີແນະ": 5578,
      "ກ່ຽວກັບກົດໝາຍວ່າດ້ວຍທະເລປີ": 5579,
      "ກົມໃຫຍ່ສະຖິຕິ": 5580,
      "ຕາມການສະຖິຕິແລ້ວ": 5581,
      "Cameron": 5582,
      "ນັກທ່ອງທ່ຽວສາກົນ": 5583,
      "ພັດທະນາກ": 5584,
      "George": 5585,
      "Erdog": 5586,
      "Walter": 5587,
      "ດ້ວຍຖານະເປັນປະທານ": 5588,
      "ພັກປະຊາທິປະໄຕເສລີ": 5589,
      "ທີ່ເປັນໜ້າສົນໃຈ": 5590,
      "Atlas": 5591,
      "ໃຊ້ອ": 5592,
      "ສະໄຫມສາມັນເທື່ອທີ": 5593,
      "ດີໂອຊິນ": 5594,
      "ຟູ໋ຈ້ອງ": 5595,
      "Mosul": 5596,
      "ດັກລັກ": 5597,
      "ປະມຸກລັດ": 5598,
      "ດ້ຽນບຽນ": 5599,
      "ເກືອດ": 5600,
      "ຕາຕະລາງຈັດອັນດັບ": 5601,
      "ວິຕົກກັງວົນ": 5602,
      "ກໍ່ຄວາມເສຍຫາຍ": 5603,
      "ສະພາບແວດລ້ອມແຫ່ງການ": 5604,
      "Dilma": 5605,
      "Finan": 5606,
      "ກວມເອົາກວ່າ": 5607,
      "Philipp": 5608,
      "ustin": 5609,
      "ຢ່າງຕໍ່ເນື່ອງ": 5610,
      "ເຫັນດີເຫັນພ້ອມ": 5611,
      "Ayraurt": 5612,
      "Bitexco": 5613,
      "Tech": 5614,
      "ທີ່ບໍ່ເຄີຍມີມາກ່ອນ": 5615,
      "Esper": 5616,
      "Hilary": 5617,
      "Nelson": 5618,
      "Uranium": 5619,
      "Vesak": 5620,
      "William": 5621,
      "ອາສາສະໝັກ": 5622,
      "ພິພາກສາ": 5623,
      "ອັນລ້ຳຄ່າ": 5624,
      "ອິດທິພົນຊື່ສຽງ": 5625,
      "Lukashenko": 5626,
      ".\"": 5627,
      "370": 5628,
      "480": 5629,
      "475": 5630,
      "520": 5631,
      "AA": 5632,
      "AK": 5633,
      "AL": 5634,
      "Ba": 5635,
      "BBC": 5636,
      "Chang": 5637,
      "Do": 5638,
      "ED": 5639,
      "Fit": 5640,
      "Hi": 5641,
      "Hong": 5642,
      "Ips": 5643,
      "James": 5644,
      "Kur": 5645,
      "MH": 5646,
      "PE": 5647,
      "Ri": 5648,
      "She": 5649,
      "Thanh": 5650,
      "UK": 5651,
      "VI": 5652,
      "Wash": 5653,
      "Xuan": 5654,
      "au": 5655,
      "dang": 5656,
      "gia": 5657,
      "ks": 5658,
      "ler": 5659,
      "long": 5660,
      "med": 5661,
      "nd": 5662,
      "uc": 5663,
      "uat": 5664,
      "wang": 5665,
      "zy": 5666,
      "ກ໋": 5667,
      "ກ່າ": 5668,
      "ກາມ": 5669,
      "ກາກ": 5670,
      "ຂ່ຳ": 5671,
      "ງມີ": 5672,
      "ງລວມມີ": 5673,
      "ຈິນ": 5674,
      "ຈີ້": 5675,
      "ຍໍ": 5676,
      "ຍົນ": 5677,
      "ຍ້ອງ": 5678,
      "ດຣ": 5679,
      "ດ່": 5680,
      "ຕົ": 5681,
      "ຕ່": 5682,
      "ຖົງ": 5683,
      "ຖີ້": 5684,
      "ທ້": 5685,
      "ທອງ": 5686,
      "ທອນ": 5687,
      "ນັ": 5688,
      "ປອນ": 5689,
      "ຜາ": 5690,
      "ຜິ": 5691,
      "ຝ້າມ": 5692,
      "ພັບ": 5693,
      "ພອນ": 5694,
      "ຣາມ": 5695,
      "ລຽວ": 5696,
      "ລ້າຍ": 5697,
      "ຮົມ": 5698,
      "ຮີດ": 5699,
      "ຳລັງ": 5700,
      "ິຕິ": 5701,
      "ູມ": 5702,
      "ແຮ່": 5703,
      "ໂວ": 5704,
      "ໃຜ": 5705,
      "​-": 5706,
      "…​": 5707,
      "ການສຳ": 5708,
      "ການສະໜັບສະໜູນ": 5709,
      "ການພັດທະນາເສດຖະກິດ": 5710,
      "ການມອບ": 5711,
      "ລະລາຍ": 5712,
      "ລະມັດ": 5713,
      "ລະວັງ": 5714,
      "ໃນເກືອບ": 5715,
      "ໃນບົດ": 5716,
      "ໃນກອງປະຊຸມ": 5717,
      "ໃນຫລາຍ": 5718,
      "ໃນທ້າຍ": 5719,
      "ໃນວິວັດທະນາການ": 5720,
      "ໃນສື່ສັງຄົມ": 5721,
      "ປີໄລຍະ": 5722,
      "ສະນີ": 5723,
      "ສະບາຍ": 5724,
      "ບັນຊາ": 5725,
      "ົນໄກ": 5726,
      "ໄດ້ແຜ່": 5727,
      "ໄດ້ສ້າງຕັ້ງການພົວພັນທາງການທູດ": 5728,
      "ໄດ້ສົ່ງອອກໄປຍັງ": 5729,
      "ຂອງປະ": 5730,
      "ຂອງຄະນະ": 5731,
      "ຂອງເອີລົບ": 5732,
      "ພາລາ": 5733,
      "ນາມໄດ້": 5734,
      "ເທິງ": 5735,
      "ມີສະມາຊິກ": 5736,
      "ມີການເຕີບໂຕ": 5737,
      "ມີປະຊາຊົນ": 5738,
      "ມີບາງ": 5739,
      "ມີຂອບຂະໜາດ": 5740,
      "ມີລວງຍາວ": 5741,
      "່ວ່າ": 5742,
      "ທີ່ທ່ານ": 5743,
      "ທີ່ໄດ້ຮັບການ": 5744,
      "ັກທຸລະກິດ": 5745,
      "ເລິ": 5746,
      "ໃຫຍ": 5747,
      "ເມັກ": 5748,
      "ແມ່ນໂອກາດ": 5749,
      "່າງໄຟຟ້າ": 5750,
      "ເທດຫວຽດ": 5751,
      "ທະຍົມ": 5752,
      "ກັບມາ": 5753,
      "ກັບທ່ານ": 5754,
      "ແຕ່ນ": 5755,
      "ໃຫ້ຄຳໝັ້ນສັນຍາ": 5756,
      "ໃຫ້ປະກົດຜົນເປັນຈິງ": 5757,
      "ເປັນຫຼາຍ": 5758,
      "ຮັບເລືອກຕັ້ງ": 5759,
      "ຄວາ": 5760,
      "ຄວາຍ": 5761,
      "ລິຍະ": 5762,
      "ເດືອ": 5763,
      "ເດີ່ນ": 5764,
      "ອອກກວ່າ": 5765,
      "ອອກສູ່": 5766,
      "ຈະໄດ້": 5767,
      "ຈະບໍ່": 5768,
      "ຈະຫຼຸດລົງ": 5769,
      "ຄົນທີ": 5770,
      "ຄົນຈາກ": 5771,
      "ຄົນໜຶ່ງ": 5772,
      "ຄົນທີ່ມາຈາກ": 5773,
      "ເກມ": 5774,
      "ຕັ້ງສະ": 5775,
      "ລາຕິນ": 5776,
      "ລາຣຸດ": 5777,
      "ດ້ວຍບັນດາ": 5778,
      "ດ້ວຍໝາກຜົນ": 5779,
      "ດ້ວຍລະດັບເຕີບໂຕ": 5780,
      "ເມື່ອຫວຽດນາມ": 5781,
      "ກຳອຳນາດ": 5782,
      "ເຂົ້າແຂວງ": 5783,
      "ູນຄູນ": 5784,
      "ທຶນປະຕິບັດ": 5785,
      "ທຶນຮອນ": 5786,
      "ດີກວ່າ": 5787,
      "ດີພໍສົມຄວນ": 5788,
      "ງານຢູ່": 5789,
      "ງານບຸນ": 5790,
      "ເດືອນພຶດສະພາ": 5791,
      "ເດືອນທ້າຍປີ": 5792,
      "ຊາດຫວຽດ": 5793,
      "ປະເທດຫວຽດນາມ": 5794,
      "ຮ່ວມສຳພັນ": 5795,
      "ບັນລຸວົງເງິນສົ່ງອອກ": 5796,
      "ກອງພັນ": 5797,
      "ຫະນະ": 5798,
      "ກັນຂ້າມ": 5799,
      "ຜູ້ອ່ານ": 5800,
      "ໂລກາ": 5801,
      "ຈາກບັນດາ": 5802,
      "ພັນຕື້": 5803,
      "ຍາຈາງ": 5804,
      "ເພື່ອບັນລຸ": 5805,
      "ເພື່ອບັນລຸໄດ້": 5806,
      "ິກກາ": 5807,
      "ເຕີ້ນ": 5808,
      "ຕາມຂໍ້ກຳນົດ": 5809,
      "ລ້ານຖັງ": 5810,
      "ones": 5811,
      "ບັດເຫັນດີ": 5812,
      "ບັດປະກັນສຸຂະພາບ": 5813,
      "inf": 5814,
      "ຫນ້ານັ້ນ": 5815,
      "ຍອດວົງເງິນ": 5816,
      "ທາງທິດ": 5817,
      "ຈຳນວນບັດ": 5818,
      "ຈຳນວນວິສາຫະກິດ": 5819,
      "ໄປຂາຍ": 5820,
      "ເລືອກເອົາ": 5821,
      "ເລືອກເຟັ້ນ": 5822,
      "ພິພາດ": 5823,
      "ພິສູດ": 5824,
      "ໃຫຍ່ອັນດັບ": 5825,
      "ອີກວ່າ": 5826,
      "ອີຣັກ": 5827,
      "ກໍຄື": 5828,
      "ພັກກອມ": 5829,
      "ໂດຍມີ": 5830,
      "ໂດຍມີການເຂົ້າຮ່ວມຂອງ": 5831,
      "ໂດຍອີງໃສ່": 5832,
      "ລົງທຶນຢູ່": 5833,
      "ຫວ່າງວັນ": 5834,
      "ວາງຄາດໝາຍ": 5835,
      "ທັງຢູ່ພາຍໃນ": 5836,
      "114": 5837,
      "115": 5838,
      "127": 5839,
      "ຫຍໍ້": 5840,
      "ໃຊ້ເວລາ": 5841,
      "ເມືອງນອນ": 5842,
      "ປະກອບດ້ວຍ": 5843,
      "ປະກອບທຶນ": 5844,
      "ປະກອບອາວຸດ": 5845,
      "ປະທານາທິບໍດີອາເມລິກາ": 5846,
      "ຕ້ອງເຮັດ": 5847,
      "ໃໝ່ໃຫ້ແກ່": 5848,
      "ຄຳຖະແຫຼງ": 5849,
      "ລວມມູນ": 5850,
      "ກ່ຽວກັບທະເລຕາເວັນອອກ": 5851,
      "ອົງຄະນະພັກ": 5852,
      "ຫງວຽ": 5853,
      "ໂຄງການນີ້": 5854,
      "ໂຄງການການເມືອງ": 5855,
      "ບາດເຈັບ": 5856,
      "ພ້ອມດ້ວຍ": 5857,
      "elps": 5858,
      "ຄ່າການ": 5859,
      "ກອງປະຊຸມສຳມະນາ": 5860,
      "ແຂວງກວາງນາມ": 5861,
      "ຊາວຫວຽດນາມ": 5862,
      "ຢືນອັນ": 5863,
      "ໄຫວ້": 5864,
      "ປຸ້ນ": 5865,
      "187": 5866,
      "ຫຼັງຈາກ": 5867,
      "ເຫດຍິງປືນ": 5868,
      "mpeo": 5869,
      "ພົວພັນຕ່າງປະເທດ": 5870,
      "ປ່ຽນໃຫມ່": 5871,
      "ແທ່ງ": 5872,
      "ການຄ້າເອເລັກໂຕນິກ": 5873,
      "ick": 5874,
      "ໄລ່ສະເພາະ": 5875,
      "ແຜນການດຳເນີນງານ": 5876,
      "Trumph": 5877,
      "ສົ່ງອອກສິນຄ້າ": 5878,
      "ເສຍອົງຄະ": 5879,
      "ສົນທະນາ": 5880,
      "ດົ່ງວັນ": 5881,
      "ໃນການແຂ່ງຂັນ": 5882,
      "ເມື່ອທຽບໃສ່ໄລຍະ": 5883,
      "ເມື່ອທຽບໃສ່ແຜນການ": 5884,
      "ຫາກຳ": 5885,
      "ຫາກໍ": 5886,
      "ໄດ້ຮັບການສະໜັບສະໜູນ": 5887,
      "ໄດ້ຮັບການປັບປຸງ": 5888,
      "ໄດ້ຮັບການຄາດຄະເນວ່າ": 5889,
      "itsu": 5890,
      "ຮ່ວມມືເສດຖະກິດ": 5891,
      "ພາຍຫຼັງທີ່": 5892,
      "ອີກຄັ້ງ": 5893,
      "ຢ້ຽມຢາມຫວຽດນາມ": 5894,
      "169": 5895,
      "ແລ່ນ": 5896,
      "ເປີເຊັນ": 5897,
      "ດິນແດນ": 5898,
      "ເຟີ": 5899,
      "ກຳລັງແກ່ງແຍ້ງ": 5900,
      "ຍຸບ": 5901,
      "ily": 5902,
      "ຫັນເປັນຫຸ້ນສ່ວນ": 5903,
      "ກົງກັນຂ້າມ": 5904,
      "ກະຊວງກະສິກຳ": 5905,
      "ເຄື່ອງມື": 5906,
      "ໝູ່ບ້ານ": 5907,
      "ຄອງປະເພນີ": 5908,
      "ເຢີ": 5909,
      "ຈັດຕັ້ງການ": 5910,
      "ຈັດຕັ້ງປີ": 5911,
      "ເຜັດ": 5912,
      "ປະກອບສ່ວນເຂົ້າໃນ": 5913,
      "ລາດບັງ": 5914,
      "ພາສີນຳເຂົ້າ": 5915,
      "ໃຫ້ແກ່ໄລຍະ": 5916,
      "use": 5917,
      "ທ່າກຳປັ່ນ": 5918,
      "ແສນ": 5919,
      "ສາຍການບິນ": 5920,
      "ອຸບາຍ": 5921,
      "UNIC": 5922,
      "ການນຳຂັ້ນສູງ": 5923,
      "ທະຫານເສຍອົງຄະ": 5924,
      "ລູກຄ້າ": 5925,
      "CO2": 5926,
      "ດ້ວຍຍອດເງິນ": 5927,
      "ດ້ວຍຍອດຈຳນວນເງິນ": 5928,
      "ຊຸກຍູ້ການເຕີບໂຕ": 5929,
      "ເສລີໃນການ": 5930,
      "ພຶດຕິ": 5931,
      "hay": 5932,
      "ງົບປະມານແຫ່ງລັດ": 5933,
      "line": 5934,
      "ລາງວັນທີ": 5935,
      "ຕະຫຼາດນັດ": 5936,
      "ເຮືອນຢູ່": 5937,
      "ເວົ້າລວມ": 5938,
      "ray": 5939,
      "ພະຍານ": 5940,
      "ຕ້ານການ": 5941,
      "ປະສົບການ": 5942,
      "ຫວັງວ່າ": 5943,
      "ລຳດັບ": 5944,
      "ຢຸດຢັ້ງ": 5945,
      "ພິທີເລີ່ມ": 5946,
      "ພິທີສະເຫຼີມສະຫຼອງ": 5947,
      "ມັດທະຍົມ": 5948,
      "ຂົງເຂດເສດຖະກິດພາກເອກະຊົນ": 5949,
      "ກ້ຽງ": 5950,
      "ສະເລ່ຍແມ່ນ": 5951,
      "ການເຄື່ອນໄຫວຂອງ": 5952,
      "Real": 5953,
      "ແຫຼ່ງຊັບພະຍາກອນ": 5954,
      "ສຸສານ": 5955,
      "ມະຫາອຳນາດ": 5956,
      "ອະນຸພາກພື້ນ": 5957,
      "ມຸ່ງໄປ": 5958,
      "ສະເຫຼີມສະຫຼອງວັນ": 5959,
      "ໂຮມປະເທດຊາດ": 5960,
      "ແຄງ": 5961,
      "ສາທາລະນະລັດ": 5962,
      "ເຊັນອະນຸມັດ": 5963,
      "ໄດ້ເພີ່ມຂຶ້ນປະມານ": 5964,
      "ມິຖຸນາປີ": 5965,
      "ຊົນນະບົດໃໝ່": 5966,
      "ຢ່າງເປັນທາງການແຕ່ວັນທີ": 5967,
      "ຕຸລາການ": 5968,
      "Cain": 5969,
      "Roy": 5970,
      "ສະຫນາມ": 5971,
      "1962": 5972,
      "1969": 5973,
      "ພົນລະເມືອງຫວຽດນາມ": 5974,
      "ອົບຮົມ": 5975,
      "ລະອຽດແມ່ນ": 5976,
      "ຕາມການຄິດໄລ່": 5977,
      "ສະເພາະປີ": 5978,
      "ສປປລາວ": 5979,
      "ington": 5980,
      "ລະດູຮ້ອນ": 5981,
      "ຫຸ້ນຂອງ": 5982,
      "ເປັນສະມາຊິກບໍ່ປະຈຳການ": 5983,
      "azon": 5984,
      "ທີ່ໄດ້ລົງນາມ": 5985,
      "ock": 5986,
      "ສັນຍານີ້": 5987,
      "ຖ້າຫາກວ່າ": 5988,
      "ແທດຈິງ": 5989,
      "Catherine": 5990,
      "ipras": 5991,
      "Phelps": 5992,
      "ເຂດແຄ້ວນທີ່ມີ": 5993,
      "ອິນເຕີເນັດ": 5994,
      "ການພັດທະນາແບບຍືນຍົງ": 5995,
      "ຍັງຄົງສືບຕໍ່": 5996,
      "ແໜ້ນແຟ້ນ": 5997,
      "ໂຮ່ຈິມິນ": 5998,
      "ໂຮ່ຈິມີນ": 5999,
      "ເດີນທາງໄປ": 6000,
      "CEO": 6001,
      "owd": 6002,
      "ower": 6003,
      "ຄວາມສາມາດບົ່ມຊ້ອນ": 6004,
      "ມື້ນີ້": 6005,
      "ຖານະບົດບາດ": 6006,
      "ຄະນະກຳມະການປະຊາຊົນ": 6007,
      "ລຸ້ນທີ": 6008,
      "ຜ່າຕັດ": 6009,
      "ບັນດານັກຊ່ຽວຊານ": 6010,
      "ກັບບັນດາຄູ່ຮ່ວມມື": 6011,
      "Nicola": 6012,
      "ເຈດຈຳນົງ": 6013,
      "kozy": 6014,
      "ກອ່ນ": 6015,
      "ການພົບປະສຸດຍອດ": 6016,
      "baodautu": 6017,
      "oft": 6018,
      "ຟິລິບ": 6019,
      "ເຖິງຢ່າງໃດກໍຕາມ": 6020,
      "Alexis": 6021,
      "Alexander": 6022,
      "Pompeo": 6023,
      "ສໍ້ລາດບັງ": 6024,
      "ຍອດຜະລິດຕະພັນພາຍໃນ": 6025,
      "ເມື່ອທຽບກັບປີ": 6026,
      "ຈັນທະ": 6027,
      "ທີ່ວາງ": 6028,
      "ໄດ້ເຫັນດີເປັນເອກະພາບ": 6029,
      "ເຕົ້າໂຮມ": 6030,
      "ກຳລັງໜູນໃໝ່": 6031,
      "ປີແຫ່ງການປະຕິບັດມະຕິ": 6032,
      "ເວທີປາໄສເສດຖະກິດໂລກກ່ຽວກັບ": 6033,
      "Amazon": 6034,
      "Kyoto": 6035,
      "ໂສມ": 6036,
      "ໝື່ນຄົນ": 6037,
      "ປະຖົມປັດໄຈ": 6038,
      "ໄດ້ຊີ້ໃຫ້ເຫັນວ່າ": 6039,
      "ເພື່ອກໍ່": 6040,
      "ປະຕິບັດງານຢູ່": 6041,
      "ຕິດພັນກັບ": 6042,
      "ຮີບດ່ວນ": 6043,
      "ຢ່າງໜ້ອຍສຸດແມ່ນ": 6044,
      "ekong": 6045,
      "ງ່າຍດາຍ": 6046,
      "ໄດ້ສົມທົບກັບ": 6047,
      "ລະບຸໃນ": 6048,
      "Scott": 6049,
      "Sout": 6050,
      "ລໍຖ້າ": 6051,
      "caf": 6052,
      "congsan": 6053,
      "ເກນອາຍຸ": 6054,
      "ໂອ້ລົມ": 6055,
      "Pence": 6056,
      "ທວນຄືນ": 6057,
      "ຜ່ານຜ່າຄວາມຫຍຸ້ງຍາກ": 6058,
      "ຖ້ຽວບິນ": 6059,
      "ມໍລະດົກວັດທະນະທຳບໍ່ເປັນວັດຖຸ": 6060,
      "ເຕັກໂນໂລຢີສູງ": 6061,
      "Sergei": 6062,
      "ດ່າໜັງ": 6063,
      "ແຣນ": 6064,
      "ຂອງທະນາຄານໂລກ": 6065,
      "phapl": 6066,
      "ວັດທະນາຖາວອນ": 6067,
      "ເຊື່ອໝັ້ນວ່າ": 6068,
      "ການສົ່ງອອກເກີນດຸນ": 6069,
      "Abdullah": 6070,
      "Global": 6071,
      "ຊັດເຈນ": 6072,
      "Edward": 6073,
      "Murray": 6074,
      "ໃນທຸກຂົງເຂດ": 6075,
      "ຈຸດເວລານີ້": 6076,
      "ຮູບຫຼາຍແບບ": 6077,
      "OPEC": 6078,
      "Tsipras": 6079,
      "ກີດຂວາງ": 6080,
      "ຮັບດຳລົງຕຳແຫນ່ງ": 6081,
      "ເພີ່ມພູນຄູນ": 6082,
      "ສິ່ງທີ່ໜ້າສົນໃຈ": 6083,
      "tapchitaichinh": 6084,
      "Jordan": 6085,
      "Sarkozy": 6086,
      "ຈະລາຈົນ": 6087,
      "Ipsos": 6088,
      "Sheikh": 6089,
      "Washington": 6090,
      "dangcongsan": 6091,
      "ຖີ້ມ": 6092,
      "ຮີດຄອງປະເພນີ": 6093,
      "ລະມັດລະວັງ": 6094,
      "UNICEF": 6095,
      "ມັດທະຍົມຕອນ": 6096,
      "ເພີ່ມພູນຄູນສ້າງ": 6097,
      "211": 6098,
      "224": 6099,
      "320": 6100,
      "8000": 6101,
      "Bu": 6102,
      "Bin": 6103,
      "Bal": 6104,
      "Bri": 6105,
      "Book": 6106,
      "Bandung": 6107,
      "Cl": 6108,
      "Can": 6109,
      "Cor": 6110,
      "Com": 6111,
      "Crist": 6112,
      "DG": 6113,
      "Dani": 6114,
      "Est": 6115,
      "Ele": 6116,
      "FC": 6117,
      "For": 6118,
      "Fre": 6119,
      "Gra": 6120,
      "Hang": 6121,
      "Jac": 6122,
      "Jos": 6123,
      "Justin": 6124,
      "Kara": 6125,
      "Lan": 6126,
      "Lit": 6127,
      "Med": 6128,
      "Minh": 6129,
      "Not": 6130,
      "NAM": 6131,
      "Nag": 6132,
      "Ohi": 6133,
      "Pl": 6134,
      "Pat": 6135,
      "Sal": 6136,
      "Sand": 6137,
      "Ston": 6138,
      "Ton": 6139,
      "Tay": 6140,
      "Vatic": 6141,
      "Wings": 6142,
      "WHO": 6143,
      "Yo": 6144,
      "ao": 6145,
      "be": 6146,
      "bar": 6147,
      "cis": 6148,
      "dis": 6149,
      "dant": 6150,
      "eon": 6151,
      "ger": 6152,
      "hat": 6153,
      "ier": 6154,
      "km": 6155,
      "lo": 6156,
      "my": 6157,
      "nld": 6158,
      "ood": 6159,
      "petro": 6160,
      "rin": 6161,
      "rad": 6162,
      "sy": 6163,
      "to": 6164,
      "top": 6165,
      "tinm": 6166,
      "ue": 6167,
      "uhani": 6168,
      "yo": 6169,
      "yen": 6170,
      "yip": 6171,
      "zi": 6172,
      "zam": 6173,
      "ກ່າຍ": 6174,
      "ກວກ": 6175,
      "ກຸງ": 6176,
      "ຂອນ": 6177,
      "ຂີງ": 6178,
      "ຄົ": 6179,
      "ຄໍ": 6180,
      "ງາ": 6181,
      "ງຂ່າວ": 6182,
      "ຈື່": 6183,
      "ຍ່າ": 6184,
      "ດິ": 6185,
      "ດນາມ": 6186,
      "ດິ່ງ": 6187,
      "ດອຍ": 6188,
      "ດ່ຽວ": 6189,
      "ຕ້າ": 6190,
      "ຕົບ": 6191,
      "ຕັ່ງ": 6192,
      "ທາມ": 6193,
      "ທູບ": 6194,
      "ນັງ": 6195,
      "ບຽງ": 6196,
      "ບົ່ວ": 6197,
      "ບີ່": 6198,
      "ບຮູ": 6199,
      "ປ້າ": 6200,
      "ປ່ານ": 6201,
      "ຜິງ": 6202,
      "ຝືນ": 6203,
      "ພົດ": 6204,
      "ພົມ": 6205,
      "ຟຸ": 6206,
      "ວົ": 6207,
      "ສ໌": 6208,
      "ສອກ": 6209,
      "ສວຍ": 6210,
      "ຫດ": 6211,
      "ຫິ": 6212,
      "ອອ": 6213,
      "ອຽງ": 6214,
      "ຮອ": 6215,
      "ຮື້": 6216,
      "າບ": 6217,
      "ິຍົມ": 6218,
      "ເທີ": 6219,
      "ເຫວ": 6220,
      "ແກະ": 6221,
      "ໄບ": 6222,
      "ໍລິ": 6223,
      "​/": 6224,
      "ານເຫ": 6225,
      "ການເລືອກ": 6226,
      "ການຂາດ": 6227,
      "ການຮ້າຍ": 6228,
      "ລະປັກ": 6229,
      "2050": 6230,
      "2026": 6231,
      "ໃນກວ່າ": 6232,
      "ໃນປັດຈຸບັນ": 6233,
      "ໃນວິວັດ": 6234,
      "ໃນຄາວນັ້ນ": 6235,
      "ດ້າງ": 6236,
      "ທີສອງ": 6237,
      "ສະທຳ": 6238,
      "ສະໂມ": 6239,
      "ໄດ້ໄປ": 6240,
      "ໄດ້ເກືອບ": 6241,
      "ໄດ້ຢືນຢັນ": 6242,
      "ໄດ້ຖະແຫຼງ": 6243,
      "ໄດ້ຫລຸດລົງ": 6244,
      "ໄດ້ຢືນຢັນວ່າ": 6245,
      "ໄດ້ປະກົດ": 6246,
      "ໄດ້ເຂົ້າຮ່ວມການ": 6247,
      "ໄດ້ຊ່ວຍໃຫ້": 6248,
      "ໄດ້ນຳມາເຊິ່ງ": 6249,
      "ຫວີງ": 6250,
      "ຂອງຜູ້": 6251,
      "ຂອງທົ່ວ": 6252,
      "ຂອງອີຣານ": 6253,
      "ຂອງສະພາຄວາມໝັ້ນຄົງ": 6254,
      "ຂອງໄຕມາດທີ": 6255,
      "ນາມມະ": 6256,
      "ເທົາ": 6257,
      "ມີ້": 6258,
      "ມີເຖິງ": 6259,
      "ມີອາຍຸ": 6260,
      "ມີບົດບາດ": 6261,
      "ມີລັກສະນະ": 6262,
      "່ວານ": 6263,
      "ທີ່ປະ": 6264,
      "ທີ່ຫວຽດ": 6265,
      "ທີ່ກວ້າງ": 6266,
      "ທີ່ແກ່ຍາວ": 6267,
      "ເລົ່າ": 6268,
      "ເລື່ອນ": 6269,
      "ແມ່ນເຫດການ": 6270,
      "ແມ່ນມໍ": 6271,
      "ແມ່ນຕະຫລາດ": 6272,
      "ແມ່ນນອນ": 6273,
      "ເທດນັ້ນ": 6274,
      "ດາຫນັງ": 6275,
      "ທະນົງ": 6276,
      "ວັນກະຈາຍສຽງ": 6277,
      "ມາເປັນ": 6278,
      "ກັບຈີນ": 6279,
      "ເສບ": 6280,
      "ເສິກ": 6281,
      "​​.": 6282,
      "ລົງໃນ": 6283,
      "ລົງປະຊ": 6284,
      "ລົງລອຍ": 6285,
      "ສາລາ": 6286,
      "ສາຂະ": 6287,
      "ນາວ": 6288,
      "ນາໆ": 6289,
      "ບັນດາບໍລິສັດ": 6290,
      "ບັນດາວິສາຫະກິດ": 6291,
      "ບັນດາສິ່ງທ້າທາຍ": 6292,
      "ຈະເຕີບໂຕ": 6293,
      "ຈະປະກອບສ່ວນ": 6294,
      "ຈະເຮັດໃຫ້": 6295,
      "ຈະລົບລ້າງພາສີ": 6296,
      "ຄວາມຮັກ": 6297,
      "ຄວາມປະທັບໃຈ": 6298,
      "ຄວາມເຄັ່ງຕຶງ": 6299,
      "ລາຄານ": 6300,
      "ດ້ວຍເກືອບ": 6301,
      "ດ້ວຍອັດຕາ": 6302,
      "ດ້ວຍທຶນຈົດທະບຽນ": 6303,
      "ດ້ວຍຕົນເອງ": 6304,
      "ຕື້ໂດ": 6305,
      "ເຂົ້າເໝ": 6306,
      "ເງື່ອ": 6307,
      "ຫລ້າ": 6308,
      "ຕາແມັດ": 6309,
      "ຢ່າງຕັ້ງຫນ້າ": 6310,
      "ທຶນສະ": 6311,
      "ດີງາມ": 6312,
      "ສ້າງສາ": 6313,
      "ເດືອນຂອງປີ": 6314,
      "ປະເທດສະ": 6315,
      "ປະເທດມີ": 6316,
      "ປະເທດອາເມລິກາ": 6317,
      "ປະເທດຕ່າງໆ": 6318,
      "ກະສັດ": 6319,
      "ກະໂດດ": 6320,
      "ກະດ້າງ": 6321,
      "1955": 6322,
      "ບັນລຸຕົວເລກ": 6323,
      "ana": 6324,
      "ank": 6325,
      "ວິສາຂະ": 6326,
      "ຊີກ": 6327,
      "ຜູ້ອໍານ": 6328,
      "ຈາກພະລັງ": 6329,
      "ຈາກທາດພິດສີສົ້ມ": 6330,
      "ເອີນ": 6331,
      "ເອື້ອ": 6332,
      "ເພື່ອປຶກສາຫາລື": 6333,
      "ເຫື່ອ": 6334,
      "ລັດຖະບັນຍັດ": 6335,
      "ຕະນາ": 6336,
      "108": 6337,
      "ຕາມເວລາ": 6338,
      "ຕາມຄາດໝາຍ": 6339,
      "ຕາມຂໍ້ຕົກລົງ": 6340,
      "ຕາມສົນທິສັນຍາ": 6341,
      "ຕາມຕົວເລກ": 6342,
      "ບັດເລືອກຕັ້ງ": 6343,
      "ເວລາມ": 6344,
      "ind": 6345,
      "ins": 6346,
      "ines": 6347,
      "ຕໍ່ປີ": 6348,
      "ຕໍ່ກຳນົດເວລາ": 6349,
      "ລະດັບສະເລ່ຍ": 6350,
      "ທາງດ້ານເສດຖະກິດ": 6351,
      "ສ່ວນຢູ່": 6352,
      "ສ່ວນທ່ານ": 6353,
      "ສ່ວນຕົວ": 6354,
      "ພະນົມ": 6355,
      "ຈຳນວນສິນຄ້າ": 6356,
      "ສັນຍາດ": 6357,
      "ພິວັດ": 6358,
      "ໃຫຍ່ສຸດ": 6359,
      "ພື້ນທີ່": 6360,
      "ຕົ້ນຕໍ່": 6361,
      "ມືຖື": 6362,
      "ຖືກຈັດອັນດັບ": 6363,
      "ສະພາວະ": 6364,
      "ພັກການເມືອງ": 6365,
      "ໂດຍໄວ": 6366,
      "ໂດຍວິທະຍຸກະຈາຍສຽງຫວຽດນາມ": 6367,
      "ຈັດແບ່ງ": 6368,
      "ສິນຄ້ານ": 6369,
      "ວາງໃຈ": 6370,
      "ອັດຕາດ": 6371,
      "ທັງຊາດ": 6372,
      "112": 6373,
      "1100": 6374,
      "125": 6375,
      "126": 6376,
      "ເນີນກອງ": 6377,
      "ແຜນຜັງ": 6378,
      "ປະທານາທິບໍດີຄົນ": 6379,
      "ເອົາເອກະລາດ": 6380,
      "ບານພັບ": 6381,
      "ຕົວຂຶ້ນ": 6382,
      "ຕ້ອງເສຍ": 6383,
      "ບໍລິໂພກ": 6384,
      "ກ່ຽວກັບສະພາບການ": 6385,
      "ຫົວນີ້": 6386,
      "ປະຕິບັດສໍາເລັດ": 6387,
      "enez": 6388,
      "ແດດ": 6389,
      "etsk": 6390,
      "ທ່ີ": 6391,
      "ອະທິ": 6392,
      "ພວມພັດທະນາ": 6393,
      "ຊາວອົບພະຍົບ": 6394,
      "ສະໜິດ": 6395,
      "185": 6396,
      "ເຫຼັກ": 6397,
      "ສະຫະສະມາຄົມ": 6398,
      "ດັ່ງນີ້": 6399,
      "ຈຸດວັດທະນະທຳ": 6400,
      "ຄະນະນັກ": 6401,
      "ເອກອ້າງ": 6402,
      "ແທກ": 6403,
      "ການຄ້າໂລກ": 6404,
      "ໄຕ້": 6405,
      "ໄລ່ມາຮອດ": 6406,
      "ໄລ່ມາຮອດປະຈຸບັນ": 6407,
      "ສົ່ງອອກຂອງຫວຽດນາມ": 6408,
      "ຄູ່ແຂ່ງ": 6409,
      "ລັດຖະບານໄດ້ວາງອອກ": 6410,
      "ສິ່ງທີ່ເປັນໜ້າສົນໃຈ": 6411,
      "ຄືນໃຫມ່": 6412,
      "ແບບຢ່າງ": 6413,
      "ຮອບເຈລະຈາ": 6414,
      "ຫາກວ່າ": 6415,
      "ໄດ້ຮັບການຜັນຂະຫຍາຍ": 6416,
      "ໄດ້ຮັບການຕີລາຄາສູງ": 6417,
      "ຢູແກຼນ": 6418,
      "ອຸດົມ": 6419,
      "ເບຍ": 6420,
      "ພາຍຫຼັງໄລຍະ": 6421,
      "ໄວໜຸ່ມ": 6422,
      "ສະພາບໍລິ": 6423,
      "ສຳຄັນໃນການ": 6424,
      "ສຳຄັນຂອງປະເທດຊາດ": 6425,
      "ທັນທີ": 6426,
      "ທັນສະໄໝ": 6427,
      "ເອກະສັນ": 6428,
      "olina": 6429,
      "ແຈງ": 6430,
      "esh": 6431,
      "ຂາອອກ": 6432,
      "ທະເລປີ": 6433,
      "ວິສາຫະກິດເປັນຫຸ້ນສ່ວນ": 6434,
      "ກຳລັງຫນູນ": 6435,
      "ກົນຈັກ": 6436,
      "ນະຄອນໂຮ່ຈີມິນ": 6437,
      "ແຫນ່": 6438,
      "ກົງຈັກ": 6439,
      "ເຄື່ອງຈັກ": 6440,
      "ຍຸດຕິ": 6441,
      "iss": 6442,
      "ທີ່ສຸດຂອງ": 6443,
      "ide": 6444,
      "235": 6445,
      "ຈັດຕັ້ງກອງປະຊຸມ": 6446,
      "ສະຫຼັກ": 6447,
      "ບັນລຸໄດ້ກວ່າ": 6448,
      "ບັນລຸໄດ້ປະມານ": 6449,
      "ປະກອບສ່ວນສຳຄັນ": 6450,
      "ເລີ່ມແຕ່ວັນທີ": 6451,
      "ສ້າງຕັ້ງໃໝ່": 6452,
      "ເກີດການປະທະກັນ": 6453,
      "ຄາດວ່າບັນລຸກວ່າ": 6454,
      "ຮັກສາການເຕີບໂຕ": 6455,
      "reuters": 6456,
      "ຍິງເຮືອບິນ": 6457,
      "bakh": 6458,
      "ໄໝ້": 6459,
      "otland": 6460,
      "Barnier": 6461,
      "ໄຟໄໝ້": 6462,
      "ໂຮ່ຈີ": 6463,
      "ເປົ້າໝາຍຂອງ": 6464,
      "iri": 6465,
      "ສືບຕໍ່ຮັກສາ": 6466,
      "ໝາກຜົນຂອງ": 6467,
      "354": 6468,
      "ຍ້ອນເຫດນັ້ນ": 6469,
      "ແນວໃດ": 6470,
      "ກວານເຫ": 6471,
      "ເໝືອນ": 6472,
      "ໂຮງແຮມ": 6473,
      "ກ່ຽວກັບການຮັບມືກັບ": 6474,
      "ulz": 6475,
      "ຜິດພາດ": 6476,
      "ພາຍຫລັງການພົບປະ": 6477,
      "ສົນທິສັນຍາເລກທີ": 6478,
      "ແຕ່ວ່າ": 6479,
      "ເງິນລົງທຶນຕ່າງປະເທດ": 6480,
      "ຈິ້ນ": 6481,
      "ury": 6482,
      "ບົດບາດຂອງ": 6483,
      "ຜະລິດຕະພັນໄມ້": 6484,
      "ທ່ອງທ່ຽວຫວຽດນາມ": 6485,
      "osh": 6486,
      "ຫາຍສາບ": 6487,
      "ຍຸດທະສາດພັດທະນາ": 6488,
      "ລຳບາກ": 6489,
      "ຮັບປະກັນຊີວິດ": 6490,
      "ການລົງທຶນເຂົ້າ": 6491,
      "ປູກໂສມ": 6492,
      "ຫຼັກຊັບ": 6493,
      "ດຶງດູດທຶນ": 6494,
      "ມະນຸດສະທຳ": 6495,
      "ໜ້າທີ່ພັດທະນາເສດຖະກິດ": 6496,
      "ລາຍການສະແດງສິລະປະ": 6497,
      "ກວ້າງຂວາງ": 6498,
      "ປັກຫຼັກໝາຍ": 6499,
      "ວົງເງິນສົ່ງອອກຂອງຫວຽດນາມ": 6500,
      "ວ່າດ້ວຍການ": 6501,
      "ທັງໝົດແມ່ນ": 6502,
      "Rouhani": 6503,
      "ກູ້ຢືມ": 6504,
      "ລົດໂອ": 6505,
      "1966": 6506,
      "ບັນດາກົນໄກ": 6507,
      "dech": 6508,
      "ໄລ່ຮອດທ້າຍເດືອນ": 6509,
      "ພົ້ນເດັ່ນພາຍໃນປະເທດ": 6510,
      "ຜູ້ນ": 6511,
      "ປະຊາຄົມສາກົນ": 6512,
      "Cochin": 6513,
      "May": 6514,
      "ຍອດຈຳນວນທຶນຈົດທະບຽນ": 6515,
      "ຈົນຮອດປີ": 6516,
      "ລື່ນກາຍລະດັບ": 6517,
      "ໄດ້ສ້າງຂີດໝາຍ": 6518,
      "ສະຫະພາບເອີລົບ": 6519,
      "ກະກຽມວັດຖຸດິບ": 6520,
      "ໂຕ້ວາທີ": 6521,
      "777": 6522,
      "ຂັບຮ້ອງ": 6523,
      "ສົມທົບກັນ": 6524,
      "ໝູນວຽນ": 6525,
      "ແຜ່ລະບາດ": 6526,
      "ພວກຂ້າພະເຈົ້າຈະ": 6527,
      "ຕາແສງມີ": 6528,
      "ເຄັ່ງຮ້ອນ": 6529,
      "vietnampl": 6530,
      "ອະນາຄົດຂອງ": 6531,
      "ວາງສະແດງຢູ່": 6532,
      "Carolina": 6533,
      "ດ້ວຍການເຂົ້າຮ່ວມຂອງ": 6534,
      "ລັດຖະມົນຕີກະຊວງການຕ່າງປະເທດ": 6535,
      "Intern": 6536,
      "Samdech": 6537,
      "ປາດຖະໜາ": 6538,
      "ຂ້ໍ": 6539,
      "ຈູລາຍ": 6540,
      "ກະສິກໍາ": 6541,
      "ວິຊາການ": 6542,
      "ປິດປະຕູ": 6543,
      "baodientu": 6544,
      "ບີງເຢືອງ": 6545,
      "News": 6546,
      "ໄດ້ປະຕິບັດສຳເລັດ": 6547,
      "ເບິ່ງຄືວ່າ": 6548,
      "Mozam": 6549,
      "Pracel": 6550,
      "ຄຳສັ່ງລົງໂທດ": 6551,
      "bique": 6552,
      "ສົກຮຽນ": 6553,
      "ກິໂລກຼາມ": 6554,
      "ປ່ອນບັດເລືອກຕັ້ງ": 6555,
      "Schulz": 6556,
      "ຄ່ຳວັນທີ": 6557,
      "ເວັບໄຊ": 6558,
      "ລະດູບານໃໝ່": 6559,
      "ລະດູບານໃຫມ່": 6560,
      "iforn": 6561,
      "ຮັ່ງມີ": 6562,
      "orno": 6563,
      "ແຖວໜ້າໂລກ": 6564,
      "Micros": 6565,
      "ວາດພາບ": 6566,
      "ນັກທຸລະກິດໜຸ່ມ": 6567,
      "ຕິດພັນກັບການ": 6568,
      "ຕິດຕາມກວດກາ": 6569,
      "ໂທລະສັບມືຖື": 6570,
      "Brun": 6571,
      "ທີ່ມີຄວາມໝາຍ": 6572,
      "ສະກັດກັ້ນໂລກລະບາດໂຄວິດ": 6573,
      "ຮ່າງກົດໝາຍສະບັບ": 6574,
      "ເສີມຂະຫຍາຍບົດບາດ": 6575,
      "ອະນຸລັກຮັກສາ": 6576,
      "Roberts": 6577,
      "Scotland": 6578,
      "ການແລກປ່ຽນການຄ້າ": 6579,
      "ເປັນກຳມະການບໍ່ປະຈຳການສະພາຄວາມໝັ້ນຄົງສະຫະປະຊາຊາດອາຍຸການ": 6580,
      "~~~~~~~~": 6581,
      "inmeier": 6582,
      "ເຈລະຈາກ່ຽວກັບ": 6583,
      "Andre": 6584,
      "ບີ່ງເຢືອງ": 6585,
      "ບັນດາອົງການຈັດຕັ້ງສາກົນ": 6586,
      "GMT": 6587,
      "ໃນຕະຫຼອດໄລຍະ": 6588,
      "ອົງການກວດສອບແຫ່ງລັດຫວຽດນາມ": 6589,
      "ໃນການເລືອກຕັ້ງປະທານາທິບໍດີ": 6590,
      "Motor": 6591,
      "Quang": 6592,
      "ຢືນຢູ່ອັນດັບທີ": 6593,
      "ational": 6594,
      "Donetsk": 6595,
      "Nikk": 6596,
      "ເສນາຮັກ": 6597,
      "ພາຍໃຕ້ການ": 6598,
      "ປົດປ່ອຍພາກໃຕ້": 6599,
      "ຫໍພິພິທະພັນບູຮານຄະດີ": 6600,
      "Gazprom": 6601,
      "ລອນດອນ": 6602,
      "ນັບແຕ່ນີ້ຮອດປີ": 6603,
      "ເຫດການສາກົນທີ່ພົ້ນເດັ່ນໃນປີ": 6604,
      "Steinmeier": 6605,
      "ເຄືອຂ່າຍອິນເຕີແນັດ": 6606,
      "ທີ່ວາລະໄຂ": 6607,
      "Californ": 6608,
      "FEST": 6609,
      "ປໍລະປັກ": 6610,
      "ໜິ້ສິນ": 6611,
      "ເປັນໄປໄດ້": 6612,
      "ນັກສິລະປະການ": 6613,
      "ນັກປະພັນວັນນະຄະດີ": 6614,
      "ບົດບັນທຶກສົງຄາມ": 6615,
      "ກ່ຽວກັບການປ່ຽນແປງຂອງດິນຟ້າອາກາດຄັ້ງທີ": 6616,
      "ບັນດາກຸ່ມບໍລິສັດ": 6617,
      "Charl": 6618,
      "ອາບການິດສະຖານ": 6619,
      "ໄດ້ສົມທົບກັນຈັດຕັ້ງ": 6620,
      "Fernand": 6621,
      "OECD": 6622,
      "ຕ໋ວນ": 6623,
      "ງານມະຫາກຳ": 6624,
      "Erdogan": 6625,
      "Financial": 6626,
      "ທ້ວນ": 6627,
      "ໃນສື່ສັງຄົມອອນລາຍ": 6628,
      "ອີກຄັ້ງໜຶ່ງ": 6629,
      "ສະຫນາມບິນ": 6630,
      "phapluat": 6631,
      "Books": 6632,
      "Daniel": 6633,
      "Elect": 6634,
      "Karabakh": 6635,
      "Nagorno": 6636,
      "Ohio": 6637,
      "Tayyip": 6638,
      "Vatican": 6639,
      "dantri": 6640,
      "tinmoi": 6641,
      "ເຫວ້": 6642,
      "ສະໂມສອນ": 6643,
      "ນາມມະຍົດ": 6644,
      "ທະນົງໃຈ": 6645,
      "ວັນກະຈາຍສຽງໂລກ": 6646,
      "ລົງປະຊາມະຕິ": 6647,
      "ລົງລອຍກັນ": 6648,
      "ກະໂດດຂັ້ນ": 6649,
      "ວິສາຂະບູຊາ": 6650,
      "ຜູ້ອໍານວຍການ": 6651,
      "ເອກອ້າງທະນົງໃຈ": 6652,
      "ສະພາບໍລິຫານ": 6653,
      "ກວານເຫາະ": 6654,
      "ຫາຍສາບສູນ": 6655,
      "ພົ້ນເດັ່ນພາຍໃນປະເທດປີ": 6656,
      "vietnamplus": 6657,
      "Mozambique": 6658,
      "California": 6659,
      ")…": 6660,
      "210": 6661,
      "290": 6662,
      "380": 6663,
      "375": 6664,
      "440": 6665,
      "540": 6666,
      ":.": 6667,
      "Au": 6668,
      "Aba": 6669,
      "Bol": 6670,
      "Bra": 6671,
      "Cup": 6672,
      "Dinh": 6673,
      "Et": 6674,
      "Ex": 6675,
      "Eid": 6676,
      "Eng": 6677,
      "Fo": 6678,
      "Games": 6679,
      "Har": 6680,
      "Hen": 6681,
      "Hun": 6682,
      "HDI": 6683,
      "Huy": 6684,
      "Ki": 6685,
      "Kre": 6686,
      "Krist": 6687,
      "Klong": 6688,
      "Kwang": 6689,
      "Lot": 6690,
      "Mi": 6691,
      "Mat": 6692,
      "Mun": 6693,
      "Mid": 6694,
      "Mekong": 6695,
      "NP": 6696,
      "RF": 6697,
      "Rad": 6698,
      "Sil": 6699,
      "SCO": 6700,
      "Sha": 6701,
      "Sum": 6702,
      "SEA": 6703,
      "TH": 6704,
      "TM": 6705,
      "TS": 6706,
      "TEC": 6707,
      "Tur": 6708,
      "UI": 6709,
      "UTC": 6710,
      "Uyen": 6711,
      "VS": 6712,
      "VV": 6713,
      "Vol": 6714,
      "Vog": 6715,
      "Ving": 6716,
      "West": 6717,
      "ater": 6718,
      "aigon": 6719,
      "bo": 6720,
      "cm": 6721,
      "car": 6722,
      "cel": 6723,
      "dong": 6724,
      "distan": 6725,
      "fi": 6726,
      "fl": 6727,
      "ft": 6728,
      "gi": 6729,
      "iz": 6730,
      "ktd": 6731,
      "mart": 6732,
      "pr": 6733,
      "pol": 6734,
      "ren": 6735,
      "ris": 6736,
      "song": 6737,
      "saigon": 6738,
      "tr": 6739,
      "ty": 6740,
      "ten": 6741,
      "tuyen": 6742,
      "via": 6743,
      "ved": 6744,
      "vez": 6745,
      "wood": 6746,
      "yle": 6747,
      "ກັກ": 6748,
      "ຂີ": 6749,
      "ຂ່": 6750,
      "ຂອດ": 6751,
      "ງັບ": 6752,
      "ຈ່າງ": 6753,
      "ຈ້າວ": 6754,
      "ຊຊ": 6755,
      "ຊອ": 6756,
      "ຊິ້ນ": 6757,
      "ຍຸກ": 6758,
      "ດຸ": 6759,
      "ດາກ": 6760,
      "ດັ້ງ": 6761,
      "ດໝາຍ": 6762,
      "ດຸ້ງ": 6763,
      "ດືກ": 6764,
      "ຕອງ": 6765,
      "ຕວັນ": 6766,
      "ຕ່າວ": 6767,
      "ຕົ້": 6768,
      "ຖູ": 6769,
      "ຖອຍ": 6770,
      "ຖີບ": 6771,
      "ທຽ": 6772,
      "ນຸກ": 6773,
      "ນໍ້າ": 6774,
      "ບ່າ": 6775,
      "ບອກ": 6776,
      "ບສູງ": 6777,
      "ປຊຊ": 6778,
      "ພັ": 6779,
      "ພົ": 6780,
      "ພືດ": 6781,
      "ຟານ": 6782,
      "ຟີກ": 6783,
      "ຟຸ່ນ": 6784,
      "ມ2": 6785,
      "ມມີ": 6786,
      "ມົວ": 6787,
      "ຢານ": 6788,
      "ຢ້ານ": 6789,
      "ຢ່ອນ": 6790,
      "ວາຍ": 6791,
      "ວອກ": 6792,
      "ສ້": 6793,
      "ສາງ": 6794,
      "ອິງ": 6795,
      "ອວຍ": 6796,
      "ຮົງ": 6797,
      "ຮົ່ງ": 6798,
      "ຮຸ່ນ": 6799,
      "ັລ": 6800,
      "ື່ງ": 6801,
      "ແຝ": 6802,
      "ໂງ": 6803,
      "ໂຖ": 6804,
      "ໂຫລ": 6805,
      "ໃໝ": 6806,
      "ໄຮ": 6807,
      "ໄຮ່": 6808,
      "ໄຝ່": 6809,
      "ໜິຕິ": 6810,
      "ໝາດ": 6811,
      "​&": 6812,
      "…..": 6813,
      "ປະການ": 6814,
      "ປະເຊີນ": 6815,
      "ປະມວນ": 6816,
      "ການທີ": 6817,
      "ການທີ່": 6818,
      "ການອອກ": 6819,
      "ການຢັ້ງ": 6820,
      "ການເກັບ": 6821,
      "ການນໍາ": 6822,
      "ການຟື້ນຟູ": 6823,
      "ການບຸກໂຈມຕີ": 6824,
      "ການໂອ້ລົມ": 6825,
      "ລະຫຼິ້ນ": 6826,
      "າມາ": 6827,
      "2023": 6828,
      "ໃນບັນ": 6829,
      "ໃນງານ": 6830,
      "ໃນຖານະ": 6831,
      "ໃນສະຕະວັດທີ": 6832,
      "ທີປາ": 6833,
      "ທີີ່": 6834,
      "ປີມະ": 6835,
      "ປີມໍ່ໆ": 6836,
      "ປີຂຶ້ນໄປ": 6837,
      "ປີຢ່າງລຽນຕິດ": 6838,
      "ສະຕີ": 6839,
      "ສະຕິນ": 6840,
      "ບັນທຸກ": 6841,
      "ໄດ້ວ່າ": 6842,
      "ໄດ້ຜ່ານ": 6843,
      "ໄດ້ຍົກ": 6844,
      "ໄດ້ເຕີບໂຕ": 6845,
      "ໄດ້ເລືອກຕັ້ງ": 6846,
      "ໄດ້ເລີ່ມ": 6847,
      "ໄດ້ຈົດທະບຽນ": 6848,
      "ໄດ້ຂຶ້ນເຖິງ": 6849,
      "ໄດ້ຫຼຸດລົງ": 6850,
      "ໄດ້ເປັນຂີດໝາຍ": 6851,
      "ໄດ້ຄາດຄະເນວ່າ": 6852,
      "ໄດ້ເວົ້າວ່າ": 6853,
      "ໄດ້ເຕື້ອງເຖິງ": 6854,
      "ໄດ້ລົງຄະແນນ": 6855,
      "ຫວໍ": 6856,
      "ຂອງສານ": 6857,
      "ຂອງແຕ່ລະ": 6858,
      "ຂອງສົນທິສັນຍາ": 6859,
      "ຂອງຍີ່ປຸ່ນ": 6860,
      "ຂອງເວທີປາໄສ": 6861,
      "ຂອງໂຮງຮຽນ": 6862,
      "ຂອງກຸ່ມບໍລິສັດ": 6863,
      "ຂອງສະພາຄວາມໝັ້ນຄົງສະຫະປະຊາຊາດ": 6864,
      "ຂອງກະຊວງແຜນການ": 6865,
      "ແລະກໍ່": 6866,
      "ພາຫະນະ": 6867,
      "ເທືອ": 6868,
      "ເທ່ືອ": 6869,
      "ມີສັນຍາ": 6870,
      "ມີສັນຍານ": 6871,
      "ມີຜູ້ແທນ": 6872,
      "ມີຫຼານ": 6873,
      "ວ່າແມ່ນ": 6874,
      "ທີ່ປະຕິບັດ": 6875,
      "ທີ່ປະກາດ": 6876,
      "ທີ່ສະຫງວນ": 6877,
      "ທີ່ແຕກຕ່າງກັນ": 6878,
      "ທີ່ຫຍໍ້": 6879,
      "ແມງ": 6880,
      "ແມ່ນການ": 6881,
      "ແມ່ນວັນ": 6882,
      "ແມ່ນຊາວ": 6883,
      "ແມ່ນສັນຍາ": 6884,
      "ແມ່ນຍ້ອນ": 6885,
      "ແມ່ນຈຸດເວລາ": 6886,
      "ແມ່ນໜຶ່ງໃນບັນດາ": 6887,
      "ຖະຫນາ": 6888,
      "ເພື": 6889,
      "ເພິ່ນ": 6890,
      "ເຂົ": 6891,
      "ເຂັ່ນ": 6892,
      "ເຂົ້າມ": 6893,
      "ຫຼົ": 6894,
      "ຫຼົບ": 6895,
      "ເປືອງ": 6896,
      "ຢູ່ຫວຽດ": 6897,
      "ຢູ່ເມືອງ": 6898,
      "ຢູ່ເອີລົບ": 6899,
      "ຢູ່ມະຫາວິທະຍາໄລ": 6900,
      "ຢູ່ທີ່ນີ້": 6901,
      "ເສກ": 6902,
      "ອາແຊກ": 6903,
      "ລັດທິ": 6904,
      "ົດໝາຍ": 6905,
      "ໃຫ້ຊາບ": 6906,
      "ເປັນປະ": 6907,
      "ເປັນຜູ້": 6908,
      "ເປັນໜ້າ": 6909,
      "ເປັນກຳມະການ": 6910,
      "ເປັນກຳລັງໜູນ": 6911,
      "ເປັນກໍາມະການບໍ່ປະຈໍາການສະພາຄວາມໝັ້ນຄົງ": 6912,
      "ກ່ອມ": 6913,
      "ພາບລະຫວ່າງ": 6914,
      "ຕີງ": 6915,
      "ແຕ່ມາ": 6916,
      "ແຕ່ດົນ": 6917,
      "ແຕ່ເຖິງຢ່າງໃດກໍ່ຕາມ": 6918,
      "ລິກ": 6919,
      "ລິງ": 6920,
      "ຂຶ້ນກ່ວາ": 6921,
      "ອອກສະ": 6922,
      "ອອກຂອງ": 6923,
      "ອອກອາກາດ": 6924,
      "ບັນດາຜູ້": 6925,
      "ບັນດາເຂດ": 6926,
      "ບັນດາບົດ": 6927,
      "ບັນດາຂໍ້ຕົກລົງ": 6928,
      "ບັນດາຂີດໝາຍ": 6929,
      "ບັນດາການເຈລະຈາ": 6930,
      "ບັນດາຜົນງານ": 6931,
      "ບັນດາຜູ້ແທນ": 6932,
      "ຈະດຳ": 6933,
      "ຄວາມຫວັງ": 6934,
      "ຄວາມສະດວກ": 6935,
      "ຄວາມຕ້ອງການ": 6936,
      "ຄວາມສະຫງົບ": 6937,
      "ຄວາມປອດໄພ": 6938,
      "ຄົນໃນ": 6939,
      "ຄົນເຈັບ": 6940,
      "ຕັ້ງຖິ່ນ": 6941,
      "ຕັ້ງແຕ່ປີ": 6942,
      "ເສດຖະ": 6943,
      "ເສດຖີ": 6944,
      "ດ້ວຍຄາດໝາຍ": 6945,
      "ດ້ວຍພົນລະເມືອງ": 6946,
      "ທິກ": 6947,
      "ເມື່ອທ່ານ": 6948,
      "ເຊິ": 6949,
      "ຕາຫນ": 6950,
      "ຕາລິດ": 6951,
      "ຢ່າງໝັ້ນຄົງ": 6952,
      "ຢ່າງຄົບ": 6953,
      "ຢ່າງລະອຽດ": 6954,
      "ຢ່າງສຳເລັດຜົນ": 6955,
      "ຢ່າງໜັກໜ່ວງ": 6956,
      "ຢ່າງໃຫຍ່ຫລວງ": 6957,
      "ດັບເຕີບ": 6958,
      "ທຶນກວ່າ": 6959,
      "ທຶນຊ່ວຍເຫຼືອ": 6960,
      "ດີງ": 6961,
      "ກາຕາ": 6962,
      "ສ້າງຂຶ້ນ": 6963,
      "ສ້າງກຳລັງໜູນໃໝ່": 6964,
      "ງານກວ່າ": 6965,
      "ຊາດກ່ຽວ": 6966,
      "ປະເທດຈະ": 6967,
      "ປະເທດນີ້": 6968,
      "ປະເທດມະຫາອຳນາດ": 6969,
      "ສຳຜັດ": 6970,
      "ກະວີ": 6971,
      "190": 6972,
      "195": 6973,
      "1911": 6974,
      "1948": 6975,
      "1953": 6976,
      "anta": 6977,
      "ວິ້ງ": 6978,
      "ຊີໂກ": 6979,
      "ເຖົ້າ": 6980,
      "ເຖິງກອງ": 6981,
      "ເຖິງວັນທີ": 6982,
      "ໂຕຣ": 6983,
      "ຈາກລັດຖະບານ": 6984,
      "ເຈີ່ນ": 6985,
      "ເພື່ອພັດທະນາ": 6986,
      "ເພື່ອໜູນຊ່ວຍ": 6987,
      "ເພື່ອປະຕິບັດສຳເລັດ": 6988,
      "ເຂດໄຕ": 6989,
      "ເຫັ": 6990,
      "ທານປະ": 6991,
      "ຄືດັ່ງກ່າວ": 6992,
      "ຄືແຕ່ປີ": 6993,
      "ຄືໃນປະຈຸບັນ": 6994,
      "ນຳຫນ້າ": 6995,
      "ຂະບວນປະ": 6996,
      "ຕາມຕາຕະລາງຈັດອັນດັບ": 6997,
      "ລ້ານແຫ່ງ": 6998,
      "ລ້ານເຮັກຕາ": 6999,
      "ona": 7000,
      "online": 7001,
      "ສົ່ງເສີມ": 7002,
      "iner": 7003,
      "ປະທານສະພາແຫ່ງຊາດຫວຽດນາມ": 7004,
      "ຕໍ່ຕ້ານ": 7005,
      "ເຄີ": 7006,
      "ເຄັມ": 7007,
      "ຍອດທຶນຈົດທະບຽນ": 7008,
      "ທາງອອກ": 7009,
      "ນັກໄຈ້ແຍກ": 7010,
      "ນັກວິຊາການ": 7011,
      "ກໍ່ຕ້ອງ": 7012,
      "ສ່ວນຜູ້": 7013,
      "ຈຳນວນຜູ້ຕິດເຊື້ອ": 7014,
      "ເລືອ": 7015,
      "ສັນທະ": 7016,
      "ໜ້າຄະ": 7017,
      "ໄປປະຕິບັດງານຢູ່": 7018,
      "ພິການ": 7019,
      "ພິບັດ": 7020,
      "ມືດ": 7021,
      "ຖືກຍົກອອກມາ": 7022,
      "ໂດຍລະ": 7023,
      "ໂດຍສານ": 7024,
      "ໂດຍພື້ນຖານ": 7025,
      "ໂດຍສະເພາະ": 7026,
      "ໂດຍສະຖາບັນ": 7027,
      "ເນຍ": 7028,
      "ເນລະ": 7029,
      "ars": 7030,
      "alina": 7031,
      "allah": 7032,
      "ບົດຂຽນ": 7033,
      "ສັງກາດ": 7034,
      "ວົງຄະນະ": 7035,
      "ວົງຫງວຽນ": 7036,
      "ທັງສອງ": 7037,
      "ທັງເປັນປະທານ": 7038,
      "117": 7039,
      "ແຜນນະໂຍບາຍ": 7040,
      "ເຫັນວ່າ": 7041,
      "ປະທານາທິບໍດີອີຣານ": 7042,
      "ຫຼາຍທ່ານ": 7043,
      "ຫຼາຍກ່ວາ": 7044,
      "ຫຼາຍທົບ": 7045,
      "ຕ້ອງມີຄວາມ": 7046,
      "ພັດທະນາຂອງ": 7047,
      "ກາຍນີ້": 7048,
      "ຝ່າຍໄດ້": 7049,
      "ຝ່າຍກັບ": 7050,
      "ຄຳຕອບ": 7051,
      "ຄຳຖາມ": 7052,
      "ກ່ຽວກັບຄວາມ": 7053,
      "ກ່ຽວກັບຈຳນວນ": 7054,
      "ກ່ຽວກັບດ້ານ": 7055,
      "ກ່ຽວກັບບັນຫາທະເລຕາເວັນອອກ": 7056,
      "ໂຄງການເປົ້າໝາຍ": 7057,
      "ໄດ້ຮັບເງິນ": 7058,
      "ໄດ້ຮັບຂອງຂວັນ": 7059,
      "ທ່ອ": 7060,
      "ຊະວັງ": 7061,
      "ກ່ອນມາຮອດປະຈຸບັນ": 7062,
      "ລີ້": 7063,
      "ເຕີບໂຕສູງ": 7064,
      "ກອງປະຊຸມຂັ້ນສູງ": 7065,
      "ເຊິ່ງຫວຽດນາມ": 7066,
      "ເຊິ່ງກັນ": 7067,
      "ເຊິ່ງສະພາແຫ່ງຊາດ": 7068,
      "ກ່າວວ່າ": 7069,
      "ກ່າວປາໄສ": 7070,
      "ລະຫວ່າງປະທານາທິບໍດີ": 7071,
      "ລັງສີ": 7072,
      "ພວມຜັນຂະຫຍາຍ": 7073,
      "ເຊຍຣາ": 7074,
      "ນາຍທະຫານ": 7075,
      "ຊາວກະສິກອນ": 7076,
      "ນ້ຳຖ້ວມ": 7077,
      "ແກັສ": 7078,
      "ແກ່ວິ": 7079,
      "ຂັ້ນເມື່ອທຽບໃສ່ປີ": 7080,
      "ເຄື່ອນຍ້າຍ": 7081,
      "182": 7082,
      "186": 7083,
      "1802": 7084,
      "1897": 7085,
      "ເຫຼົ້າ": 7086,
      "ເຫຼືອງ": 7087,
      "ດັ່ງກ່າ": 7088,
      "ໝັ້ນທ່ຽງ": 7089,
      "ໝາກມ່ວງ": 7090,
      "ຢ້ຳ": 7091,
      "ພື້ນຖານຂອງ": 7092,
      "149": 7093,
      "ເຫດກໍ່": 7094,
      "ຄະນະຜູ້ແທນ": 7095,
      "Trude": 7096,
      "ນາຍົກລັ": 7097,
      "ichi": 7098,
      "ແຜນການເຄື່ອນໄຫວ": 7099,
      "ແຜນການວາງອອກ": 7100,
      "ຕຳແຜ່ນຕັດຫຍິບ": 7101,
      "ສົ່ງອອກໄມ້": 7102,
      "ຄູ່ຮ່ວມ": 7103,
      "adan": 7104,
      "ໂຮນ": 7105,
      "ໃນການພັດທະນາເສດຖະກິດ": 7106,
      "ໃນການປ້ອງກັນ": 7107,
      "ຫນ້າທີ່": 7108,
      "ພວກເຮ": 7109,
      "ສິ່ງພິມ": 7110,
      "ສຽງຂອງ": 7111,
      "ໄດ້ຮັບການຈັດຕັ້ງ": 7112,
      "ໄດ້ຮັບການຮັບຮອງ": 7113,
      "itz": 7114,
      "ທົບທວນຄືນ": 7115,
      "ass": 7116,
      "ຕິດຕັ້ງ": 7117,
      "ຕິດຕໍ່": 7118,
      "ຕິດເຊື້ອ": 7119,
      "ເບ໋ນ": 7120,
      "ເບລາຣຸດ": 7121,
      "ພາຍຫຼັງການ": 7122,
      "ເຂົ້າຮ່ວມການເລືອກຕັ້ງ": 7123,
      "ຕ່ຳແຜ່ນ": 7124,
      "161": 7125,
      "162": 7126,
      "ແລ້ງ": 7127,
      "ongsong": 7128,
      "ເອກະພາບ": 7129,
      "ໝົດປີ": 7130,
      "ໍາເຂົ້າຈາກ": 7131,
      "ດຳເນີນໄປ": 7132,
      "ຂາເຂົ້າ": 7133,
      "ຮ່າງຂໍ້ຕົກລົງ": 7134,
      "ວົງເງິນຂາອອກ": 7135,
      "ສະບັບເລກທີ": 7136,
      "ວິສາຫະກິດຫວຽດນາມ": 7137,
      "ກົນອຸບາຍ": 7138,
      "ຄິດວ່າ": 7139,
      "ໄພທຳມະຊາດ": 7140,
      "ນະຄອນຫລວງ": 7141,
      "iles": 7142,
      "andr": 7143,
      "unu": 7144,
      "ຫັນການພົວພັນ": 7145,
      "ຫັນລັດວິສາຫະກິດ": 7146,
      "ປະກາດເມື່ອວັນທີ": 7147,
      "ເປີດກ້ວາງ": 7148,
      "ກົງກັບ": 7149,
      "ກະຊວງວັດທະນະທຳ": 7150,
      "ກະຊວງການຕ່າງປະເທດ": 7151,
      "ກະຊວງການເງິນ": 7152,
      "ເຄື່ອງຕຳແຜ່ນຕັດຫຍິບ": 7153,
      "ໝູ່ໃນໂລກ": 7154,
      "ທີ່ມີຊື່ສຽງ": 7155,
      "ການພົວພັນດ້ານການຄ້າ": 7156,
      "ອຳນວຍ": 7157,
      "236": 7158,
      "ວີຊາ": 7159,
      "ຕອນນີ້": 7160,
      "ເລີ່ມມີຜົນສັກສິດ": 7161,
      "ສ້າງຕັ້ງລັດຖະບານ": 7162,
      "262": 7163,
      "ເກີດໂລກລະບາດ": 7164,
      "ເກີດໂລກລະບາດໂຄວິດ": 7165,
      "ຄອບຄົວຂອງ": 7166,
      "rey": 7167,
      "ໃຫ້ແກ່ປະຊາຊົນ": 7168,
      "ໃຫ້ແກ່ເດັກ": 7169,
      "ແມ່ຂອງ": 7170,
      "ຣານຽມ": 7171,
      "ota": 7172,
      "ຍີ່ປຸ່ນ": 7173,
      "ທ່າໄດ້": 7174,
      "ທ່າກ່ຳປັ່ນ": 7175,
      "ນອກແວ": 7176,
      "ສັບພະ": 7177,
      "ມູນຄ່າສົ່ງອອກ": 7178,
      "ມູນຄ່າການຄ້າທົ່ວໂລກ": 7179,
      "ແຈ້ງໃຫ້ຊາບ": 7180,
      "ພື້ນຖານເສດຖະກິດສະມາຊິກ": 7181,
      "ພິມຈຳໜ່າຍ": 7182,
      "ສືບຕໍ່ທ່າ": 7183,
      "ຍ້ອນໂລກລະບາດ": 7184,
      "ສະຖານະ": 7185,
      "ບັນຫາພົ້ນເດັ່ນພາຍໃນປະເທດປີ": 7186,
      "ມີຄວາມສາມາດ": 7187,
      "ມີຄວາມສົນໃຈ": 7188,
      "ພິເສດຂອງ": 7189,
      "ອາກເມ": 7190,
      "ສອນວິຊາຊີບ": 7191,
      "ໂອຕາລິດ": 7192,
      "ທົ່ວໂລກຂອງ": 7193,
      "ບຸນເຕັດ": 7194,
      "ພາກພື້ນຕາເວັນອອກກາງ": 7195,
      "ຊື່ງແມ່ນ": 7196,
      "akia": 7197,
      "ເສັ້ນຊາຍ": 7198,
      "ແຫລມ": 7199,
      "ເວທີສະແດງ": 7200,
      "ຕໍ່ນ": 7201,
      "ເດີນກາ": 7202,
      "ຫນູນຊ່ວຍ": 7203,
      "ຕອບສຳພາດ": 7204,
      "ເວົ້າເຖິງ": 7205,
      "ເວົ້າສະເພາະ": 7206,
      "ມໍຣະ": 7207,
      "oshi": 7208,
      "ຫາຍຟ່ອງ": 7209,
      "uyent": 7210,
      "ຊັບສິນ": 7211,
      "ຊັບຊ້ອນ": 7212,
      "ຕຶ້ດົ່ງ": 7213,
      "ພິທີເປີດ": 7214,
      "ປະລິຍາເອກ": 7215,
      "ມັງກອນຜ່ານມາ": 7216,
      "ສະເລ່ຍໃນ": 7217,
      "ເສີມທາດ": 7218,
      "ແຫຼ່ງຂ່າວ": 7219,
      "ແຫຼ່ງລາຍຮັບ": 7220,
      "ການຮ່ວມມືລະຫວ່າງ": 7221,
      "ດັດຊະນີລາຄາ": 7222,
      "ໃນເດືອນກັນຍາ": 7223,
      "ປະລິມານຂຸດຄົ້ນ": 7224,
      "VietG": 7225,
      "ກອງປະຊຸມສຸດຍອດສະຫະປະຊາຊາດ": 7226,
      "ດຶງດູດການລົງທຶນ": 7227,
      "Francis": 7228,
      "ລາຍງານວ່າ": 7229,
      "hiop": 7230,
      "ຖະແຫຼງຂ່າວ": 7231,
      "lav": 7232,
      "ພຶດສະພາປີ": 7233,
      "ຂ້າພະເຈົ້າໄດ້": 7234,
      "ຖຸນາປີ": 7235,
      "ບູລະນະ": 7236,
      "ເອກະສານນິຕິກຳ": 7237,
      "ສິງຫາປີ": 7238,
      "ຫ້ອງຮຽນ": 7239,
      "ທະນາຄານໂລກ": 7240,
      "ຊື້ຫຸ້ນຂອງ": 7241,
      "1961": 7242,
      "ປ້ອງກັນຊາດ": 7243,
      "ພະຈິກປີ": 7244,
      "phong": 7245,
      "phunu": 7246,
      "ຕາມການຄາດຄະເນ": 7247,
      "ແຂງກະດ້າງ": 7248,
      "ສະເພາະແຕ່": 7249,
      "ສິລະປິນ": 7250,
      "ລະດູໜາວ": 7251,
      "ແກ້ໄຂຄວາມຫຍຸ້ງຍາກ": 7252,
      "ໂຊກ": 7253,
      "Comp": 7254,
      "ຍິ່ງໃຫຍ່": 7255,
      "ຜົນສຳເລັດຂອງປີ": 7256,
      "ລະດັບການເຕີບໂຕເສດຖະກິດ": 7257,
      "ອະນາໄມ": 7258,
      "ກອງປະຊຸມໃຫຍ່ອົງຄະນະພັກ": 7259,
      "ລື່ນກາຍແຜນການ": 7260,
      "ປະເທດສະມາຊິກຂອງ": 7261,
      "ພ້ອມກັນເພີ່ມພູນຄູນສ້າງ": 7262,
      "ໃນຊຸມວັນ": 7263,
      "ໂຄງການລົງທຶນຢູ່": 7264,
      "ບູນກາຣີ": 7265,
      "eva": 7266,
      "ews": 7267,
      "Pham": 7268,
      "ຫໍສະໝຸດ": 7269,
      "ເກົ່າເຫ້ວ": 7270,
      "ແພດ": 7271,
      "ນະໂຍບາຍເສດຖະກິດ": 7272,
      "ບັນດານະໂຍບາຍ": 7273,
      "ວຽກງານບຸກຄະລາກອນ": 7274,
      "ສິ່ງທ້າທາຍຫລາຍຢ່າງ": 7275,
      "ຜູ້ນຳໃຊ້": 7276,
      "ອະນາຄົດລວມ": 7277,
      "tainer": 7278,
      "ຖັດມາ": 7279,
      "ຜູ້ອຳນວຍການໃຫຍ່": 7280,
      "ຄະນະກຳມະການເອີລົບ": 7281,
      "ກິລາຫວຽດນາມ": 7282,
      "Carl": 7283,
      "ຍົກສູງຂຶ້ນ": 7284,
      "ບ່ອນອີງ": 7285,
      "ນຳ້ຂອງ": 7286,
      "ເຕັກໂນໂລຊີສູງ": 7287,
      "ວິໄສທັດປະຊາຄົມອາຊຽນ": 7288,
      "\"\"\"": 7289,
      "Jeff": 7290,
      "ຢັ່ງຫາງສຽງ": 7291,
      "ເຊົ້າວັນທີ": 7292,
      "ພໍ່ແມ່": 7293,
      "ພາສາອັງກິດ": 7294,
      "ເລີນເຕີບໂຕ": 7295,
      "ເຕືອນໄພ": 7296,
      "ຂອບຂະໜາດພື້ນຖານເສດຖະກິດ": 7297,
      "ronics": 7298,
      "ຈູມ": 7299,
      "ທ່ານເລຂາທິການໃຫຍ່ສະຫະປະຊາຊາດ": 7300,
      "container": 7301,
      "ເຊີແນວ": 7302,
      "ຊົນເຜົ່າສ່ວນໜ້ອຍ": 7303,
      "ຮູບແບບການເຕີບໂຕ": 7304,
      "ຫນາວ": 7305,
      "ຮ່ວາງຊາ": 7306,
      "ເອົານ": 7307,
      "ຖະແຫຼງການຮ່ວມ": 7308,
      "ລ່ງກຳ": 7309,
      "ລ່ງທຶນ": 7310,
      "ຄູອາຈານ": 7311,
      "ຟິມ": 7312,
      "ctor": 7313,
      "Post": 7314,
      "ເມື່ອທຽບກັບໄລຍະດຽວກັນຂອງປີ": 7315,
      "ດ້ວຍຍອດຈຳນວນເງິນລົງທຶນ": 7316,
      "ຫຼຽນຄຳ": 7317,
      "ສ້າງວຽກເຮັດງານທຳ": 7318,
      "ປີແຫ່ງການປະຕິບັດໂຄງການການເມືອງ": 7319,
      "Kyi": 7320,
      "ຮຸນແຮງ": 7321,
      "ເຂົ້າເປັນສະມາຊິກຂອງອົງການ": 7322,
      "ລົບລ້າງຄວາມ": 7323,
      "Michelle": 7324,
      "Ahmed": 7325,
      "ourn": 7326,
      "ເປັນຫນ້າປະທັບໃຈ": 7327,
      "ຈຸດສຸມຂອງ": 7328,
      "ບັນລຸລະດັບເຕີບໂຕກວ່າ": 7329,
      "ສະມັດຕະພາບແຮງງານ": 7330,
      "ສະມັດຕະພາບກາເຟ": 7331,
      "ຮູຍ": 7332,
      "ປະທານປະເທດຫວຽດນາມ": 7333,
      "CLMTV": 7334,
      "iano": 7335,
      "ການປ່ອຍອາຍ": 7336,
      "ໃນຕອນບ່າຍວັນທີ": 7337,
      "ມີຜູ້ເສຍຊີວິດ": 7338,
      "ທີ່ກ່ຽວຂ້ອງເຖິງ": 7339,
      "utube": 7340,
      "ແງ່ຫວັງເສດຖະກິດຫວຽດນາມ": 7341,
      "ນອງເລືອດ": 7342,
      "ພັດທະນານ": 7343,
      "Georgiev": 7344,
      "ມີຊາວຫວຽດນາມ": 7345,
      "ສ້າງຄວາມສະດວກ": 7346,
      "ຄ້າຍຄືກັນ": 7347,
      "ສ່ອງແສງ": 7348,
      "Jae": 7349,
      "Jaber": 7350,
      "McCain": 7351,
      "North": 7352,
      "ເຍີນ": 7353,
      "ເລັ່ງໃສ່": 7354,
      "ໂດລາສະຫະລັດ": 7355,
      "ເຄື່ອງໝາຍການຄ້າແຫ່ງຊາດ": 7356,
      "Chavez": 7357,
      "ກຽມພ້ອມໃຫ້": 7358,
      "********": 7359,
      "ເປັນປະເທດເຈົ້າພາບຈັດຕັ້ງ": 7360,
      "Moteg": 7361,
      "Ramadan": 7362,
      "ບາກລຽວ": 7363,
      "ກໍານົດເວລາ": 7364,
      "ເຢັຍລະມັນ": 7365,
      "ມີບົດຂຽນ": 7366,
      "ໄລຍະທາງຂອງປີ": 7367,
      "Addis": 7368,
      "Mandela": 7369,
      "ຟຼິກກາ": 7370,
      "ລວບ": 7371,
      "ຮຳແລດ": 7372,
      "ໃນບໍລິເວນແຂວງ": 7373,
      "ແມ່ນລະດັບສູງສຸດ": 7374,
      "ເປັນຄັ້ງທໍາອິດ": 7375,
      "ເຂດທົ່ງພຽງແມ່ນ້ຳຂອງ": 7376,
      "ຊ່ວຍໜູນເດັກ": 7377,
      "Mubar": 7378,
      "RSF": 7379,
      "Suu": 7380,
      "thudo": 7381,
      "ວິນາ": 7382,
      "ພ້ອມແລ້ວທີ່ຈະ": 7383,
      "ພົ້ນອອກຈາກຄວາມທຸກຍາກ": 7384,
      "Boeing": 7385,
      "Latvia": 7386,
      "Ronaldo": 7387,
      "ທ່ວງທ່າ": 7388,
      "ບູ່ຍ": 7389,
      "ໃຫ້ແກ່ນັກທຸລະກິດ": 7390,
      "ຢ່າງໄວວາ": 7391,
      "ເສຍສະຫຼະຊີວິດ": 7392,
      "ສົນທິສັນຍາສະຫະປະຊາຊາດກ່ຽວກັບກົດໝາຍວ່າດ້ວຍທະເລ": 7393,
      "ມອບໝາຍໃຫ້": 7394,
      "ຍື່ນສະເໜີຕໍ່": 7395,
      "ດໍາລົງຕໍາແໜ່ງ": 7396,
      "ເກືອດຫ້າມ": 7397,
      "ສະພາບແວດລ້ອມແຫ່ງການດຳເນີນທຸລະກິດ": 7398,
      "AKP": 7399,
      "Fitch": 7400,
      "Kurdistan": 7401,
      "giao": 7402,
      "ກ໋ວກ": 7403,
      "ຍ້ອງຍໍ": 7404,
      "ດ່ຽງ": 7405,
      "ເປັນຫຼາຍຮູບຫຼາຍແບບ": 7406,
      "ປະກອບທຶນຊື້ຫຸ້ນຂອງ": 7407,
      "ດ້ວຍຍອດເງິນທຶນຈົດທະບຽນ": 7408,
      "ມຸ່ງໄປສູ່": 7409,
      "South": 7410,
      "cafef": 7411,
      "ຖີ້ມລະ": 7412,
      "Brian": 7413,
      "Estonia": 7414,
      "Jose": 7415,
      "Litva": 7416,
      "Medved": 7417,
      "myongsong": 7418,
      "ກຸງເກົ່າເຫ້ວ": 7419,
      "ລາຄານ້ຳມັນ": 7420,
      "ເອື້ອຍ": 7421,
      "ສະໜິດຕິດພັນ": 7422,
      "ອຸດົມສົມບູນ": 7423,
      "ລົດໂອໂຕ": 7424,
      "International": 7425,
      "Microsoft": 7426,
      "Electronics": 7427,
      "ສະພາບໍລິຫານງານ": 7428,
      "Ababa": 7429,
      "Ethiop": 7430,
      "Kristalina": 7431,
      "Kwangmyongsong": 7432,
      "Munich": 7433,
      "Summit": 7434,
      "TECH": 7435,
      "Vogt": 7436,
      "Vingroup": 7437,
      "ຮົງກົງ": 7438,
      "ໂຫລານ": 7439,
      "ໜິຕິຕຽນ": 7440,
      "ປະເຊີນໜ້າ": 7441,
      "ທີ່ຫຍໍ້ທໍ້": 7442,
      "ເຂົ້າມາ": 7443,
      "ຂະບວນປະທ້ວງ": 7444,
      "ວົງຄະນະຍາດ": 7445,
      "ໂຄງການເປົ້າໝາຍແຫ່ງຊາດ": 7446,
      "Trudeau": 7447,
      "ນາຍົກລັຖະມົນຕີ": 7448,
      "ເບ໋ນແຈ": 7449,
      "ມໍຣະດົກ": 7450,
      "ກອງປະຊຸມໃຫຍ່ອົງຄະນະພັກທຸກຂັ້ນ": 7451,
      "Georgieva": 7452,
      "Medvedev": 7453,
      "Ethiopia": 7454,
      ",​​": 7455,
      "1200": 7456,
      "245": 7457,
      "227": 7458,
      "340": 7459,
      "326": 7460,
      "420": 7461,
      "630": 7462,
      "950": 7463,
      "954": 7464,
      "AU": 7465,
      "Az": 7466,
      "Award": 7467,
      "Be": 7468,
      "Bam": 7469,
      "CG": 7470,
      "Cu": 7471,
      "Chan": 7472,
      "Duter": 7473,
      "Ea": 7474,
      "FL": 7475,
      "FED": 7476,
      "Get": 7477,
      "Ghani": 7478,
      "Group": 7479,
      "Ht": 7480,
      "Han": 7481,
      "Hal": 7482,
      "Hung": 7483,
      "Hap": 7484,
      "Haj": 7485,
      "IN": 7486,
      "Il": 7487,
      "Jones": 7488,
      "KW": 7489,
      "Kr": 7490,
      "Kya": 7491,
      "LW": 7492,
      "Lock": 7493,
      "Mon": 7494,
      "Mig": 7495,
      "Mob": 7496,
      "Mate": 7497,
      "NZ": 7498,
      "Ni": 7499,
      "Nat": 7500,
      "Ol": 7501,
      "Pw": 7502,
      "Pol": 7503,
      "Phan": 7504,
      "Pyeong": 7505,
      "Qa": 7506,
      "Res": 7507,
      "Rog": 7508,
      "Rod": 7509,
      "Ruz": 7510,
      "Sn": 7511,
      "Sol": 7512,
      "Soc": 7513,
      "TI": 7514,
      "Tok": 7515,
      "Top": 7516,
      "Ther": 7517,
      "Vit": 7518,
      "VCC": 7519,
      "Venez": 7520,
      "Yoshi": 7521,
      "bin": 7522,
      "bad": 7523,
      "bull": 7524,
      "cus": 7525,
      "cent": 7526,
      "dle": 7527,
      "gg": 7528,
      "hy": 7529,
      "har": 7530,
      "ham": 7531,
      "hury": 7532,
      "ion": 7533,
      "ius": 7534,
      "lov": 7535,
      "mun": 7536,
      "mlin": 7537,
      "nhan": 7538,
      "nai": 7539,
      "pa": 7540,
      "por": 7541,
      "ruong": 7542,
      "rick": 7543,
      "sgg": 7544,
      "tu": 7545,
      "tor": 7546,
      "tien": 7547,
      "ua": 7548,
      "ux": 7549,
      "uela": 7550,
      "wha": 7551,
      "yn": 7552,
      "yad": 7553,
      "ºF": 7554,
      "ກົ": 7555,
      "ກອກ": 7556,
      "ກຽນ": 7557,
      "ກົກ": 7558,
      "ຂາງ": 7559,
      "ຂຸມ": 7560,
      "ຂີ່": 7561,
      "ຂັ້": 7562,
      "ຄອຍ": 7563,
      "ງຂອງ": 7564,
      "ງຄາດ": 7565,
      "ງອຽນ": 7566,
      "ຈືດ": 7567,
      "ຊົດ": 7568,
      "ຊອຍ": 7569,
      "ຍກວາງ": 7570,
      "ດຂອງ": 7571,
      "ດເຮືອນ": 7572,
      "ດ່ວານ": 7573,
      "ຕ໊": 7574,
      "ທົ": 7575,
      "ທໍ່": 7576,
      "ນັ້ງ": 7577,
      "ນສົ່ງ": 7578,
      "ນຊາງ": 7579,
      "ບຄົນ": 7580,
      "ບໃຈ": 7581,
      "ບທາມ": 7582,
      "ປູ່": 7583,
      "ປິກ": 7584,
      "ຜົວ": 7585,
      "ຝຸ່ນ": 7586,
      "ຝລ່": 7587,
      "ພານ": 7588,
      "ພ້າ": 7589,
      "ພ້ອ": 7590,
      "ພຸນ": 7591,
      "ມທີ່": 7592,
      "ມົດ": 7593,
      "ຣາດາ": 7594,
      "ລອດ": 7595,
      "ລົກ": 7596,
      "ລວດ": 7597,
      "ວູ້": 7598,
      "ສັ່ນ": 7599,
      "ຫ້າ": 7600,
      "ຫລຸ": 7601,
      "ອັບ": 7602,
      "ອ່ນ": 7603,
      "ຮໍ": 7604,
      "ຮຶ້": 7605,
      "ະສິກຳ": 7606,
      "ິກາ": 7607,
      "ົາມ": 7608,
      "ເມີນ": 7609,
      "ແລັດ": 7610,
      "ໂຫ": 7611,
      "ໄຄ": 7612,
      "້ຽວ": 7613,
      "໊ງ": 7614,
      "ໍລະດົກ": 7615,
      "ໜາມ": 7616,
      "ໜຽວ": 7617,
      "ໝາງ": 7618,
      "ໝິ່ນ": 7619,
      "“….": 7620,
      "ປະປາ": 7621,
      "ປະເອີ": 7622,
      "ປະໝາດ": 7623,
      "ການກະ": 7624,
      "ການຄາດ": 7625,
      "ການວາງ": 7626,
      "ການກຳນົດ": 7627,
      "ການປ້ອງ": 7628,
      "ການກວດ": 7629,
      "ການຜັນຂະຫຍາຍ": 7630,
      "ການເຂົ້າຮ່ວມຂອງ": 7631,
      "ການຈັດວາງອັດຕາພາສີ": 7632,
      "ການໃຊ້ສອຍ": 7633,
      "ການປົກຄຸມ": 7634,
      "ການກຳນົດທິດຮອດປີ": 7635,
      "່າຮຽນ": 7636,
      "2022": 7637,
      "ັບແຕ່": 7638,
      "ໃນພາບ": 7639,
      "ໃນຕົ້ນ": 7640,
      "ໃນທົ່ວ": 7641,
      "ໃນຄຳ": 7642,
      "ໃນອາຊຽນ": 7643,
      "ໃນແຜນການ": 7644,
      "ໃນມະຕິ": 7645,
      "ໃນຍຸດທະສາດ": 7646,
      "ໃນລາຍການ": 7647,
      "ໃນຈໍານວນ": 7648,
      "ໃນສັບປະດາຂັ້ນສູງ": 7649,
      "ໃນແຜນການພັດທະນາເສດຖະກິດ": 7650,
      "ໃນຈຸດເວລາ": 7651,
      "ທີສາມ": 7652,
      "ປີກ": 7653,
      "ປີມໍ່ໆມານີ້": 7654,
      "ສະມາດ": 7655,
      "ສະຈັນ": 7656,
      "ສະມຸດ": 7657,
      "ບັນນາ": 7658,
      "ໄດ້ເປັນ": 7659,
      "ໄດ້ຂຶ້ນ": 7660,
      "ໄດ້ຢ່າງ": 7661,
      "ໄດ້ຈາກ": 7662,
      "ໄດ້ລົງທຶນ": 7663,
      "ໄດ້ສຳເລັດ": 7664,
      "ໄດ້ເຄື່ອນໄຫວ": 7665,
      "ໄດ້ຊະນະ": 7666,
      "ໄດ້ຂຽນ": 7667,
      "ໄດ້ເກັບ": 7668,
      "ໄດ້ນຳມາ": 7669,
      "ໄດ້ປິດ": 7670,
      "ໄດ້ນໍາ": 7671,
      "ໄດ້ດໍາເນີນ": 7672,
      "ໄດ້ເປັນຢ່າງດີ": 7673,
      "ໄດ້ກ້າວເຂົ້າສູ່": 7674,
      "ໄດ້ສະແດງຄວາມ": 7675,
      "ໄດ້ອັດລົງ": 7676,
      "ໄດ້ກ່າວເຕືອນວ່າ": 7677,
      "ໄດ້ສວມ": 7678,
      "ຫວັນ": 7679,
      "ຂອງບັນ": 7680,
      "ຂອງວັນ": 7681,
      "ຂອງອົງ": 7682,
      "ຂອງແຜນການ": 7683,
      "ຂອງນະຄອນ": 7684,
      "ຂອງລັດເຊຍ": 7685,
      "ຂອງຕະຫຼາດ": 7686,
      "ຂອງໄຕມາດ": 7687,
      "ຂອງປ່າ": 7688,
      "ຂອງສະຕະວັດທີ": 7689,
      "ພາວະ": 7690,
      "ພາໄປເຖິງ": 7691,
      "່ນ້ອງ": 7692,
      "ນາມເຂົ້າ": 7693,
      "ມີວິ": 7694,
      "ມີລາຄາ": 7695,
      "ມີພຽງແຕ່": 7696,
      "ມີລະດັບເຕີບໂຕ": 7697,
      "ມີຊື່ວ່າ": 7698,
      "່ວົງ": 7699,
      "ທີ່ຢູ່": 7700,
      "ທີ່ຜ່ານ": 7701,
      "ທີ່ໝັ້ນ": 7702,
      "ທີ່ຫນ້າ": 7703,
      "ທີ່ສາມາດ": 7704,
      "ທີ່ເວທີປາໄສ": 7705,
      "ທີ່ເກັບ": 7706,
      "ທີ່ຈະມາເຖິງ": 7707,
      "ທີ່ຕັ້ງໜ້າ": 7708,
      "ເລດ": 7709,
      "ເລໂອ": 7710,
      "ອກເບ້ຍ": 7711,
      "່ານີ້": 7712,
      "ເມລິ": 7713,
      "ຸດທະສາດ": 7714,
      "ແມ່ນປະ": 7715,
      "ແມ່ນເພີ່ມ": 7716,
      "ແມ່ນກ່ວາ": 7717,
      "ແມ່ນເລື່ອງ": 7718,
      "ແມ່ນໄວ": 7719,
      "ແມ່ນເລີ່ມ": 7720,
      "ແມ່ນຂາຍ": 7721,
      "ແມ່ນພື້ນຖານເສດຖະກິດ": 7722,
      "ແມ່ນບັນຫາ": 7723,
      "ແມ່ນຂີດໝາຍ": 7724,
      "ແມ່ນໜຶ່ງໃນ": 7725,
      "ແມ່ນໍ້າ": 7726,
      "ແມ່ນສ່ວນໜຶ່ງ": 7727,
      "ແມ່ນຫນຶ່ງໃນບັນດາ": 7728,
      "ເທດຫວຽດນາມ": 7729,
      "ເທດອາ": 7730,
      "ເທດສະມາຊິກ": 7731,
      "ຫວຽດນາມປີ": 7732,
      "ຫວຽດນາມໄດ້": 7733,
      "ຫວຽດນາມມີ": 7734,
      "ິນເຕີແນັດ": 7735,
      "ທະຍາ": 7736,
      "ເຂັມ": 7737,
      "ເຂົ້": 7738,
      "ຫຼອກ": 7739,
      "ມາແຕ່ປີ": 7740,
      "ກັບພັກ": 7741,
      "ກັບເລື່ອງ": 7742,
      "ເປົາ": 7743,
      "ເປືອກ": 7744,
      "ຢູ່ປະ": 7745,
      "ຢູ່ກອງ": 7746,
      "ຢູ່ທັງ": 7747,
      "ຢູ່ບັນດາປະເທດ": 7748,
      "ເສັກ": 7749,
      "ເສີດ": 7750,
      "ໃຫ້ມີ": 7751,
      "ໃຫ້ເປັນ": 7752,
      "ໃຫ້ຜູ້": 7753,
      "ໃຫ້ຢູ່ໃນລະດັບ": 7754,
      "ໃຫ້ບຸລິມະສິດ": 7755,
      "ໃຫ້ເປັນປົກກະຕິ": 7756,
      "ໃຫ້ສົມບູນ": 7757,
      "ເປັນປີ": 7758,
      "ເປັນປະທານາທິບໍດີ": 7759,
      "ລົງມື": 7760,
      "ລົງຫຼາຍ": 7761,
      "ລົງວັນທີ": 7762,
      "ລົງເຫຼືອ": 7763,
      "ລົງຈອດ": 7764,
      "ນະຂອງ": 7765,
      "ຮັບໃຊ້": 7766,
      "ຮັບຮູ້ວ່າ": 7767,
      "ຮັບບາດເຈັບ": 7768,
      "ສາບານ": 7769,
      "ແຕ່ມີ": 7770,
      "ລຸນ": 7771,
      "ລຸ່ມ": 7772,
      "ວນານ": 7773,
      "ຂຶ້ນຢູ່": 7774,
      "ຂຶ້ນທົບ": 7775,
      "ນາສາ": 7776,
      "ນາທິບໍດີ": 7777,
      "ແຫ່ງການພົວພັນ": 7778,
      "ແຫ່ງສັນຕິພາບ": 7779,
      "USDໃນ": 7780,
      "ບັນດາໂຄງການ": 7781,
      "ບັນດາຜະລິດຕະພັນ": 7782,
      "ບັນດາໜ້າທີ່": 7783,
      "ບັນດາບົດລາຍງານ": 7784,
      "ບັນດາຮູບແບບ": 7785,
      "ບັນດາວັນບຸນ": 7786,
      "ບັນດາຫົວໜ່ວຍ": 7787,
      "ບັນດາປະເພດສິນຄ້າ": 7788,
      "ຈະແມ່ນ": 7789,
      "ຈະສູງ": 7790,
      "ຈະຈັດຕັ້ງ": 7791,
      "ຈະບັນລຸໄດ້": 7792,
      "ຈະນຳມາເຊິ່ງ": 7793,
      "ຄວາມສາມັກຄີ": 7794,
      "ຄວາມວິຕົກກັງວົນ": 7795,
      "ຄົນແລ້ວ": 7796,
      "ຄົນໃໝ່": 7797,
      "ຄົນເຂົ້າຮ່ວມ": 7798,
      "ຄົນລົງເຫຼືອພຽງ": 7799,
      "ຄົນພິການ": 7800,
      "ເກັ່ງ": 7801,
      "ຕັ້ງແຕ່": 7802,
      "ລາເທດ": 7803,
      "ລາອອກຈາກ": 7804,
      "ດ້ວຍທະ": 7805,
      "ດ້ວຍກຳລັງ": 7806,
      "ດ້ວຍເປົ້າໝາຍ": 7807,
      "ດ້ວຍວົງເງິນການຄ້າ": 7808,
      "ດ້ວຍເນື້ອທີ່": 7809,
      "ດ້ວຍວິທີ": 7810,
      "ດ້ວຍປະສົບການ": 7811,
      "ຕິ້ງ": 7812,
      "ີ່ມຂຶ້ນ": 7813,
      "ເມື່ອມີ": 7814,
      "ກຳກັບການ": 7815,
      "ກຳເນີດ": 7816,
      "ເຂົ້າງົບປະມານ": 7817,
      "ເຂົ້າໜົມ": 7818,
      "ເຂົ້າຕົ້ມ": 7819,
      "ຊາຂອງ": 7820,
      "ຊາຕາກ": 7821,
      "ຢ່າງສະ": 7822,
      "ຢ່າງມີຫົວຄິດປະດິດສ້າງ": 7823,
      "ຢ່າງສັບສົນ": 7824,
      "ຢ່າງຮີບດ່ວນ": 7825,
      "ດັບສູນ": 7826,
      "ດີກ່ວາ": 7827,
      "ດີທີ່ສຸດ": 7828,
      "ມານັ້ນ": 7829,
      "ສ້າງສັນ": 7830,
      "ເດືອນຕຸລາ": 7831,
      "ເດືອນກໍລະກົດ": 7832,
      "ເດືອນທີ່ຍັງເຫຼືອ": 7833,
      "ຮ່ວຽນ": 7834,
      "ຊາດຢ່າງ": 7835,
      "ປະເທດອາຊຽນ": 7836,
      "ປະເທດໃນໂລກ": 7837,
      "ປະເທດຄູ່ຮ່ວມມື": 7838,
      "ປະເທດນີ້ຈະ": 7839,
      "ຊຸມຊົນ": 7840,
      "ຊຸມໃຫຍ່": 7841,
      "ຊຸມມື້": 7842,
      "ສຳນັກຂ່າວ": 7843,
      "ສຳເນົາ": 7844,
      "ຮ່ວມໃຈ": 7845,
      "ຮ່ວມແຮງ": 7846,
      "ກະຕຸກ": 7847,
      "ກະລາເທດ": 7848,
      "1960": 7849,
      "1959": 7850,
      "1957": 7851,
      "ກັນຂອງ": 7852,
      "ຍະສະ": 7853,
      "ຊີຮີ": 7854,
      "ຜູ້ໃດ": 7855,
      "ຜູ້ເສຍຊີວິດ": 7856,
      "ຜູ້ວ່າງງານ": 7857,
      "ເຖິງກວ່າ": 7858,
      "ເຖິງລະດັບ": 7859,
      "ໂຕຍ": 7860,
      "ໂລຫະ": 7861,
      "ຈາກຜູ້": 7862,
      "ນວນສະ": 7863,
      "ນວນຜູ້": 7864,
      "ນວນບັດ": 7865,
      "ພັນໆ": 7866,
      "ມະຫັດ": 7867,
      "ຍາວນານ": 7868,
      "ເພື່ອຊາດ": 7869,
      "ເພື່ອປະຕິບັດ": 7870,
      "ເຫັດ": 7871,
      "ລັດຖະນະ": 7872,
      "ລັດຖະມົນ": 7873,
      "ລັດຖະກອນ": 7874,
      "ຕະຍະ": 7875,
      "ຕະກອນ": 7876,
      "ເຮື": 7877,
      "ເຮືອງ": 7878,
      "ທຳໂລກ": 7879,
      "ທຳການຜະລິດ": 7880,
      "ນຳຫວຽດນາມ": 7881,
      "ນຳກັນ": 7882,
      "ໃສ່ຫົວຄົນ": 7883,
      "ເຕີ້": 7884,
      "ເຕີ່ມ": 7885,
      "ຕາມຜົນ": 7886,
      "ຕາມຄຳ": 7887,
      "ຕາມແບບ": 7888,
      "ຕາມມາດຕະຖານ": 7889,
      "ຕາມກະຊວງກະສິກຳ": 7890,
      "ຄັ້ງຢູ່": 7891,
      "ລ້ານກວ່າ": 7892,
      "ສຸດການ": 7893,
      "ສຸດຂອງ": 7894,
      "ino": 7895,
      "ຫາບ": 7896,
      "ໂລກຄັ້ງທີ": 7897,
      "ຕໍ່ກັບ": 7898,
      "ຕໍ່ບັນດາ": 7899,
      "ຫນານ": 7900,
      "ຍອດວົງ": 7901,
      "ສູງສະຖິຕິ": 7902,
      "ທາງຜ່ານ": 7903,
      "ທາງພາກ": 7904,
      "ກໍ່ຍັງມີ": 7905,
      "ສ່ວນຕາມ": 7906,
      "ສ່ວນເກີນ": 7907,
      "ທຽບເທົ່າກັບ": 7908,
      "ຈຳນວນທຶນ": 7909,
      "ຈຳນວນໜຶ່ງ": 7910,
      "ero": 7911,
      "ert": 7912,
      "eral": 7913,
      "ເລືອງ": 7914,
      "ໜ້າໄດ້": 7915,
      "ໜ້າປະຫວັດສາດ": 7916,
      "ໄປມາ": 7917,
      "ໄປຮອດ": 7918,
      "ໄປຄຽງຄູ່": 7919,
      "ໄປສະນີ": 7920,
      "ຍັງເຫຼືອພຽງ": 7921,
      "ອີຢີບ": 7922,
      "ອີຢິບ": 7923,
      "ຕົ້ນໃນ": 7924,
      "ຕົ້ນອາຍຸການ": 7925,
      "ສິດອຳນາດ": 7926,
      "ສິດພົນລະເມືອງ": 7927,
      "ສິດເສລີໃນການ": 7928,
      "ມືກ້ອງ": 7929,
      "ຖືກເຊີນ": 7930,
      "ຖືກດໍາເນີນ": 7931,
      "ຖືກຈັດຂຶ້ນ": 7932,
      "ພັກສາທາລະນະ": 7933,
      "ໂດຍທ່ານ": 7934,
      "ໂດຍຜ່ານ": 7935,
      "ຫວ່າງງານ": 7936,
      "ບົດຮຽນ": 7937,
      "ບົດລະຄອນ": 7938,
      "ວາງເປົ້າໝາຍ": 7939,
      "ວາງຄາດໝາຍການເຕີບໂຕ": 7940,
      "ອັດຕານ": 7941,
      "ພຽງຢາງ": 7942,
      "ດ້ານການທະຫານ": 7943,
      "121": 7944,
      "ອັນດີງາມ": 7945,
      "ໃຊ້ພະລັງງານ": 7946,
      "orado": 7947,
      "ທົ່ວປະ": 7948,
      "ທົ່ວສັງຄົມ": 7949,
      "amen": 7950,
      "ປະທານາທິບໍ": 7951,
      "ຫຼາຍສົ້ນ": 7952,
      "ຕ້ອງຮັບ": 7953,
      "ໝ່ຳ": 7954,
      "ເຈົ້າຊີວິດ": 7955,
      "ຝ່າຍຫວຽດນາມ": 7956,
      "ລວມແມ່ນ": 7957,
      "ລວມທັງໝົດ": 7958,
      "ກ່ຽວກັບຫວຽດນາມ": 7959,
      "ກ່ຽວກັບສິດ": 7960,
      "ປະຕິບັດພັນທະ": 7961,
      "508": 7962,
      "ອົງອາດ": 7963,
      "131": 7964,
      "134": 7965,
      "136": 7966,
      "ໂຄງການພັດທະນາ": 7967,
      "ethe": 7968,
      "ອາເມລິກາຄື": 7969,
      "ກາງຊຸດ": 7970,
      "ໄດ້ຮັບຮູ້": 7971,
      "ໄດ້ຮັບດຳລົງຕຳແໜ່ງ": 7972,
      "ທ່ຽ": 7973,
      "ປາແລັດ": 7974,
      "ກ່ອນກຳນົດ": 7975,
      "ກ່ອນໜ້ານ": 7976,
      "ກ່ອນຫນ້ານັ້ນ": 7977,
      "ເຕີບໂຕຢູ່ໃນລະດັບ": 7978,
      "ກອງປະຊຸມສະໄຫມສາມັນເທື່ອທີ": 7979,
      "ເຊິ່ງຈັດ": 7980,
      "ເທົ່າທຽມ": 7981,
      "ລະຫວ່າງອີຣານ": 7982,
      "ແຂວງກວາງ": 7983,
      "ແຂວງດົງນາຍ": 7984,
      "154": 7985,
      "155": 7986,
      "ສານກອງ": 7987,
      "ນາຍພົນ": 7988,
      "ຍາກທີ່ຈະ": 7989,
      "ນ້ຳຕານ": 7990,
      "258": 7991,
      "ຂັ້ນຕອນ": 7992,
      "ຂັ້ນສູນກາງ": 7993,
      "ສັນຍາການຄ້າ": 7994,
      "ສັນຍາສະບັບ": 7995,
      "ສັນຍາລັກ": 7996,
      "ຫລາຍແຫ່ງ": 7997,
      "ຫລາຍທົບ": 7998,
      "ປຸ່ງ": 7999
    },
    "merges": [
      [
        "າ",
        "ນ"
      ],
      [
        "ັ",
        "ນ"
      ],
      [
        "ປ",
        "ະ"
      ],
      [
        "ກ",
        "ານ"
      ],
      [
        "ອ",
        "ງ"
      ],
      [
        "່",
        "າ"
      ],
      [
        "ລ",
        "ະ"
      ],
      [
        "ັ",
        "ດ"
      ],
      [
        "າ",
        "ມ"
      ],
      [
        "2",
        "0"
      ],
      [
        "ັ",
        "ບ"
      ],
      [
        "ໃ",
        "ນ"
      ],
      [
        "ດ",
        "້"
      ],
      [
        "້",
        "າ"
      ],
      [
        "້",
        "ນ"
      ],
      [
        "ທ",
        "ີ"
      ],
      [
        "ປ",
        "ີ"
      ],
      [
        "ສ",
        "ະ"
      ],
      [
        "່",
        "ງ"
      ],
      [
        "າ",
        "ຍ"
      ],
      [
        "າ",
        "ດ"
      ],
      [
        "ບ",
        "ັນ"
      ],
      [
        "ິ",
        "ດ"
      ],
      [
        "ົ",
        "ນ"
      ],
      [
        "ໄ",
        "ດ້"
      ],
      [
        "ຫ",
        "ວ"
      ],
      [
        "ຂ",
        "ອງ"
      ],
      [
        "ື",
        "່"
      ],
      [
        "ແ",
        "ລະ"
      ],
      [
        "20",
        "1"
      ],
      [
        "ອ",
        "ນ"
      ],
      [
        "ົ",
        "ງ"
      ],
      [
        "ພ",
        "າ"
      ],
      [
        "່",
        "ນ"
      ],
      [
        "ນ",
        "າມ"
      ],
      [
        "ຽ",
        "ດ"
      ],
      [
        "ເ",
        "ທ"
      ],
      [
        "ຫວ",
        "ຽດ"
      ],
      [
        "ມ",
        "ີ"
      ],
      [
        "່",
        "ວ"
      ],
      [
        "ັ",
        "ງ"
      ],
      [
        "ວ",
        "່າ"
      ],
      [
        "ທີ",
        "່"
      ],
      [
        "ັ",
        "ກ"
      ],
      [
        "ແ",
        "ມ"
      ],
      [
        "ເ",
        "ລ"
      ],
      [
        "ອ",
        "ກ"
      ],
      [
        "ໃ",
        "ຫ"
      ],
      [
        "0",
        "0"
      ],
      [
        "່",
        "ານ"
      ],
      [
        "ເ",
        "ມ"
      ],
      [
        "້",
        "ງ"
      ],
      [
        "ື່",
        "ອ"
      ],
      [
        "ຸ",
        "ດ"
      ],
      [
        "ແມ",
        "່ນ"
      ],
      [
        "່າ",
        "ງ"
      ],
      [
        "ເທ",
        "ດ"
      ],
      [
        "ູ",
        "່"
      ],
      [
        "ັ",
        "້ນ"
      ],
      [
        "າ",
        "ກ"
      ],
      [
        "ຫວຽດ",
        "ນາມ"
      ],
      [
        "ຖ",
        "ະ"
      ],
      [
        "ິ",
        "ນ"
      ],
      [
        "ເ",
        "ພ"
      ],
      [
        "ດ",
        "າ"
      ],
      [
        "ທ",
        "ະ"
      ],
      [
        "າ",
        "ງ"
      ],
      [
        "ເ",
        "ຂ"
      ],
      [
        "ັ",
        "້ງ"
      ],
      [
        "ຫ",
        "ຼ"
      ],
      [
        "ໍ",
        "່"
      ],
      [
        "ວ",
        "ັນ"
      ],
      [
        "ມ",
        "າ"
      ],
      [
        "ກ",
        "ັບ"
      ],
      [
        "ອ",
        "ບ"
      ],
      [
        "ເ",
        "ປ"
      ],
      [
        "ຢ",
        "ູ່"
      ],
      [
        "ເ",
        "ສ"
      ],
      [
        "ົ",
        "້າ"
      ],
      [
        "ອ",
        "າ"
      ],
      [
        "ລ",
        "ັດ"
      ],
      [
        "ແ",
        "ຕ"
      ],
      [
        "ທ",
        "່ານ"
      ],
      [
        "ື",
        "້"
      ],
      [
        "ົ",
        "ດ"
      ],
      [
        "ນ",
        "ີ"
      ],
      [
        "ໃຫ",
        "້"
      ],
      [
        "ເປ",
        "ັນ"
      ],
      [
        "ກ",
        "່"
      ],
      [
        "​",
        "​"
      ],
      [
        "ລ",
        "ົງ"
      ],
      [
        "ກ",
        "ິດ"
      ],
      [
        "ຽ",
        "ນ"
      ],
      [
        "ແ",
        "ຫ"
      ],
      [
        "ນ",
        "ະ"
      ],
      [
        "ຮ",
        "ັບ"
      ],
      [
        "ູ",
        "້"
      ],
      [
        "ອ",
        "ດ"
      ],
      [
        "່",
        "ມ"
      ],
      [
        "ຄ",
        "ວ"
      ],
      [
        "ພາ",
        "ບ"
      ],
      [
        "ສ",
        "າ"
      ],
      [
        "ຕ",
        "ີ"
      ],
      [
        "ແຕ",
        "່"
      ],
      [
        "ລ",
        "ິ"
      ],
      [
        "ລ",
        "້"
      ],
      [
        "ລ",
        "ຸ"
      ],
      [
        "ຂ",
        "ຶ"
      ],
      [
        "ວ",
        "ນ"
      ],
      [
        "ຂຶ",
        "້ນ"
      ],
      [
        "ຽ",
        "ວ"
      ],
      [
        "ເ",
        "ດ"
      ],
      [
        "U",
        "S"
      ],
      [
        "ນ",
        "າ"
      ],
      [
        "ນ",
        "ັ້ນ"
      ],
      [
        "ົ",
        "ວ"
      ],
      [
        "ແຫ",
        "່ງ"
      ],
      [
        "US",
        "D"
      ],
      [
        "ິ",
        "ງ"
      ],
      [
        "ອ",
        "ອກ"
      ],
      [
        "ວ",
        "ຍ"
      ],
      [
        "ບັນ",
        "ດາ"
      ],
      [
        "ຈ",
        "ະ"
      ],
      [
        "ົ",
        "ກ"
      ],
      [
        "ຄວ",
        "າມ"
      ],
      [
        "ຄ",
        "ົນ"
      ],
      [
        "ເ",
        "ກ"
      ],
      [
        "ຕ",
        "ັ້ງ"
      ],
      [
        "ລ",
        "າ"
      ],
      [
        "ເສ",
        "ດ"
      ],
      [
        "ຸ",
        "ມ"
      ],
      [
        "ຈ",
        "ຳ"
      ],
      [
        "ດ້",
        "ວຍ"
      ],
      [
        "ຕ",
        "ິ"
      ],
      [
        "ຕ",
        "ື້"
      ],
      [
        "ີ",
        "່ມ"
      ],
      [
        "ທ",
        "ິ"
      ],
      [
        "ເມ",
        "ື່ອ"
      ],
      [
        "ສ",
        "ົ"
      ],
      [
        "ເ",
        "ຊ"
      ],
      [
        "້າ",
        "ງ"
      ],
      [
        "ກ",
        "ຳ"
      ],
      [
        "ເຂ",
        "ົ້າ"
      ],
      [
        "ເ",
        "ງ"
      ],
      [
        "ຫ",
        "ລ"
      ],
      [
        "ູ",
        "ນ"
      ],
      [
        "ທ",
        "ຶ"
      ],
      [
        "ໄ",
        "ລ"
      ],
      [
        "ຊ",
        "າ"
      ],
      [
        "ື",
        "ອນ"
      ],
      [
        "ຕ",
        "າ"
      ],
      [
        "ຢ",
        "່າງ"
      ],
      [
        "ດ",
        "ັບ"
      ],
      [
        "ທຶ",
        "ນ"
      ],
      [
        "ດ",
        "ີ"
      ],
      [
        "ກ",
        "າ"
      ],
      [
        "ມ",
        "ານ"
      ],
      [
        "ົ",
        "ບ"
      ],
      [
        "ກ",
        "ວ່າ"
      ],
      [
        "ບ",
        "ໍ"
      ],
      [
        "ເພ",
        "ີ່ມ"
      ],
      [
        "ເງ",
        "ິນ"
      ],
      [
        "ໝ",
        "າຍ"
      ],
      [
        "ສ",
        "້າງ"
      ],
      [
        "ນີ",
        "້"
      ],
      [
        "ງ",
        "ານ"
      ],
      [
        "ເດ",
        "ືອນ"
      ],
      [
        "ຮ",
        "່ວ"
      ],
      [
        "ວ",
        "ມ"
      ],
      [
        "ຊ",
        "າດ"
      ],
      [
        "ປະ",
        "ເທດ"
      ],
      [
        "້",
        "ອງ"
      ],
      [
        "ຊ",
        "ຸມ"
      ],
      [
        "ສ",
        "ຳ"
      ],
      [
        "ຮ່ວ",
        "ມ"
      ],
      [
        "ກ",
        "ະ"
      ],
      [
        "1",
        "9"
      ],
      [
        "ບັນ",
        "ລຸ"
      ],
      [
        "ກ",
        "ອງ"
      ],
      [
        "ຫ",
        "ະ"
      ],
      [
        "a",
        "n"
      ],
      [
        "ກ",
        "ັນ"
      ],
      [
        "ຍ",
        "ະ"
      ],
      [
        "ວ",
        "ິ"
      ],
      [
        "ຊ",
        "ີ"
      ],
      [
        "ເ",
        "ຖ"
      ],
      [
        "ຜ",
        "ູ້"
      ],
      [
        "ົ",
        "ມ"
      ],
      [
        "ເຖ",
        "ິງ"
      ],
      [
        "ໂ",
        "ຕ"
      ],
      [
        "ໂ",
        "ລ"
      ],
      [
        "ຈ",
        "າກ"
      ],
      [
        "ເ",
        "ຈ"
      ],
      [
        "ນ",
        "ວນ"
      ],
      [
        "ເ",
        "ອ"
      ],
      [
        "ພ",
        "ັນ"
      ],
      [
        "ຽ",
        "ງ"
      ],
      [
        "ມ",
        "ະ"
      ],
      [
        "ກ່",
        "ຽວ"
      ],
      [
        "00",
        "0"
      ],
      [
        "ຄ",
        "້າ"
      ],
      [
        "ຍ",
        "າ"
      ],
      [
        "ົ",
        "າ"
      ],
      [
        "ສ",
        "່"
      ],
      [
        "ເພ",
        "ື່ອ"
      ],
      [
        "ເຂ",
        "ດ"
      ],
      [
        "ເ",
        "ຫ"
      ],
      [
        "ທ",
        "ານ"
      ],
      [
        "ລັດ",
        "ຖະ"
      ],
      [
        "ຕ",
        "ະ"
      ],
      [
        "ິ",
        "ກ"
      ],
      [
        "ຄ",
        "ື"
      ],
      [
        "ົ",
        "້ນ"
      ],
      [
        "1",
        "0"
      ],
      [
        "ເ",
        "ຮ"
      ],
      [
        "ຸ",
        "ກ"
      ],
      [
        "ຖ",
        "ື"
      ],
      [
        "ທ",
        "ຳ"
      ],
      [
        "ນ",
        "ຳ"
      ],
      [
        "ຂ",
        "ະ"
      ],
      [
        "ໃ",
        "ສ່"
      ],
      [
        "ເ",
        "ຕີ"
      ],
      [
        "ຕ",
        "າມ"
      ],
      [
        "ຄ",
        "ັ້ງ"
      ],
      [
        "ລ້",
        "ານ"
      ],
      [
        "o",
        "n"
      ],
      [
        "ບ",
        "ັດ"
      ],
      [
        "ວ",
        "ງ"
      ],
      [
        "ເ",
        "ວ"
      ],
      [
        "ຮ",
        "ອດ"
      ],
      [
        "ຄ",
        "ະ"
      ],
      [
        "ສົ",
        "່ງ"
      ],
      [
        "ສ",
        "ຸດ"
      ],
      [
        "ຜ",
        "ົນ"
      ],
      [
        "ຽ",
        "ບ"
      ],
      [
        "i",
        "n"
      ],
      [
        "ູ",
        "ງ"
      ],
      [
        "ປະ",
        "ທານ"
      ],
      [
        "ຫ",
        "າ"
      ],
      [
        "ຖະ",
        "ກິດ"
      ],
      [
        "ຈ",
        "ຸ"
      ],
      [
        "ໂລ",
        "ກ"
      ],
      [
        "ເສດ",
        "ຖະກິດ"
      ],
      [
        "ຕ",
        "ໍ່"
      ],
      [
        "20",
        "20"
      ],
      [
        "ຄ",
        "າດ"
      ],
      [
        "ເ",
        "ຄ"
      ],
      [
        "ຊ",
        "ົນ"
      ],
      [
        "ີ",
        "ນ"
      ],
      [
        "ັ",
        "່ງ"
      ],
      [
        "ໂ",
        "ດ"
      ],
      [
        "ື",
        "້ນ"
      ],
      [
        "ຫ",
        "ນ"
      ],
      [
        "ຍ",
        "ອດ"
      ],
      [
        "ປະ",
        "ມານ"
      ],
      [
        "ໂ",
        "ຄ"
      ],
      [
        "ລະ",
        "ດັບ"
      ],
      [
        "ບ",
        "ໍ່"
      ],
      [
        "ສ",
        "ູງ"
      ],
      [
        "່ວ",
        "ນ"
      ],
      [
        "ຖ",
        "ານ"
      ],
      [
        "ທ",
        "າງ"
      ],
      [
        "ິ",
        "່ງ"
      ],
      [
        "ໄລ",
        "ຍະ"
      ],
      [
        "ນ",
        "ັກ"
      ],
      [
        "ກ",
        "ໍ່"
      ],
      [
        "ສ",
        "່ວນ"
      ],
      [
        "ພ",
        "ັດ"
      ],
      [
        "້",
        "ອ"
      ],
      [
        "ທ",
        "ຽບ"
      ],
      [
        "ຍ",
        "່"
      ],
      [
        "ພ",
        "ະ"
      ],
      [
        "ປະ",
        "ຊຸມ"
      ],
      [
        "201",
        "6"
      ],
      [
        "ປະ",
        "ກ"
      ],
      [
        "ໂຄ",
        "ງ"
      ],
      [
        "201",
        "7"
      ],
      [
        "ຈຳ",
        "ນວນ"
      ],
      [
        "e",
        "r"
      ],
      [
        "ເລ",
        "ື"
      ],
      [
        "ື",
        "ອບ"
      ],
      [
        "ສ",
        "ັນ"
      ],
      [
        "ມ",
        "ົນ"
      ],
      [
        "ຕ",
        "່າງ"
      ],
      [
        "ໜ",
        "້າ"
      ],
      [
        "ຜ",
        "່ານ"
      ],
      [
        "່າ",
        "ຍ"
      ],
      [
        "ເຕີ",
        "ບ"
      ],
      [
        "ໄ",
        "ປ"
      ],
      [
        "ເລື",
        "ອກ"
      ],
      [
        "ພ",
        "ິ"
      ],
      [
        "ແ",
        "ຜ"
      ],
      [
        "ຶ",
        "່ງ"
      ],
      [
        "ໃຫ",
        "ຍ່"
      ],
      [
        "ພ",
        "ື້ນ"
      ],
      [
        "ຍ",
        "ັງ"
      ],
      [
        "ອ",
        "ີ"
      ],
      [
        "ຕ",
        "ົ້ນ"
      ],
      [
        "ນ",
        "ັບ"
      ],
      [
        "ສ",
        "ິດ"
      ],
      [
        "ມ",
        "ື"
      ],
      [
        "ຖື",
        "ກ"
      ],
      [
        "ດ",
        "ຳ"
      ],
      [
        "ພ",
        "າຍ"
      ],
      [
        "ຄ",
        "ົມ"
      ],
      [
        "20",
        "0"
      ],
      [
        "ສະ",
        "ພາ"
      ],
      [
        "D",
        "P"
      ],
      [
        "ກ",
        "ໍ"
      ],
      [
        "ພ",
        "ັກ"
      ],
      [
        "່າ",
        "ວ"
      ],
      [
        "ເກ",
        "ືອບ"
      ],
      [
        "ໂດ",
        "ຍ"
      ],
      [
        "ຈ",
        "ັດ"
      ],
      [
        "ື",
        "ອງ"
      ],
      [
        "G",
        "DP"
      ],
      [
        "ວ",
        "ັດ"
      ],
      [
        "ແ",
        "ລ້"
      ],
      [
        "ແລ້",
        "ວ"
      ],
      [
        "ລ",
        "າຍ"
      ],
      [
        "ເ",
        "ນ"
      ],
      [
        "a",
        "r"
      ],
      [
        "ໍ",
        "້"
      ],
      [
        "ຊ",
        "ິກ"
      ],
      [
        "ຊ",
        "້"
      ],
      [
        "ແ",
        "ຂ"
      ],
      [
        "ລົງ",
        "ທຶນ"
      ],
      [
        "ປະ",
        "ຕິ"
      ],
      [
        "ຫວ",
        "່າງ"
      ],
      [
        "a",
        "l"
      ],
      [
        "ບ",
        "ົດ"
      ],
      [
        "ົ",
        "່ວ"
      ],
      [
        "ສ",
        "ັງ"
      ],
      [
        "ສ",
        "ິນ"
      ],
      [
        "ວ",
        "າງ"
      ],
      [
        "ອ",
        "ັດ"
      ],
      [
        "ພ",
        "ຽງ"
      ],
      [
        "ວ",
        "ົງ"
      ],
      [
        "ທະ",
        "ນາ"
      ],
      [
        "ົ",
        "່າ"
      ],
      [
        "%",
        "."
      ],
      [
        "3",
        "0"
      ],
      [
        "ຊ",
        "ຽນ"
      ],
      [
        "າ",
        "ທິ"
      ],
      [
        "ແ",
        "ກ່"
      ],
      [
        "ື່",
        "ອງ"
      ],
      [
        "ທ",
        "ັງ"
      ],
      [
        "201",
        "5"
      ],
      [
        "1",
        "1"
      ],
      [
        "ຂ",
        "ໍ້"
      ],
      [
        "ດ້",
        "ານ"
      ],
      [
        "ື",
        "ນ"
      ],
      [
        "1",
        "2"
      ],
      [
        "ນ",
        "້"
      ],
      [
        "ເ",
        "ນີ"
      ],
      [
        "ຮ",
        "ງ"
      ],
      [
        "ປ",
        "່"
      ],
      [
        "ຫ",
        "ຍ"
      ],
      [
        "ອ",
        "ັນ"
      ],
      [
        "ປະ",
        "ຈຸ"
      ],
      [
        "ໃ",
        "ຊ້"
      ],
      [
        "ບໍ",
        "ດີ"
      ],
      [
        "o",
        "r"
      ],
      [
        "ເນີ",
        "ນ"
      ],
      [
        "ແຜ",
        "ນ"
      ],
      [
        "201",
        "8"
      ],
      [
        "ລ",
        "ິດ"
      ],
      [
        "ເຫ",
        "ັນ"
      ],
      [
        "ທ",
        "ົ່ວ"
      ],
      [
        "ເມ",
        "ືອງ"
      ],
      [
        "ພາ",
        "ກ"
      ],
      [
        "ມົນ",
        "ຕີ"
      ],
      [
        "ປະ",
        "ຊາ"
      ],
      [
        "່ວ",
        "າ"
      ],
      [
        "ປະກ",
        "ອບ"
      ],
      [
        "ເຮ",
        "ັດ"
      ],
      [
        "a",
        "m"
      ],
      [
        "ປະທານ",
        "າທິ"
      ],
      [
        "ຜ",
        "ະ"
      ],
      [
        "ູ",
        "ດ"
      ],
      [
        "ລັດຖະ",
        "ມົນຕີ"
      ],
      [
        "ຍ",
        "ົກ"
      ],
      [
        "ປະທານາທິ",
        "ບໍດີ"
      ],
      [
        "ເອ",
        "ົາ"
      ],
      [
        "ຫຼ",
        "າຍ"
      ],
      [
        "ບ",
        "ານ"
      ],
      [
        "ໃນ",
        "ປີ"
      ],
      [
        "ຽ",
        "ມ"
      ],
      [
        "ກ",
        "່ວາ"
      ],
      [
        "້າ",
        "ຍ"
      ],
      [
        "ວັນ",
        "ທີ"
      ],
      [
        "ໃ",
        "ຈ"
      ],
      [
        "ຕ",
        "ົວ"
      ],
      [
        "ມ",
        "າດ"
      ],
      [
        "ຕ",
        "້ອງ"
      ],
      [
        "ໝ",
        "່"
      ],
      [
        "ພັດ",
        "ທະນາ"
      ],
      [
        "້ອ",
        "ມ"
      ],
      [
        "ພ",
        "ົວ"
      ],
      [
        "້",
        "ານ"
      ],
      [
        "ສ",
        "າດ"
      ],
      [
        "ບໍ",
        "ລິ"
      ],
      [
        "ໃ",
        "ໝ່"
      ],
      [
        "ື່",
        "ອນ"
      ],
      [
        "ຽ",
        "ກ"
      ],
      [
        "ເຈ",
        "ົ້າ"
      ],
      [
        "201",
        "2"
      ],
      [
        "ກ",
        "າຍ"
      ],
      [
        "ຝ",
        "່າຍ"
      ],
      [
        "ຄ",
        "ຳ"
      ],
      [
        "ລ",
        "ວມ"
      ],
      [
        "ກ່ຽວ",
        "ກັບ"
      ],
      [
        "ລິ",
        "ກາ"
      ],
      [
        "ຫ",
        "ົວ"
      ],
      [
        "ປະຕິ",
        "ບັດ"
      ],
      [
        "201",
        "3"
      ],
      [
        "5",
        "0"
      ],
      [
        "e",
        "n"
      ],
      [
        "ມ",
        "ູນ"
      ],
      [
        "ອ",
        "ົງ"
      ],
      [
        "ກ",
        "ົດ"
      ],
      [
        "ຫ",
        "ງ"
      ],
      [
        "ຸ",
        "ນ"
      ],
      [
        "ເວ",
        "ລາ"
      ],
      [
        "ອາ",
        "ເມ"
      ],
      [
        "1",
        "3"
      ],
      [
        "ແ",
        "ດ"
      ],
      [
        "ໂຄງ",
        "ການ"
      ],
      [
        "ບ",
        "າດ"
      ],
      [
        "e",
        "t"
      ],
      [
        "ອາເມ",
        "ລິກາ"
      ],
      [
        "ີ",
        "ດ"
      ],
      [
        "%",
        ","
      ],
      [
        "ຸ",
        "່ມ"
      ],
      [
        "ພ",
        "້ອມ"
      ],
      [
        "ແ",
        "ຮງ"
      ],
      [
        "ກ",
        "າງ"
      ],
      [
        "ໄດ້",
        "ຮັບ"
      ],
      [
        "ທ",
        "່"
      ],
      [
        "ປ",
        "າ"
      ],
      [
        "ຊ",
        "ະ"
      ],
      [
        "201",
        "4"
      ],
      [
        "ກ່",
        "ອນ"
      ],
      [
        "ແ",
        "ນ"
      ],
      [
        "e",
        "l"
      ],
      [
        "ຈ",
        "ີນ"
      ],
      [
        "ລ",
        "ີ"
      ],
      [
        "ສ",
        "ື"
      ],
      [
        "ສະ",
        "ມາ"
      ],
      [
        "ເຕີບ",
        "ໂຕ"
      ],
      [
        "ຄ",
        "່າ"
      ],
      [
        "ຊ",
        "ຸດ"
      ],
      [
        "ື",
        "ອ"
      ],
      [
        "E",
        "C"
      ],
      [
        "ກອງ",
        "ປະຊຸມ"
      ],
      [
        "ອ",
        "ະ"
      ],
      [
        "ວ",
        "ກ"
      ],
      [
        "ເຊ",
        "ິ່ງ"
      ],
      [
        "ສ",
        "າມ"
      ],
      [
        "ຫ",
        "ານ"
      ],
      [
        "ເທ",
        "ົ່າ"
      ],
      [
        "ກ",
        "່າວ"
      ],
      [
        "ເພີ່ມ",
        "ຂຶ້ນ"
      ],
      [
        "2",
        "1"
      ],
      [
        "ອ",
        "ິດ"
      ],
      [
        "ລະ",
        "ຫວ່າງ"
      ],
      [
        "ແຂ",
        "ວງ"
      ],
      [
        "ຄ",
        "ອນ"
      ],
      [
        "ລ",
        "ັງ"
      ],
      [
        "ພ",
        "ວມ"
      ],
      [
        "1",
        "5"
      ],
      [
        "ທ",
        "ຸກ"
      ],
      [
        "ແ",
        "ບ"
      ],
      [
        "o",
        "v"
      ],
      [
        "່ວ",
        "ຍ"
      ],
      [
        "ເຊ",
        "ຍ"
      ],
      [
        "ວ",
        "າ"
      ],
      [
        "ສ",
        "ານ"
      ],
      [
        "A",
        "P"
      ],
      [
        "ສ",
        "ັດ"
      ],
      [
        "ນ",
        "າຍ"
      ],
      [
        "ວ",
        "ຽນ"
      ],
      [
        "ຜະ",
        "ລິດ"
      ],
      [
        "ຕ",
        "ົກ"
      ],
      [
        "ຊາ",
        "ວ"
      ],
      [
        "ຍ",
        "າກ"
      ],
      [
        "ນ້",
        "ຳ"
      ],
      [
        "ແ",
        "ກ"
      ],
      [
        "ສະ",
        "ໜ"
      ],
      [
        "ຄ",
        "ັນ"
      ],
      [
        "ຮ",
        "ູ້"
      ],
      [
        "ຢ",
        "ືນ"
      ],
      [
        "ື້",
        "ອ"
      ],
      [
        "T",
        "r"
      ],
      [
        "ສາ",
        "ຫະ"
      ],
      [
        "ສະມາ",
        "ຊິກ"
      ],
      [
        "2",
        "5"
      ],
      [
        "ກ",
        "ວມ"
      ],
      [
        "ຂ",
        "ັ້ນ"
      ],
      [
        "ວ",
        "ຽກ"
      ],
      [
        "ໄ",
        "ຫວ"
      ],
      [
        "ເຄ",
        "ື່ອນ"
      ],
      [
        "ສັນ",
        "ຍາ"
      ],
      [
        "ຫລ",
        "າຍ"
      ],
      [
        "ອັດ",
        "ຕາ"
      ],
      [
        "ທ",
        "າ"
      ],
      [
        "້",
        "ອນ"
      ],
      [
        "s",
        "t"
      ],
      [
        "ີ",
        "້"
      ],
      [
        "ປ",
        "ຸ"
      ],
      [
        "ເອ",
        "ີ"
      ],
      [
        "1",
        "8"
      ],
      [
        "ຮ",
        "ອງ"
      ],
      [
        "ຄ",
        "າ"
      ],
      [
        "ເ",
        "ຫຼ"
      ],
      [
        "ສະ",
        "ຫະ"
      ],
      [
        "ຫຼ",
        "ັງ"
      ],
      [
        "ອາ",
        "ຊຽນ"
      ],
      [
        "ດ",
        "ັ່ງ"
      ],
      [
        "ໝ",
        "ັ້ນ"
      ],
      [
        "ຶ",
        "ກ"
      ],
      [
        "ໝ",
        "າກ"
      ],
      [
        "ຢ",
        "້"
      ],
      [
        "ົ",
        "່ງ"
      ],
      [
        "ພື້ນ",
        "ຖານ"
      ],
      [
        "ສ",
        "ູນ"
      ],
      [
        "ຈ",
        "ຸດ"
      ],
      [
        "ວ",
        "ິດ"
      ],
      [
        "ສ",
        "ີ"
      ],
      [
        "ື່",
        "ນ"
      ],
      [
        "ເລ",
        "ັດ"
      ],
      [
        "AP",
        "EC"
      ],
      [
        "1",
        "4"
      ],
      [
        "ມ",
        "ັນ"
      ],
      [
        "ລ",
        "ົບ"
      ],
      [
        "ເຫ",
        "ດ"
      ],
      [
        "m",
        "p"
      ],
      [
        "ຄະ",
        "ນະ"
      ],
      [
        "ວ",
        "ດ"
      ],
      [
        "ສ",
        "ອງ"
      ],
      [
        "ັ",
        "່ນ"
      ],
      [
        "ເ",
        "ຕ"
      ],
      [
        "ພົວ",
        "ພັນ"
      ],
      [
        "ຢ້",
        "ຽມ"
      ],
      [
        "ຢ",
        "າມ"
      ],
      [
        "ອ",
        "າຍ"
      ],
      [
        "ເທ",
        "ື່ອ"
      ],
      [
        ")",
        "."
      ],
      [
        "201",
        "1"
      ],
      [
        "ຊ",
        "່ວຍ"
      ],
      [
        "ປ່",
        "ຽນ"
      ],
      [
        "ລ",
        "ັບ"
      ],
      [
        "ຫງ",
        "ວຽນ"
      ],
      [
        "ກ",
        "ຸ່ມ"
      ],
      [
        "ເ",
        "ອກ"
      ],
      [
        "ສ",
        "ິ"
      ],
      [
        "ອ",
        "ຍ"
      ],
      [
        "Tr",
        "u"
      ],
      [
        "ສ",
        "າກ"
      ],
      [
        "ແ",
        "ທ"
      ],
      [
        "ນາຍ",
        "ົກ"
      ],
      [
        "ການ",
        "ຄ້າ"
      ],
      [
        "ສື",
        "ບ"
      ],
      [
        "ເ",
        "ວັນ"
      ],
      [
        "ໄ",
        "ຂ"
      ],
      [
        "ໄ",
        "ຕ"
      ],
      [
        "ເລ",
        "ກ"
      ],
      [
        "ຈ",
[...]
