{
  "version": "1.0",
  "truncation": null,
  "padding": null,
  "added_tokens": [
    {
      "id": 0,
      "content": "<pad>",
      "single_word": false,
      "lstrip": false,
      "rstrip": false,
      "normalized": false,
      "special": true
    },
    {
      "id": 1,
      "content": "<s>",
      "single_word": false,
      "lstrip": false,
      "rstrip": false,
      "normalized": false,
      "special": true
    },
    {
      "id": 2,
      "content": "</s>",
      "single_word": false,
      "lstrip": false,
      "rstrip": false,
      "normalized": false,
      "special": true
    },
    {
      "id": 3,
      "content": "<unk>",
      "single_word": false,
      "lstrip": false,
      "rstrip": false,
      "normalized": false,
      "special": true
    }
  ],
  "normalizer": null,
  "pre_tokenizer": {
    "type": "Whitespace"
  },
  "post_processor": null,
  "decoder": null,
  "model": {
    "type": "BPE",
    "dropout": null,
    "unk_token": "<unk>",
    "continuing_subword_prefix": null,
    "end_of_word_suffix": null,
    "fuse_unk": false,
    "byte_fallback": false,
    "ignore_merges": false,
    "vocab": {
      "<pad>": 0,
      "<s>": 1,
      "</s>": 2,
      "<unk>": 3,
      "!": 4,
      "\"": 5,
      "%": 6,
      "&": 7,
      "'": 8,
      "(": 9,
      ")": 10,
      "*": 11,
      "+": 12,
      ",": 13,
      "-": 14,
      ".": 15,
      "/": 16,
      "0": 17,
      "1": 18,
      "2": 19,
      "3": 20,
      "4": 21,
      "5": 22,
      "6": 23,
      "7": 24,
      "8": 25,
      "9": 26,
      ":": 27,
      ";": 28,
      "=": 29,
      "?": 30,
      "@": 31,
      "A": 32,
      "B": 33,
      "C": 34,
      "D": 35,
      "E": 36,
      "F": 37,
      "G": 38,
      "H": 39,
      "I": 40,
      "J": 41,
      "K": 42,
      "L": 43,
      "M": 44,
      "N": 45,
      "O": 46,
      "P": 47,
      "Q": 48,
      "R": 49,
      "S": 50,
      "T": 51,
      "U": 52,
      "V": 53,
      "W": 54,
      "X": 55,
      "Y": 56,
      "Z": 57,
      "_": 58,
      "a": 59,
      "b": 60,
      "c": 61,
      "d": 62,
      "e": 63,
      "f": 64,
      "g": 65,
      "h": 66,
      "i": 67,
      "j": 68,
      "k": 69,
      "l": 70,
      "m": 71,
      "n": 72,
      "o": 73,
      "p": 74,
      "q": 75,
      "r": 76,
      "s": 77,
      "t": 78,
      "u": 79,
      "v": 80,
      "w": 81,
      "x": 82,
      "y": 83,
      "z": 84,
      "Á": 85,
      "Â": 86,
      "Í": 87,
      "Ô": 88,
      "Ú": 89,
      "Ý": 90,
      "à": 91,
      "á": 92,
      "â": 93,
      "ã": 94,
      "è": 95,
      "é": 96,
      "ê": 97,
      "ì": 98,
      "í": 99,
      "ò": 100,
      "ó": 101,
      "ô": 102,
      "õ": 103,
      "ù": 104,
      "ú": 105,
      "ý": 106,
      "Ă": 107,
      "ă": 108,
      "Đ": 109,
      "đ": 110,
      "ĩ": 111,
      "ũ": 112,
      "ơ": 113,
      "Ư": 114,
      "ư": 115,
      "ạ": 116,
      "Ả": 117,
      "ả": 118,
      "Ấ": 119,
      "ấ": 120,
      "ầ": 121,
      "ẩ": 122,
      "ẫ": 123,
      "ậ": 124,
      "ắ": 125,
      "ằ": 126,
      "ẳ": 127,
      "ẵ": 128,
      "ặ": 129,
      "ẹ": 130,
      "ẻ": 131,
      "ẽ": 132,
      "ế": 133,
      "ề": 134,
      "ể": 135,
      "ễ": 136,
      "ệ": 137,
      "ỉ": 138,
      "ị": 139,
      "ọ": 140,
      "ỏ": 141,
      "ố": 142,
      "ồ": 143,
      "ổ": 144,
      "ỗ": 145,
      "ộ": 146,
      "ớ": 147,
      "ờ": 148,
      "Ở": 149,
      "ở": 150,
      "ỡ": 151,
      "ợ": 152,
      "ụ": 153,
      "Ủ": 154,
      "ủ": 155,
      "Ứ": 156,
      "ứ": 157,
      "ừ": 158,
      "ử": 159,
      "ữ": 160,
      "ự": 161,
      "ỳ": 162,
      "ỷ": 163,
      "ỹ": 164,
      "–": 165,
      "“": 166,
      "”": 167,
      "⁇": 168,
      "ng": 169,
      "nh": 170,
      "th": 171,
      "tr": 172,
      "ch": 173,
      "iệ": 174,
      "20": 175,
      "ăm": 176,
      "kh": 177,
      "và": 178,
      "qu": 179,
      "năm": 180,
      "ph": 181,
      "gi": 182,
      "ới": 183,
      "am": 184,
      "ên": 185,
      "ong": 186,
      "201": 187,
      "ại": 188,
      "củ": 189,
      "của": 190,
      "iệt": 191,
      "ướ": 192,
      "ông": 193,
      "ác": 194,
      "iế": 195,
      "Nam": 196,
      "an": 197,
      "trong": 198,
      "Việt": 199,
      "00": 200,
      "ốc": 201,
      "ước": 202,
      "là": 203,
      "ất": 204,
      "với": 205,
      "ội": 206,
      "ượ": 207,
      "ày": 208,
      "ân": 209,
      "ầu": 210,
      "có": 211,
      "ngh": 212,
      "ườ": 213,
      "iên": 214,
      "ăng": 215,
      "Tr": 216,
      "các": 217,
      "inh": 218,
      "ành": 219,
      "iện": 220,
      "iể": 221,
      "ươ": 222,
      "ương": 223,
      "nước": 224,
      "đã": 225,
      "uy": 226,
      "Th": 227,
      "ần": 228,
      "ực": 229,
      "ức": 230,
      "ạt": 231,
      "tăng": 232,
      "ai": 233,
      "ược": 234,
      "đầu": 235,
      "tỷ": 236,
      "ến": 237,
      "ình": 238,
      "ổng": 239,
      "US": 240,
      "USD": 241,
      "ao": 242,
      "Ng": 243,
      "Ch": 244,
      "ảng": 245,
      "được": 246,
      "phá": 247,
      "tế": 248,
      "từ": 249,
      "iến": 250,
      "ính": 251,
      "ơn": 252,
      "tại": 253,
      "Qu": 254,
      "ười": 255,
      "oà": 256,
      "đạt": 257,
      "áng": 258,
      "người": 259,
      "ung": 260,
      "iề": 261,
      "hội": 262,
      "iệu": 263,
      "cho": 264,
      "độ": 265,
      "quốc": 266,
      "hơn": 267,
      "ống": 268,
      "đó": 269,
      "ngày": 270,
      "ối": 271,
      "ồng": 272,
      "dự": 273,
      "ra": 274,
      "ết": 275,
      "iển": 276,
      "đến": 277,
      "ản": 278,
      "thành": 279,
      "anh": 280,
      "Quốc": 281,
      "số": 282,
      "ập": 283,
      "ưở": 284,
      "ưởng": 285,
      "ti": 286,
      "xu": 287,
      "ay": 288,
      "iệp": 289,
      "công": 290,
      "iều": 291,
      "do": 292,
      "thu": 293,
      "đồng": 294,
      "tháng": 295,
      "đị": 296,
      "gia": 297,
      "ùng": 298,
      "19": 299,
      "quan": 300,
      "kinh": 301,
      "vào": 302,
      "ận": 303,
      "kho": 304,
      "ây": 305,
      "ục": 306,
      "ộc": 307,
      "ang": 308,
      "oàn": 309,
      "000": 310,
      "xuất": 311,
      "êu": 312,
      "10": 313,
      "trưởng": 314,
      "ách": 315,
      "ạch": 316,
      "on": 317,
      "tư": 318,
      "quy": 319,
      "ịch": 320,
      "ền": 321,
      "Nh": 322,
      "Ph": 323,
      "ường": 324,
      "về": 325,
      "ho": 326,
      "áo": 327,
      "thứ": 328,
      "ải": 329,
      "án": 330,
      "thống": 331,
      "triệu": 332,
      "ấn": 333,
      "nghiệp": 334,
      "động": 335,
      "Ảnh": 336,
      "khoảng": 337,
      "Tổng": 338,
      "định": 339,
      "cu": 340,
      "phát": 341,
      "dân": 342,
      "óa": 343,
      "ấp": 344,
      "ợp": 345,
      "hiện": 346,
      "ễn": 347,
      "họ": 348,
      "triển": 349,
      "này": 350,
      "sẽ": 351,
      "hợp": 352,
      "ảo": 353,
      "như": 354,
      "ững": 355,
      "qua": 356,
      "2020": 357,
      "Mỹ": 358,
      "nghị": 359,
      "so": 360,
      "tổng": 361,
      "khẩ": 362,
      "ật": 363,
      "nhất": 364,
      "àng": 365,
      "eo": 366,
      "Hội": 367,
      "khẩu": 368,
      "er": 369,
      "ũng": 370,
      "im": 371,
      "ột": 372,
      "tiêu": 373,
      "sản": 374,
      "ốn": 375,
      "cao": 376,
      "đề": 377,
      "ạo": 378,
      "tác": 379,
      "chính": 380,
      "iệm": 381,
      "Trung": 382,
      "lần": 383,
      "al": 384,
      "iệc": 385,
      "viên": 386,
      "cả": 387,
      "2016": 388,
      "au": 389,
      "2017": 390,
      "chỉ": 391,
      "để": 392,
      "ảm": 393,
      "mức": 394,
      "gần": 395,
      "ạn": 396,
      "AS": 397,
      "Trong": 398,
      "trên": 399,
      "thể": 400,
      "DP": 401,
      "một": 402,
      "thương": 403,
      "khi": 404,
      "việc": 405,
      "ăn": 406,
      "ời": 407,
      "giới": 408,
      "ọng": 409,
      "ướng": 410,
      "GDP": 411,
      "cũng": 412,
      "cử": 413,
      "200": 414,
      "di": 415,
      "ượng": 416,
      "hai": 417,
      "mới": 418,
      "nay": 419,
      "ASE": 420,
      "kết": 421,
      "nhân": 422,
      "chức": 423,
      "cuộc": 424,
      "thế": 425,
      "doanh": 426,
      "sự": 427,
      "mạ": 428,
      "ia": 429,
      "nhà": 430,
      "??": 431,
      "mại": 432,
      "tiế": 433,
      "vốn": 434,
      "kỳ": 435,
      "AN": 436,
      "hàng": 437,
      "uyên": 438,
      "ASEAN": 439,
      "những": 440,
      "giá": 441,
      "ổi": 442,
      "thực": 443,
      "ne": 444,
      "vực": 445,
      "không": 446,
      "âu": 447,
      "tới": 448,
      "ài": 449,
      "hệ": 450,
      "%.": 451,
      "đối": 452,
      "30": 453,
      "11": 454,
      "ar": 455,
      "Năm": 456,
      "2015": 457,
      "oại": 458,
      "hóa": 459,
      "ngạch": 460,
      "cùng": 461,
      "tí": 462,
      "ào": 463,
      "iết": 464,
      "iểu": 465,
      "toàn": 466,
      "giảm": 467,
      "ộng": 468,
      "12": 469,
      "ái": 470,
      "nhiều": 471,
      "2018": 472,
      "Liên": 473,
      "ứng": 474,
      "nhiệm": 475,
      "cơ": 476,
      "òn": 477,
      "tiếp": 478,
      "tham": 479,
      "lu": 480,
      "ữa": 481,
      "khu": 482,
      "kim": 483,
      "chủ": 484,
      "ấu": 485,
      "lên": 486,
      "el": 487,
      "trọng": 488,
      "đại": 489,
      "trị": 490,
      "hành": 491,
      "Chủ": 492,
      "lã": 493,
      "lập": 494,
      "%,": 495,
      "úc": 496,
      "lực": 497,
      "tổ": 498,
      "pháp": 499,
      "trình": 500,
      "ôn": 501,
      "Hà": 502,
      "ằng": 503,
      "đo": 504,
      "iểm": 505,
      "tịch": 506,
      "2012": 507,
      "Thủ": 508,
      "tướng": 509,
      "xã": 510,
      "50": 511,
      "vụ": 512,
      "thông": 513,
      "cấp": 514,
      "ký": 515,
      "2013": 516,
      "Bộ": 517,
      "thời": 518,
      "đoạn": 519,
      "còn": 520,
      "ôi": 521,
      "phủ": 522,
      "Chính": 523,
      "oài": 524,
      "lớ": 525,
      "bình": 526,
      "hoạch": 527,
      "lệ": 528,
      "II": 529,
      "ặt": 530,
      "quả": 531,
      "mục": 532,
      "nhập": 533,
      "lớn": 534,
      "báo": 535,
      "Theo": 536,
      "quyết": 537,
      "chiến": 538,
      "chiế": 539,
      "ỉnh": 540,
      "2014": 541,
      "áp": 542,
      "ặc": 543,
      "quyền": 544,
      "át": 545,
      "làm": 546,
      "ánh": 547,
      "đà": 548,
      "đang": 549,
      "sau": 550,
      "EC": 551,
      "ưa": 552,
      "tích": 553,
      "lượng": 554,
      "giữa": 555,
      "minh": 556,
      "giai": 557,
      "dựng": 558,
      "biểu": 559,
      "sử": 560,
      "sách": 561,
      "21": 562,
      "châu": 563,
      "xây": 564,
      "Nguy": 565,
      "bị": 566,
      "Ngày": 567,
      "lãnh": 568,
      "in": 569,
      "kiến": 570,
      "òng": 571,
      "Nguyễn": 572,
      "AP": 573,
      "âm": 574,
      "diễn": 575,
      "phương": 576,
      "15": 577,
      "trường": 578,
      ").": 579,
      "nhận": 580,
      "..": 581,
      "phải": 582,
      "theo": 583,
      "tiên": 584,
      "en": 585,
      "dụ": 586,
      "25": 587,
      "chiếm": 588,
      "ngoài": 589,
      "lại": 590,
      "tạo": 591,
      "học": 592,
      "đây": 593,
      "bố": 594,
      "thức": 595,
      "Đảng": 596,
      "hiệu": 597,
      "đạo": 598,
      "vùng": 599,
      "gó": 600,
      "Đại": 601,
      "18": 602,
      "úng": 603,
      "OV": 604,
      "ẫn": 605,
      "APEC": 606,
      "ter": 607,
      "diện": 608,
      "tục": 609,
      "òa": 610,
      "um": 611,
      "kiện": 612,
      "thăm": 613,
      "13": 614,
      "hình": 615,
      "VOV": 616,
      "tin": 617,
      "kỷ": 618,
      "đổi": 619,
      "trước": 620,
      "chuy": 621,
      "or": 622,
      "ắc": 623,
      "bộ": 624,
      "hộ": 625,
      "giao": 626,
      "as": 627,
      "khóa": 628,
      "2011": 629,
      "hoạt": 630,
      "iếu": 631,
      "dụng": 632,
      "góp": 633,
      "ban": 634,
      "thị": 635,
      "trở": 636,
      "nông": 637,
      "bầu": 638,
      "tỉnh": 639,
      "khai": 640,
      "thuận": 641,
      "bảo": 642,
      "cầu": 643,
      "100": 644,
      "điều": 645,
      "17": 646,
      "họp": 647,
      "phố": 648,
      "nền": 649,
      "giải": 650,
      "kế": 651,
      "il": 652,
      "ủng": 653,
      "rằng": 654,
      "liên": 655,
      "dịch": 656,
      "Trum": 657,
      "vi": 658,
      "Cộng": 659,
      "quân": 660,
      "ừa": 661,
      "mà": 662,
      "tu": 663,
      "co": 664,
      "ran": 665,
      "Đông": 666,
      "út": 667,
      "đoàn": 668,
      "phiếu": 669,
      "đưa": 670,
      "mạnh": 671,
      "is": 672,
      "ượt": 673,
      "Trump": 674,
      "In": 675,
      "vấn": 676,
      "Nga": 677,
      "tự": 678,
      "ắt": 679,
      "tranh": 680,
      "biết": 681,
      "con": 682,
      "14": 683,
      "biệt": 684,
      "iền": 685,
      "điểm": 686,
      "VOV5": 687,
      "óng": 688,
      "đóng": 689,
      "60": 690,
      "trợ": 691,
      "nhưng": 692,
      "Công": 693,
      "lịch": 694,
      "văn": 695,
      "),": 696,
      "ad": 697,
      "đăng": 698,
      "????": 699,
      "ỗi": 700,
      "Âu": 701,
      "mạng": 702,
      "ếu": 703,
      "Hiện": 704,
      "ồi": 705,
      "Don": 706,
      "Kh": 707,
      "Ông": 708,
      "Gi": 709,
      "ĩnh": 710,
      "ẳng": 711,
      "500": 712,
      "Ho": 713,
      "tiến": 714,
      "đánh": 715,
      "2019": 716,
      "Kỳ": 717,
      "trung": 718,
      "đặc": 719,
      "thủ": 720,
      "trực": 721,
      "ald": 722,
      "họa": 723,
      "Donald": 724,
      "kể": 725,
      "us": 726,
      "ngành": 727,
      "phần": 728,
      "EU": 729,
      "Nội": 730,
      "em": 731,
      "thảo": 732,
      "ẩm": 733,
      "ốt": 734,
      "tính": 735,
      "đất": 736,
      "199": 737,
      "XII": 738,
      "Lào": 739,
      "thúc": 740,
      "giáo": 741,
      "bên": 742,
      "Anh": 743,
      "hoàn": 744,
      "ồn": 745,
      "biển": 746,
      "bản": 747,
      "iê": 748,
      "lợ": 749,
      "Nhà": 750,
      "ẩy": 751,
      "ngoại": 752,
      "net": 753,
      "hòa": 754,
      "tâm": 755,
      "thường": 756,
      "phán": 757,
      "16": 758,
      "lĩnh": 759,
      "năng": 760,
      "chu": 761,
      "địa": 762,
      "đàm": 763,
      "ur": 764,
      "cuối": 765,
      "tấn": 766,
      "đẩy": 767,
      "Ngh": 768,
      "sĩ": 769,
      "Ủy": 770,
      "cách": 771,
      "Ban": 772,
      "tình": 773,
      "70": 774,
      "Biển": 775,
      "đấu": 776,
      "vừa": 777,
      "đảng": 778,
      "ỏa": 779,
      "ngân": 780,
      "phẩm": 781,
      "Inter": 782,
      "45": 783,
      "nghệ": 784,
      "40": 785,
      "gh": 786,
      "thiết": 787,
      "2021": 788,
      "thuế": 789,
      "luận": 790,
      "khí": 791,
      "Internet": 792,
      "es": 793,
      "ắng": 794,
      "Pháp": 795,
      "ấy": 796,
      "and": 797,
      "Hiệp": 798,
      "et": 799,
      "Bình": 800,
      "đi": 801,
      "ẩn": 802,
      "lao": 803,
      "chuyến": 804,
      "tập": 805,
      "chung": 806,
      "cứ": 807,
      "má": 808,
      "luật": 809,
      "Ba": 810,
      "gồ": 811,
      "hút": 812,
      "uyền": 813,
      "gồm": 814,
      "sinh": 815,
      "lợi": 816,
      "lễ": 817,
      "giành": 818,
      "thư": 819,
      "ha": 820,
      "hướng": 821,
      "tốc": 822,
      "óm": 823,
      "vẫn": 824,
      "gian": 825,
      "bắt": 826,
      "Hàn": 827,
      "chuẩn": 828,
      "khẳng": 829,
      "80": 830,
      "phòng": 831,
      "197": 832,
      "it": 833,
      "viện": 834,
      "èo": 835,
      "tộc": 836,
      "âng": 837,
      "nghèo": 838,
      "tôi": 839,
      "thỏa": 840,
      "chế": 841,
      "24": 842,
      "Co": 843,
      "chiều": 844,
      "khó": 845,
      "niệm": 846,
      "lý": 847,
      "đứng": 848,
      "ạm": 849,
      "28": 850,
      "Bản": 851,
      "bà": 852,
      "mặt": 853,
      "27": 854,
      "lược": 855,
      "trí": 856,
      "Cu": 857,
      "Tính": 858,
      "cáo": 859,
      "ắn": 860,
      "máy": 861,
      "đảm": 862,
      "2010": 863,
      "Văn": 864,
      "biến": 865,
      "sáng": 866,
      "đường": 867,
      "Ngoại": 868,
      "cảnh": 869,
      "chương": 870,
      "xuống": 871,
      "Nhật": 872,
      "nâng": 873,
      "su": 874,
      "điện": 875,
      "DI": 876,
      "at": 877,
      "mô": 878,
      "Từ": 879,
      "tài": 880,
      "...": 881,
      "iêng": 882,
      "Với": 883,
      "tuyên": 884,
      "Thái": 885,
      "23": 886,
      "Minh": 887,
      "nội": 888,
      "ìn": 889,
      "cứu": 890,
      "ton": 891,
      "truyền": 892,
      "ama": 893,
      "Nghị": 894,
      "bỏ": 895,
      "bao": 896,
      "ởi": 897,
      "FDI": 898,
      "ty": 899,
      "tương": 900,
      "đặt": 901,
      "ằm": 902,
      "khác": 903,
      "mỗi": 904,
      "TP": 905,
      "dài": 906,
      "hồi": 907,
      "oái": 908,
      "khách": 909,
      "nghĩ": 910,
      "du": 911,
      "quý": 912,
      "Xu": 913,
      "chí": 914,
      "22": 915,
      "26": 916,
      "Dự": 917,
      "Kinh": 918,
      "Lu": 919,
      "ing": 920,
      "om": 921,
      "Đến": 922,
      "ừng": 923,
      "dư": 924,
      "hết": 925,
      "mu": 926,
      "tốt": 927,
      "tín": 928,
      "Hiến": 929,
      "huy": 930,
      "bằng": 931,
      "Ob": 932,
      "song": 933,
      "ậy": 934,
      "Obama": 935,
      "vị": 936,
      "Iran": 937,
      "hỗ": 938,
      "thổ": 939,
      "chúng": 940,
      "khăn": 941,
      "thuộc": 942,
      "90": 943,
      "ba": 944,
      "cực": 945,
      "sở": 946,
      "Di": 947,
      "ưu": 948,
      "ảnh": 949,
      "ặp": 950,
      "vượt": 951,
      "nhóm": 952,
      "nghĩa": 953,
      "Sau": 954,
      "thiệt": 955,
      "thắng": 956,
      "chất": 957,
      "khiến": 958,
      "Hồ": 959,
      "ex": 960,
      "ir": 961,
      "ển": 962,
      "Bảo": 963,
      "198": 964,
      "đàn": 965,
      "duy": 966,
      "to": 967,
      "nguyên": 968,
      "thấy": 969,
      "tri": 970,
      "Các": 971,
      "Lan": 972,
      "gặp": 973,
      "mở": 974,
      "ta": 975,
      "đảo": 976,
      "ện": 977,
      "Dương": 978,
      "liệu": 979,
      "ngoái": 980,
      "TPP": 981,
      "ạng": 982,
      "cam": 983,
      "êm": 984,
      "ọi": 985,
      "chia": 986,
      "CP": 987,
      "bay": 988,
      "uồn": 989,
      "ưng": 990,
      "trò": 991,
      "phê": 992,
      "Hoa": 993,
      "tầ": 994,
      "tất": 995,
      "nó": 996,
      "ck": 997,
      "nổi": 998,
      "vững": 999,
      "tiền": 1000,
      "vì": 1001,
      "vid": 1002,
      "35": 1003,
      "Bí": 1004,
      "Kế": 1005,
      "UN": 1006,
      "tôn": 1007,
      "thấp": 1008,
      "nes": 1009,
      "Mo": 1010,
      "bước": 1011,
      "cường": 1012,
      "Chí": 1013,
      "Bara": 1014,
      "Luật": 1015,
      "Đối": 1016,
      "ạnh": 1017,
      "uro": 1018,
      "CO": 1019,
      "Tại": 1020,
      "kê": 1021,
      "ạc": 1022,
      "sang": 1023,
      "vai": 1024,
      "vậy": 1025,
      "Đức": 1026,
      "Trước": 1027,
      "đều": 1028,
      "29": 1029,
      "XI": 1030,
      "trẻ": 1031,
      "XIII": 1032,
      "cộng": 1033,
      "lo": 1034,
      "rộng": 1035,
      "ậu": 1036,
      "àu": 1037,
      "ổn": 1038,
      "phấn": 1039,
      "mạc": 1040,
      "Xuân": 1041,
      "bang": 1042,
      "ích": 1043,
      "thôn": 1044,
      "tuổi": 1045,
      "hạn": 1046,
      "mang": 1047,
      "nguồn": 1048,
      "thanh": 1049,
      "lượt": 1050,
      "rõ": 1051,
      "chống": 1052,
      "????????": 1053,
      "Br": 1054,
      "Tổ": 1055,
      "dấu": 1056,
      "sống": 1057,
      "gấp": 1058,
      "trì": 1059,
      "300": 1060,
      "Tây": 1061,
      "Tấn": 1062,
      "cần": 1063,
      "Phát": 1064,
      "nói": 1065,
      "Bắc": 1066,
      "bán": 1067,
      "Đây": 1068,
      "trao": 1069,
      "Diễn": 1070,
      "Báo": 1071,
      "ệt": 1072,
      "sát": 1073,
      "phóng": 1074,
      "400": 1075,
      "2025": 1076,
      "đa": 1077,
      "đương": 1078,
      "2009": 1079,
      "Những": 1080,
      "suất": 1081,
      "TA": 1082,
      "vòng": 1083,
      "Covid": 1084,
      "Kim": 1085,
      "Về": 1086,
      "dẫn": 1087,
      "kg": 1088,
      "si": 1089,
      "ỏi": 1090,
      "ữu": 1091,
      "bối": 1092,
      "ll": 1093,
      "vn": 1094,
      "phí": 1095,
      "dùng": 1096,
      "nhằm": 1097,
      "thêm": 1098,
      "chi": 1099,
      "nghiên": 1100,
      "từng": 1101,
      "VN": 1102,
      "ap": 1103,
      "dầu": 1104,
      "hưởng": 1105,
      "úp": 1106,
      "Cam": 1107,
      "Hu": 1108,
      "kiểm": 1109,
      "ri": 1110,
      "IP": 1111,
      "TX": 1112,
      "ạp": 1113,
      "giúp": 1114,
      "Thế": 1115,
      "Pu": 1116,
      "Tu": 1117,
      "yếu": 1118,
      "phục": 1119,
      "chuyển": 1120,
      "sứ": 1121,
      "yr": 1122,
      "Nhân": 1123,
      "Jo": 1124,
      "bền": 1125,
      "bài": 1126,
      "chưa": 1127,
      "31": 1128,
      "600": 1129,
      "Đồng": 1130,
      "ơi": 1131,
      "ọn": 1132,
      "tra": 1133,
      "Thành": 1134,
      "thuật": 1135,
      "cửa": 1136,
      "rất": 1137,
      "sức": 1138,
      "tên": 1139,
      "khoa": 1140,
      "An": 1141,
      "Cl": 1142,
      "FTA": 1143,
      "Vi": 1144,
      "loại": 1145,
      "ninh": 1146,
      "ít": 1147,
      "thi": 1148,
      "Trọng": 1149,
      "Chương": 1150,
      "Chiến": 1151,
      "độc": 1152,
      "OS": 1153,
      "ew": 1154,
      "ám": 1155,
      "đội": 1156,
      "khủng": 1157,
      "tử": 1158,
      "đình": 1159,
      "thất": 1160,
      "thiện": 1161,
      "Syr": 1162,
      "Tiế": 1163,
      "biện": 1164,
      "cá": 1165,
      "cạnh": 1166,
      "vệ": 1167,
      "vọng": 1168,
      "thượng": 1169,
      "đột": 1170,
      "Syria": 1171,
      "bất": 1172,
      "ké": 1173,
      "vật": 1174,
      "đỉnh": 1175,
      "soát": 1176,
      "ash": 1177,
      "Cách": 1178,
      "Dân": 1179,
      "ôm": 1180,
      "2030": 1181,
      "Phú": 1182,
      "Phúc": 1183,
      "dưới": 1184,
      "Al": 1185,
      "ah": 1186,
      "hữu": 1187,
      "nỗ": 1188,
      "uyến": 1189,
      "oàng": 1190,
      "ND": 1191,
      "bổ": 1192,
      "ed": 1193,
      "ép": 1194,
      "nhau": 1195,
      "khởi": 1196,
      "phiên": 1197,
      "TTX": 1198,
      "niên": 1199,
      "ấm": 1200,
      "tiếng": 1201,
      "TTXVN": 1202,
      "tan": 1203,
      "Nha": 1204,
      "Cấp": 1205,
      "Do": 1206,
      "Mal": 1207,
      "lời": 1208,
      "ệnh": 1209,
      "800": 1210,
      "CL": 1211,
      "Sa": 1212,
      "ca": 1213,
      "hậu": 1214,
      "os": 1215,
      "pu": 1216,
      "riêng": 1217,
      "ưỡ": 1218,
      "Chấp": 1219,
      "Barack": 1220,
      "55": 1221,
      "EF": 1222,
      "nhiên": 1223,
      "trồng": 1224,
      "trang": 1225,
      "chuyên": 1226,
      "1982": 1227,
      "Putin": 1228,
      "cải": 1229,
      "lad": 1230,
      "đô": 1231,
      "cổ": 1232,
      "may": 1233,
      "tượng": 1234,
      "tro": 1235,
      "chọn": 1236,
      "phân": 1237,
      "giữ": 1238,
      "Thị": 1239,
      "tuần": 1240,
      "New": 1241,
      "bu": 1242,
      "tồn": 1243,
      "nhanh": 1244,
      "hoảng": 1245,
      "Campu": 1246,
      "Campuchia": 1247,
      "biên": 1248,
      "dù": 1249,
      "gọi": 1250,
      "nợ": 1251,
      "nữa": 1252,
      "ét": 1253,
      "đốc": 1254,
      "ếp": 1255,
      "thì": 1256,
      "kéo": 1257,
      "bật": 1258,
      "dung": 1259,
      "hạt": 1260,
      "ip": 1261,
      "nào": 1262,
      "nếu": 1263,
      "Thương": 1264,
      "Nguyên": 1265,
      "700": 1266,
      "Fran": 1267,
      "Hải": 1268,
      "Re": 1269,
      "Tiên": 1270,
      "Tuyên": 1271,
      "cấu": 1272,
      "pi": 1273,
      "tinh": 1274,
      "uter": 1275,
      "vận": 1276,
      "xả": 1277,
      "xếp": 1278,
      "nhìn": 1279,
      "quá": 1280,
      "Chúng": 1281,
      "Phó": 1282,
      "2008": 1283,
      "Mi": 1284,
      "Par": 1285,
      "cung": 1286,
      "sung": 1287,
      "viết": 1288,
      "ửa": 1289,
      "phụ": 1290,
      "Triều": 1291,
      "Thượng": 1292,
      "Quảng": 1293,
      "alia": 1294,
      "ghi": 1295,
      "Cuba": 1296,
      "XIV": 1297,
      "Dũng": 1298,
      "bày": 1299,
      "cây": 1300,
      "te": 1301,
      "tàu": 1302,
      "đồ": 1303,
      "đáng": 1304,
      "trách": 1305,
      "ES": 1306,
      "Vlad": 1307,
      "bào": 1308,
      "da": 1309,
      "li": 1310,
      "miền": 1311,
      "nam": 1312,
      "sắc": 1313,
      "un": 1314,
      "giờ": 1315,
      "Ngân": 1316,
      "iềm": 1317,
      "đón": 1318,
      "imir": 1319,
      "sửa": 1320,
      "Vladimir": 1321,
      "DC": 1322,
      "Hoàng": 1323,
      "Is": 1324,
      "Sự": 1325,
      "TO": 1326,
      "Tỷ": 1327,
      "hay": 1328,
      "thoại": 1329,
      "Có": 1330,
      "Nếu": 1331,
      "az": 1332,
      "de": 1333,
      "ov": 1334,
      "thiểu": 1335,
      "thủy": 1336,
      "muốn": 1337,
      "Mỗi": 1338,
      "WEF": 1339,
      "cụ": 1340,
      "ou": 1341,
      "sia": 1342,
      "yêu": 1343,
      "ựu": 1344,
      "thách": 1345,
      "phối": 1346,
      "ghế": 1347,
      "37": 1348,
      "CH": 1349,
      "Tập": 1350,
      "Việc": 1351,
      "gây": 1352,
      "hạ": 1353,
      "km": 1354,
      "sâu": 1355,
      "ua": 1356,
      "xác": 1357,
      "xuyên": 1358,
      "ẹp": 1359,
      "trả": 1360,
      "Chỉ": 1361,
      "ela": 1362,
      "inton": 1363,
      "tầng": 1364,
      "Clinton": 1365,
      "Malay": 1366,
      "DCND": 1367,
      "CHDCND": 1368,
      "32": 1369,
      "67": 1370,
      "euro": 1371,
      "hiệp": 1372,
      "tối": 1373,
      "tái": 1374,
      "ậm": 1375,
      "Khu": 1376,
      "huyện": 1377,
      "exit": 1378,
      "Brexit": 1379,
      "Mar": 1380,
      "Tuy": 1381,
      "càng": 1382,
      "oi": 1383,
      "oo": 1384,
      "tưởng": 1385,
      "Tháng": 1386,
      "ore": 1387,
      "Malaysia": 1388,
      "Aus": 1389,
      "Lễ": 1390,
      "cán": 1391,
      "lục": 1392,
      "môi": 1393,
      "Điều": 1394,
      "ặng": 1395,
      "tralia": 1396,
      "khỏi": 1397,
      "Viet": 1398,
      "Australia": 1399,
      "36": 1400,
      "Ab": 1401,
      "le": 1402,
      "Đầu": 1403,
      "Phi": 1404,
      "132": 1405,
      "Hai": 1406,
      "Hơn": 1407,
      "My": 1408,
      "Sing": 1409,
      "dệt": 1410,
      "nối": 1411,
      "ìm": 1412,
      "đơn": 1413,
      "chú": 1414,
      "khổ": 1415,
      "Thanh": 1416,
      "Ngoài": 1417,
      "rau": 1418,
      "apore": 1419,
      "IPU": 1420,
      "ưỡng": 1421,
      "Singapore": 1422,
      "la": 1423,
      "Phil": 1424,
      "2006": 1425,
      "ande": 1426,
      "mua": 1427,
      "38": 1428,
      "47": 1429,
      "FP": 1430,
      "Hy": 1431,
      "Sh": 1432,
      "dục": 1433,
      "lạm": 1434,
      "mẽ": 1435,
      "mar": 1436,
      "nêu": 1437,
      "ủy": 1438,
      "Holl": 1439,
      "toán": 1440,
      "Isra": 1441,
      "Riêng": 1442,
      "cà": 1443,
      "tìm": 1444,
      "Ấn": 1445,
      "ọc": 1446,
      "tầm": 1447,
      "G20": 1448,
      "cư": 1449,
      "gắn": 1450,
      "hn": 1451,
      "mình": 1452,
      "Độ": 1453,
      "nhấn": 1454,
      "Thu": 1455,
      "khuôn": 1456,
      "1975": 1457,
      "Israel": 1458,
      "33": 1459,
      "bệnh": 1460,
      "ce": 1461,
      "gử": 1462,
      "đẹp": 1463,
      "khối": 1464,
      "giả": 1465,
      "Trương": 1466,
      "ary": 1467,
      "UNCL": 1468,
      "gửi": 1469,
      "UNCLOS": 1470,
      "Long": 1471,
      "dành": 1472,
      "vũ": 1473,
      "ầm": 1474,
      "Trần": 1475,
      "siêu": 1476,
      "98": 1477,
      "Hợp": 1478,
      "Kết": 1479,
      "gạo": 1480,
      "xe": 1481,
      "Để": 1482,
      "ắp": 1483,
      "phi": 1484,
      "cois": 1485,
      "Giám": 1486,
      "Reuter": 1487,
      "Philip": 1488,
      "Hollande": 1489,
      "Reuters": 1490,
      "Bo": 1491,
      "lửa": 1492,
      "sông": 1493,
      "va": 1494,
      "ngừng": 1495,
      "thần": 1496,
      "Thứ": 1497,
      "ill": 1498,
      "coi": 1499,
      "John": 1500,
      "\".": 1501,
      "95": 1502,
      "Mer": 1503,
      "ber": 1504,
      "câu": 1505,
      "nên": 1506,
      "xét": 1507,
      "ùa": 1508,
      "Đài": 1509,
      "Nhưng": 1510,
      "iêm": 1511,
      "CPTPP": 1512,
      "UNES": 1513,
      "Francois": 1514,
      "UNESCO": 1515,
      "Bà": 1516,
      "Ro": 1517,
      "binh": 1518,
      "ene": 1519,
      "hiểm": 1520,
      "kel": 1521,
      "luôn": 1522,
      "lệnh": 1523,
      "Merkel": 1524,
      "As": 1525,
      "Viện": 1526,
      "cựu": 1527,
      "ico": 1528,
      "Đặc": 1529,
      "chứng": 1530,
      "khả": 1531,
      "quán": 1532,
      "phù": 1533,
      "anmar": 1534,
      "Trưởng": 1535,
      "Quỹ": 1536,
      "phía": 1537,
      "Huế": 1538,
      "xảy": 1539,
      "Paris": 1540,
      "Myanmar": 1541,
      "75": 1542,
      "Lạp": 1543,
      "ko": 1544,
      "ly": 1545,
      "trưng": 1546,
      "hoặc": 1547,
      "Cuộc": 1548,
      "52": 1549,
      "Ai": 1550,
      "Cas": 1551,
      "Hòa": 1552,
      "La": 1553,
      "Me": 1554,
      "mốc": 1555,
      "nằm": 1556,
      "nguy": 1557,
      "34": 1558,
      "68": 1559,
      "Hồi": 1560,
      "IC": 1561,
      "bởi": 1562,
      "tay": 1563,
      "Đà": 1564,
      "ắm": 1565,
      "thay": 1566,
      "phản": 1567,
      "phạm": 1568,
      "1992": 1569,
      "CPI": 1570,
      "????????????????": 1571,
      "42": 1572,
      "Sang": 1573,
      "danh": 1574,
      "mất": 1575,
      "mối": 1576,
      "tệ": 1577,
      "đá": 1578,
      "đào": 1579,
      "chấp": 1580,
      "Triển": 1581,
      "one": 1582,
      "chiếc": 1583,
      "bàn": 1584,
      "Tuần": 1585,
      "Tiếp": 1586,
      "150": 1587,
      "46": 1588,
      "AM": 1589,
      "Cập": 1590,
      "Tiến": 1591,
      "bế": 1592,
      "bóng": 1593,
      "rút": 1594,
      "tuy": 1595,
      "vĩ": 1596,
      "xử": 1597,
      "đúng": 1598,
      "ngưỡng": 1599,
      "thờ": 1600,
      "trụ": 1601,
      "trái": 1602,
      "viet": 1603,
      "Cùng": 1604,
      "Một": 1605,
      "Và": 1606,
      "hải": 1607,
      "lạc": 1608,
      "đủ": 1609,
      "ọt": 1610,
      "nhỏ": 1611,
      "phép": 1612,
      "cuốn": 1613,
      "AFP": 1614,
      "Hạ": 1615,
      "Tăng": 1616,
      "cai": 1617,
      "hôm": 1618,
      "io": 1619,
      "lai": 1620,
      "nữ": 1621,
      "trận": 1622,
      "dones": 1623,
      "khoản": 1624,
      "hoan": 1625,
      "lãm": 1626,
      "Indones": 1627,
      "tựu": 1628,
      "pines": 1629,
      "Philippines": 1630,
      "Indonesia": 1631,
      "250": 1632,
      "43": 1633,
      "Ninh": 1634,
      "kỹ": 1635,
      "kêu": 1636,
      "mọi": 1637,
      "súng": 1638,
      "xung": 1639,
      "xem": 1640,
      "đáp": 1641,
      "thao": 1642,
      "quản": 1643,
      "Thổ": 1644,
      "Nhĩ": 1645,
      "Như": 1646,
      "2005": 1647,
      "48": 1648,
      "49": 1649,
      "54": 1650,
      "77": 1651,
      "Còn": 1652,
      "Lê": 1653,
      "Quy": 1654,
      "Tết": 1655,
      "bức": 1656,
      "hã": 1657,
      "id": 1658,
      "son": 1659,
      "ựa": 1660,
      "nghìn": 1661,
      "1945": 1662,
      "ington": 1663,
      "Castro": 1664,
      "63": 1665,
      "Bel": 1666,
      "ạy": 1667,
      "thiệu": 1668,
      "trạng": 1669,
      "phó": 1670,
      "phong": 1671,
      "Người": 1672,
      "tic": 1673,
      "lãi": 1674,
      "58": 1675,
      "65": 1676,
      "Ang": 1677,
      "Cơ": 1678,
      "Wash": 1679,
      "bắn": 1680,
      "man": 1681,
      "mời": 1682,
      "mùa": 1683,
      "vàng": 1684,
      "Nhóm": 1685,
      "Washington": 1686,
      "Nẵ": 1687,
      "bậ": 1688,
      "dạng": 1689,
      "ham": 1690,
      "lan": 1691,
      "lựa": 1692,
      "tắc": 1693,
      "uôi": 1694,
      "đời": 1695,
      "nhi": 1696,
      "thập": 1697,
      "2000": 1698,
      "arus": 1699,
      "istan": 1700,
      "Không": 1701,
      "aza": 1702,
      "Belarus": 1703,
      "Nẵng": 1704,
      "bậc": 1705,
      "53": 1706,
      "Lo": 1707,
      "Rom": 1708,
      "Sơn": 1709,
      "Tôi": 1710,
      "WTO": 1711,
      "bom": 1712,
      "gỗ": 1713,
      "se": 1714,
      "tức": 1715,
      "ễm": 1716,
      "nhu": 1717,
      "iếm": 1718,
      "Barak": 1719,
      "Tiếng": 1720,
      "Angela": 1721,
      "nhiễm": 1722,
      "59": 1723,
      "Bra": 1724,
      "Mục": 1725,
      "Pe": 1726,
      "bạn": 1727,
      "dị": 1728,
      "ei": 1729,
      "nuôi": 1730,
      "nhạc": 1731,
      "Thống": 1732,
      "aul": 1733,
      "Doanh": 1734,
      "Biên": 1735,
      "Can": 1736,
      "Lã": 1737,
      "dò": 1738,
      "lưu": 1739,
      "nơi": 1740,
      "Đó": 1741,
      "Trên": 1742,
      "Cụ": 1743,
      "Cử": 1744,
      "IM": 1745,
      "hại": 1746,
      "hạng": 1747,
      "ma": 1748,
      "rai": 1749,
      "tt": 1750,
      "tỏ": 1751,
      "Đáng": 1752,
      "ầy": 1753,
      "thùng": 1754,
      "khá": 1755,
      "2007": 1756,
      "Cr": 1757,
      "Mặc": 1758,
      "Vin": 1759,
      "cập": 1760,
      "lúc": 1761,
      "tố": 1762,
      "tuyến": 1763,
      "zil": 1764,
      "ẵn": 1765,
      "trào": 1766,
      "Thông": 1767,
      "Quân": 1768,
      "Phong": 1769,
      "ales": 1770,
      "Khi": 1771,
      "Giáo": 1772,
      "Moham": 1773,
      "hãng": 1774,
      "Brazil": 1775,
      "AI": 1776,
      "Af": 1777,
      "Bài": 1778,
      "Cat": 1779,
      "It": 1780,
      "NA": 1781,
      "Sam": 1782,
      "dan": 1783,
      "mong": 1784,
      "nạn": 1785,
      "rời": 1786,
      "sàng": 1787,
      "vay": 1788,
      "xóa": 1789,
      "úi": 1790,
      "Đào": 1791,
      "đua": 1792,
      "ngôn": 1793,
      "cha": 1794,
      "aly": 1795,
      "COP": 1796,
      "buộc": 1797,
      "130": 1798,
      "57": 1799,
      "CE": 1800,
      "Je": 1801,
      "Li": 1802,
      "Mor": 1803,
      "P5": 1804,
      "bia": 1805,
      "cục": 1806,
      "las": 1807,
      "sad": 1808,
      "Đề": 1809,
      "đổ": 1810,
      "nghề": 1811,
      "tine": 1812,
      "Phạm": 1813,
      "giám": 1814,
      "Assad": 1815,
      "tuyển": 1816,
      "99": 1817,
      "Euro": 1818,
      "kong": 1819,
      "Điện": 1820,
      "đôi": 1821,
      "anistan": 1822,
      "nghiêm": 1823,
      "ghanistan": 1824,
      "1973": 1825,
      "vietnam": 1826,
      "Cửu": 1827,
      "Afghanistan": 1828,
      "%;": 1829,
      "44": 1830,
      "85": 1831,
      "Ar": 1832,
      "Mad": 1833,
      "Raul": 1834,
      "Số": 1835,
      "Tòa": 1836,
      "ak": 1837,
      "cố": 1838,
      "cột": 1839,
      "lương": 1840,
      "ni": 1841,
      "sân": 1842,
      "suy": 1843,
      "sẵn": 1844,
      "tiểu": 1845,
      "tạp": 1846,
      "xấu": 1847,
      "ya": 1848,
      "áu": 1849,
      "thơ": 1850,
      "thải": 1851,
      "trương": 1852,
      "chặt": 1853,
      "khảo": 1854,
      "quần": 1855,
      "Trường": 1856,
      "ASEM": 1857,
      "1995": 1858,
      "Nghiên": 1859,
      "Xuất": 1860,
      "dịp": 1861,
      "IMF": 1862,
      "\",": 1863,
      "66": 1864,
      "Da": 1865,
      "Dấu": 1866,
      "Ma": 1867,
      "Xã": 1868,
      "cánh": 1869,
      "cấm": 1870,
      "kính": 1871,
      "mừng": 1872,
      "ry": 1873,
      "sk": 1874,
      "ven": 1875,
      "ụt": 1876,
      "ụy": 1877,
      "ứt": 1878,
      "thẳng": 1879,
      "nghiệm": 1880,
      "Thụy": 1881,
      "Chil": 1882,
      "hoa": 1883,
      "suốt": 1884,
      "duyệt": 1885,
      "Mekong": 1886,
      "Lãnh": 1887,
      "Chile": 1888,
      "62": 1889,
      "BR": 1890,
      "Bash": 1891,
      "Fa": 1892,
      "G7": 1893,
      "Tiền": 1894,
      "Ví": 1895,
      "ara": 1896,
      "bo": 1897,
      "hỏi": 1898,
      "kiếm": 1899,
      "lấy": 1900,
      "re": 1901,
      "sẻ": 1902,
      "stan": 1903,
      "tai": 1904,
      "tiềm": 1905,
      "ãi": 1906,
      "úa": 1907,
      "Thường": 1908,
      "2004": 1909,
      "lợn": 1910,
      "ook": 1911,
      "BRIC": 1912,
      "%/": 1913,
      "69": 1914,
      "Bao": 1915,
      "Car": 1916,
      "Du": 1917,
      "Hill": 1918,
      "Kể": 1919,
      "Nai": 1920,
      "Nico": 1921,
      "Pales": 1922,
      "Uk": 1923,
      "Ze": 1924,
      "bại": 1925,
      "dứt": 1926,
      "gỡ": 1927,
      "ràng": 1928,
      "tôm": 1929,
      "đầy": 1930,
      "tho": 1931,
      "thiên": 1932,
      "giàu": 1933,
      "làng": 1934,
      "Trắng": 1935,
      "aland": 1936,
      "chỉnh": 1937,
      "2003": 1938,
      "tiết": 1939,
      "ina": 1940,
      "raine": 1941,
      "Catal": 1942,
      "Palestine": 1943,
      "Ukraine": 1944,
      "Zealand": 1945,
      "39": 1946,
      "41": 1947,
      "51": 1948,
      "BH": 1949,
      "DA": 1950,
      "So": 1951,
      "Tài": 1952,
      "cắt": 1953,
      "lâu": 1954,
      "lâm": 1955,
      "land": 1956,
      "lúa": 1957,
      "sơ": 1958,
      "ớc": 1959,
      "thác": 1960,
      "thừa": 1961,
      "chị": 1962,
      "chắc": 1963,
      "quo": 1964,
      "Chuyến": 1965,
      "ASOS": 1966,
      "logi": 1967,
      "Italy": 1968,
      "Bashar": 1969,
      "BRICS": 1970,
      "ASOSAI": 1971,
      "120": 1972,
      "81": 1973,
      "97": 1974,
      "Mặt": 1975,
      "Te": 1976,
      "To": 1977,
      "eb": 1978,
      "han": 1979,
      "hát": 1980,
      "hủy": 1981,
      "stic": 1982,
      "yo": 1983,
      "Ước": 1984,
      "ợi": 1985,
      "chết": 1986,
      "phu": 1987,
      "phim": 1988,
      "Phòng": 1989,
      "ada": 1990,
      "Canada": 1991,
      "Hillary": 1992,
      "logistic": 1993,
      "logistics": 1994,
      "160": 1995,
      "82": 1996,
      "AR": 1997,
      "AIP": 1998,
      "Ker": 1999,
      "Lat": 2000,
      "Na": 2001,
      "Ri": 2002,
      "Si": 2003,
      "Tự": 2004,
      "book": 2005,
      "cận": 2006,
      "căn": 2007,
      "dong": 2008,
      "ine": 2009,
      "liệt": 2010,
      "lòng": 2011,
      "moi": 2012,
      "ro": 2013,
      "san": 2014,
      "tel": 2015,
      "xa": 2016,
      "xin": 2017,
      "zone": 2018,
      "ềm": 2019,
      "chẽ": 2020,
      "chel": 2021,
      "chấm": 2022,
      "Quang": 2023,
      "Phiên": 2024,
      "Vietnam": 2025,
      "cebook": 2026,
      "nguyện": 2027,
      "Mohamed": 2028,
      "AIPA": 2029,
      "02": 2030,
      "900": 2031,
      ";.": 2032,
      "Bỉ": 2033,
      "Mai": 2034,
      "Mah": 2035,
      "ODA": 2036,
      "Su": 2037,
      "Sĩ": 2038,
      "San": 2039,
      "Vũ": 2040,
      "Van": 2041,
      "ev": 2042,
      "gor": 2043,
      "mi": 2044,
      "sao": 2045,
      "sắp": 2046,
      "vu": 2047,
      "àn": 2048,
      "trừng": 2049,
      "quà": 2050,
      "phạt": 2051,
      "Quan": 2052,
      "Nhận": 2053,
      "gói": 2054,
      "Giang": 2055,
      "NATO": 2056,
      "Facebook": 2057,
      "72": 2058,
      "86": 2059,
      "CM": 2060,
      "Cổ": 2061,
      "Cục": 2062,
      "Goo": 2063,
      "Hùng": 2064,
      "Toàn": 2065,
      "Vương": 2066,
      "bảng": 2067,
      "gle": 2068,
      "hi": 2069,
      "ke": 2070,
      "mẹ": 2071,
      "rừng": 2072,
      "sóng": 2073,
      "vov": 2074,
      "đông": 2075,
      "ịnh": 2076,
      "nhậm": 2077,
      "thâm": 2078,
      "trăm": 2079,
      "chinh": 2080,
      "phe": 2081,
      "Châu": 2082,
      "onia": 2083,
      "Khánh": 2084,
      "Catalonia": 2085,
      "Google": 2086,
      ");": 2087,
      "94": 2088,
      "Air": 2089,
      "IS": 2090,
      "Ira": 2091,
      "Kiểm": 2092,
      "Kaza": 2093,
      "LH": 2094,
      "Mới": 2095,
      "cảng": 2096,
      "cel": 2097,
      "go": 2098,
      "hy": 2099,
      "m2": 2100,
      "rơi": 2101,
      "uel": 2102,
      "xanh": 2103,
      "Đoàn": 2104,
      "đạn": 2105,
      "ọa": 2106,
      "thụ": 2107,
      "thiếu": 2108,
      "khstan": 2109,
      "phú": 2110,
      "phút": 2111,
      "Trang": 2112,
      "Thực": 2113,
      "Nghệ": 2114,
      "cảm": 2115,
      "Giá": 2116,
      "AMM": 2117,
      "Jean": 2118,
      "Iraq": 2119,
      "Kazakhstan": 2120,
      "110": 2121,
      "61": 2122,
      "Cao": 2123,
      "Con": 2124,
      "Gene": 2125,
      "Jer": 2126,
      "Le": 2127,
      "Mông": 2128,
      "Tốc": 2129,
      "căng": 2130,
      "ff": 2131,
      "htt": 2132,
      "hụt": 2133,
      "yên": 2134,
      "ùi": 2135,
      "ỏng": 2136,
      "thích": 2137,
      "ania": 2138,
      "Thư": 2139,
      "Qua": 2140,
      "193": 2141,
      "alem": 2142,
      "2002": 2143,
      "ney": 2144,
      "Alex": 2145,
      "Eurozone": 2146,
      "Kerry": 2147,
      "Geneva": 2148,
      "http": 2149,
      "88": 2150,
      "Jong": 2151,
      "Mit": 2152,
      "Net": 2153,
      "SO": 2154,
      "Tầm": 2155,
      "Yên": 2156,
      "bánh": 2157,
      "dòng": 2158,
      "ge": 2159,
      "kịch": 2160,
      "lẻ": 2161,
      "lộ": 2162,
      "lái": 2163,
      "môn": 2164,
      "núi": 2165,
      "pe": 2166,
      "tờ": 2167,
      "tàng": 2168,
      "Đình": 2169,
      "đêm": 2170,
      "ưới": 2171,
      "ngược": 2172,
      "ngôi": 2173,
      "nhớ": 2174,
      "thưởng": 2175,
      "thái": 2176,
      "com": 2177,
      "Giai": 2178,
      "1998": 2179,
      "Tuấn": 2180,
      "Nicolas": 2181,
      "LHQ": 2182,
      "08": 2183,
      "96": 2184,
      "AD": 2185,
      "Bồ": 2186,
      "Bầu": 2187,
      "Her": 2188,
      "Ni": 2189,
      "Per": 2190,
      "be": 2191,
      "dừa": 2192,
      "dọa": 2193,
      "gì": 2194,
      "gen": 2195,
      "hồ": 2196,
      "mắm": 2197,
      "niềm": 2198,
      "sư": 2199,
      "tù": 2200,
      "xúc": 2201,
      "ze": 2202,
      "óc": 2203,
      "đe": 2204,
      "đẳng": 2205,
      "thoái": 2206,
      "thềm": 2207,
      "any": 2208,
      "Thời": 2209,
      "dựa": 2210,
      "khoan": 2211,
      "Nhiều": 2212,
      "tina": 2213,
      "chuyện": 2214,
      "Giải": 2215,
      "oud": 2216,
      "Shang": 2217,
      "????????????????????????????????": 2218,
      "Samsung": 2219,
      "Morsi": 2220,
      "thoát": 2221,
      "64": 2222,
      "Cai": 2223,
      "Em": 2224,
      "Gia": 2225,
      "Ja": 2226,
      "MW": 2227,
      "PF": 2228,
      "RCE": 2229,
      "YT": 2230,
      "dạy": 2231,
      "lề": 2232,
      "lẫn": 2233,
      "moud": 2234,
      "sữa": 2235,
      "đán": 2236,
      "ngại": 2237,
      "nhũng": 2238,
      "triều": 2239,
      "địch": 2240,
      "ali": 2241,
      "dio": 2242,
      "kênh": 2243,
      "Michel": 2244,
      "Romney": 2245,
      "Maduro": 2246,
      "BHYT": 2247,
      "Mahmoud": 2248,
      "RCEP": 2249,
      "%).": 2250,
      "03": 2251,
      "76": 2252,
      "Ah": 2253,
      "Bu": 2254,
      "Bar": 2255,
      "Bởi": 2256,
      "Ca": 2257,
      "Cũng": 2258,
      "Câu": 2259,
      "Gần": 2260,
      "Hung": 2261,
      "Hàng": 2262,
      "Khoa": 2263,
      "Là": 2264,
      "Nông": 2265,
      "Sinh": 2266,
      "Ste": 2267,
      "TV": 2268,
      "WB": 2269,
      "bi": 2270,
      "bò": 2271,
      "bờ": 2272,
      "bác": 2273,
      "bột": 2274,
      "cũ": 2275,
      "cương": 2276,
      "cầm": 2277,
      "eng": 2278,
      "gan": 2279,
      "kiên": 2280,
      "lưới": 2281,
      "mỏ": 2282,
      "nổ": 2283,
      "ron": 2284,
      "sớ": 2285,
      "tô": 2286,
      "tân": 2287,
      "vô": 2288,
      "ngọt": 2289,
      "trấn": 2290,
      "trúc": 2291,
      "chóng": 2292,
      "chắn": 2293,
      "2045": 2294,
      "phức": 2295,
      "giày": 2296,
      "giàn": 2297,
      "nghi": 2298,
      "Truyền": 2299,
      "Tham": 2300,
      "Nhìn": 2301,
      "khẩn": 2302,
      "ard": 2303,
      "lớp": 2304,
      "180": 2305,
      "140": 2306,
      "emen": 2307,
      "1993": 2308,
      "Joe": 2309,
      "ahu": 2310,
      "pic": 2311,
      "Abe": 2312,
      "Mitt": 2313,
      "Hungary": 2314,
      "sớm": 2315,
      "230": 2316,
      "350": 2317,
      "73": 2318,
      "Bến": 2319,
      "Bill": 2320,
      "Es": 2321,
      "Lý": 2322,
      "Lai": 2323,
      "Mex": 2324,
      "Sco": 2325,
      "TC": 2326,
      "Tan": 2327,
      "Tiểu": 2328,
      "Vụ": 2329,
      "Vốn": 2330,
      "aw": 2331,
      "dần": 2332,
      "dậy": 2333,
      "mắt": 2334,
      "mpic": 2335,
      "rà": 2336,
      "tán": 2337,
      "đỡ": 2338,
      "điệp": 2339,
      "ngắn": 2340,
      "giấy": 2341,
      "Tre": 2342,
      "uyết": 2343,
      "Thỏa": 2344,
      "??:": 2345,
      "APPF": 2346,
      "170": 2347,
      "1994": 2348,
      "máu": 2349,
      "trích": 2350,
      "Bru": 2351,
      "Clau": 2352,
      "ưỡi": 2353,
      "bert": 2354,
      "lympic": 2355,
      "Quyết": 2356,
      "Mac": 2357,
      "Latinh": 2358,
      "Netany": 2359,
      "SOM": 2360,
      "Mexico": 2361,
      "Netanyahu": 2362,
      "220": 2363,
      "71": 2364,
      "At": 2365,
      "Bid": 2366,
      "Hồng": 2367,
      "Has": 2368,
      "Kr": 2369,
      "Ku": 2370,
      "Mu": 2371,
      "Nước": 2372,
      "Sách": 2373,
      "Vì": 2374,
      "bas": 2375,
      "cái": 2376,
      "ger": 2377,
      "hiểu": 2378,
      "ida": 2379,
      "ld": 2380,
      "lá": 2381,
      "lor": 2382,
      "mặc": 2383,
      "no": 2384,
      "nia": 2385,
      "nặng": 2386,
      "nắm": 2387,
      "ot": 2388,
      "rồi": 2389,
      "sạch": 2390,
      "sco": 2391,
      "tảng": 2392,
      "uran": 2393,
      "vẽ": 2394,
      "web": 2395,
      "zo": 2396,
      "đài": 2397,
      "ứa": 2398,
      "nhiệt": 2399,
      "thử": 2400,
      "thép": 2401,
      "chợ": 2402,
      "khuyến": 2403,
      "Trà": 2404,
      "uyện": 2405,
      "1967": 2406,
      "khoán": 2407,
      "105": 2408,
      "nei": 2409,
      "inzo": 2410,
      "ord": 2411,
      "Hoạt": 2412,
      "usalem": 2413,
      "1990": 2414,
      "est": 2415,
      "rid": 2416,
      "Viettel": 2417,
      "Shinzo": 2418,
      "enez": 2419,
      "Petro": 2420,
      "David": 2421,
      "quoc": 2422,
      "Jerusalem": 2423,
      "Shangri": 2424,
      "Brunei": 2425,
      "Macron": 2426,
      "Biden": 2427,
      "urani": 2428,
      "01": 2429,
      "78": 2430,
      "750": 2431,
      "91": 2432,
      "Bên": 2433,
      "Bùi": 2434,
      "CD": 2435,
      "Cả": 2436,
      "Cze": 2437,
      "Flor": 2438,
      "Geo": 2439,
      "Ham": 2440,
      "IL": 2441,
      "Lần": 2442,
      "Min": 2443,
      "Năng": 2444,
      "Olympic": 2445,
      "Tình": 2446,
      "Tim": 2447,
      "Võ": 2448,
      "VFTA": 2449,
      "Yemen": 2450,
      "gốc": 2451,
      "hran": 2452,
      "kiệm": 2453,
      "long": 2454,
      "tòa": 2455,
      "tạm": 2456,
      "uz": 2457,
      "ón": 2458,
      "tháo": 2459,
      "trữ": 2460,
      "tròn": 2461,
      "chăn": 2462,
      "chốt": 2463,
      "khánh": 2464,
      "phận": 2465,
      "phỏng": 2466,
      "gió": 2467,
      "1980": 2468,
      "Nhiệm": 2469,
      "Phấn": 2470,
      "Phật": 2471,
      "Phóng": 2472,
      "III": 2473,
      "ent": 2474,
      "1997": 2475,
      "Cuối": 2476,
      "atar": 2477,
      "Mike": 2478,
      "Bogor": 2479,
      "Robert": 2480,
      "Tehran": 2481,
      "Tok": 2482,
      "Claude": 2483,
      "Czech": 2484,
      "Florida": 2485,
      "ILO": 2486,
      "05": 2487,
      "87": 2488,
      ":??": 2489,
      "B52": 2490,
      "Cà": 2491,
      "Cựu": 2492,
      "EA": 2493,
      "GS": 2494,
      "Gòn": 2495,
      "Hữu": 2496,
      "Qatar": 2497,
      "Rập": 2498,
      "Sài": 2499,
      "TS": 2500,
      "Tỉnh": 2501,
      "Tám": 2502,
      "Uy": 2503,
      "Venez": 2504,
      "bùng": 2505,
      "ea": 2506,
      "gar": 2507,
      "hoàng": 2508,
      "kiều": 2509,
      "ol": 2510,
      "pr": 2511,
      "per": 2512,
      "sai": 2513,
      "sen": 2514,
      "tor": 2515,
      "tland": 2516,
      "uela": 2517,
      "vở": 2518,
      "Đan": 2519,
      "đốt": 2520,
      "ngăn": 2521,
      "chặng": 2522,
      "ani": 2523,
      "The": 2524,
      "đói": 2525,
      "Phu": 2526,
      "2001": 2527,
      "enko": 2528,
      "thịt": 2529,
      "laodong": 2530,
      "ombia": 2531,
      "Mosco": 2532,
      "CLM": 2533,
      "Mark": 2534,
      "manuel": 2535,
      "thơm": 2536,
      "chịu": 2537,
      "miễn": 2538,
      "Airli": 2539,
      "Peru": 2540,
      "Emmanuel": 2541,
      "dioxin": 2542,
      "Geor": 2543,
      "Venezuela": 2544,
      "56": 2545,
      "79": 2546,
      "83": 2547,
      "84": 2548,
      "92": 2549,
      "Ap": 2550,
      "Bi": 2551,
      "Ben": 2552,
      "Bor": 2553,
      "Bus": 2554,
      "Gu": 2555,
      "Mạch": 2556,
      "Mau": 2557,
      "Pra": 2558,
      "Ros": 2559,
      "Sáng": 2560,
      "Ser": 2561,
      "Tô": 2562,
      "bổng": 2563,
      "cm": 2564,
      "cân": 2565,
      "dương": 2566,
      "kiềm": 2567,
      "liền": 2568,
      "ml": 2569,
      "nộ": 2570,
      "nóng": 2571,
      "oa": 2572,
      "ps": 2573,
      "tả": 2574,
      "vt": 2575,
      "vươ": 2576,
      "ão": 2577,
      "ùm": 2578,
      "ảy": 2579,
      "ẫu": 2580,
      "ắk": 2581,
      "ặn": 2582,
      "ngờ": 2583,
      "ngữ": 2584,
      "ngay": 2585,
      "nhand": 2586,
      "thù": 2587,
      "thẻ": 2588,
      "thân": 2589,
      "trừ": 2590,
      "trục": 2591,
      "chạy": 2592,
      "khắc": 2593,
      "quỹ": 2594,
      "ames": 2595,
      "củng": 2596,
      "Trao": 2597,
      "Thể": 2598,
      "1930": 2599,
      "1946": 2600,
      "giáp": 2601,
      "màu": 2602,
      "1996": 2603,
      "1977": 2604,
      "1979": 2605,
      "Micha": 2606,
      "Johnson": 2607,
      "Lib": 2608,
      "Argen": 2609,
      "vui": 2610,
      "Moscow": 2611,
      "Airlines": 2612,
      "nộp": 2613,
      "vươn": 2614,
      "Michael": 2615,
      "Argentina": 2616,
      "260": 2617,
      "270": 2618,
      "240": 2619,
      "74": 2620,
      "ACM": 2621,
      "Bang": 2622,
      "Ebo": 2623,
      "Ki": 2624,
      "Kỷ": 2625,
      "Lao": 2626,
      "Mc": 2627,
      "Mức": 2628,
      "PC": 2629,
      "PR": 2630,
      "Po": 2631,
      "Pen": 2632,
      "Rio": 2633,
      "Se": 2634,
      "Sản": 2635,
      "TN": 2636,
      "UB": 2637,
      "VP": 2638,
      "Yor": 2639,
      "ee": 2640,
      "lũ": 2641,
      "lombia": 2642,
      "oặt": 2643,
      "res": 2644,
      "tụ": 2645,
      "tùng": 2646,
      "vinh": 2647,
      "zania": 2648,
      "éc": 2649,
      "ênh": 2650,
      "ớt": 2651,
      "ngoặt": 2652,
      "thậm": 2653,
      "trùm": 2654,
      "che": 2655,
      "chân": 2656,
      "que": 2657,
      "nghỉ": 2658,
      "USS": 2659,
      "Ngọc": 2660,
      "Chu": 2661,
      "Phương": 2662,
      "dine": 2663,
      "189": 2664,
      "asat": 2665,
      "usse": 2666,
      "1999": 2667,
      "ander": 2668,
      "Colombia": 2669,
      "COC": 2670,
      "llah": 2671,
      "Anton": 2672,
      "buổi": 2673,
      "Abdu": 2674,
      "Ash": 2675,
      "madine": 2676,
      "Vinasat": 2677,
      "Tanzania": 2678,
      "Hassan": 2679,
      "CDU": 2680,
      "Tokyo": 2681,
      "Ebola": 2682,
      "York": 2683,
      "madinej": 2684,
      "07": 2685,
      "AA": 2686,
      "Am": 2687,
      "Az": 2688,
      "Ara": 2689,
      "BC": 2690,
      "Ber": 2691,
      "CN": 2692,
      "CS": 2693,
      "Cảnh": 2694,
      "EP": 2695,
      "EVFTA": 2696,
      "GM": 2697,
      "Guter": 2698,
      "Ha": 2699,
      "Hưng": 2700,
      "Hạnh": 2701,
      "HTX": 2702,
      "ID": 2703,
      "IV": 2704,
      "Jor": 2705,
      "Lịch": 2706,
      "Man": 2707,
      "PD": 2708,
      "Sở": 2709,
      "Tất": 2710,
      "Tàu": 2711,
      "Vào": 2712,
      "You": 2713,
      "bãi": 2714,
      "gon": 2715,
      "hương": 2716,
      "hài": 2717,
      "jam": 2718,
      "ka": 2719,
      "láng": 2720,
      "lối": 2721,
      "nề": 2722,
      "tị": 2723,
      "túc": 2724,
      "tặng": 2725,
      "ye": 2726,
      "Điểm": 2727,
      "đẫ": 2728,
      "đậu": 2729,
      "ềng": 2730,
      "ngũ": 2731,
      "trú": 2732,
      "chờ": 2733,
      "chục": 2734,
      "chặn": 2735,
      "khám": 2736,
      "quảng": 2737,
      "phổ": 2738,
      "giềng": 2739,
      "Thúc": 2740,
      "Thậm": 2741,
      "Nguồn": 2742,
      "imea": 2743,
      "Thủy": 2744,
      "ilk": 2745,
      "1991": 2746,
      "1972": 2747,
      "1976": 2748,
      "ate": 2749,
      "baoquoc": 2750,
      "cker": 2751,
      "And": 2752,
      "Thuận": 2753,
      "Boe": 2754,
      "Crimea": 2755,
      "Times": 2756,
      "Benjam": 2757,
      "nhandan": 2758,
      "Jordan": 2759,
      "đẫm": 2760,
      "baoquocte": 2761,
      "Benjamin": 2762,
      ".\"": 2763,
      "450": 2764,
      "Bước": 2765,
      "Bất": 2766,
      "Bạc": 2767,
      "Glo": 2768,
      "Gaza": 2769,
      "Hằng": 2770,
      "Jun": 2771,
      "Ko": 2772,
      "Khoảng": 2773,
      "MV": 2774,
      "Mậu": 2775,
      "Para": 2776,
      "Ram": 2777,
      "St": 2778,
      "Tư": 2779,
      "Tạo": 2780,
      "Tướng": 2781,
      "Vân": 2782,
      "VTC": 2783,
      "bạo": 2784,
      "cong": 2785,
      "dưa": 2786,
      "dừng": 2787,
      "ft": 2788,
      "hầu": 2789,
      "lật": 2790,
      "mì": 2791,
      "mer": 2792,
      "mưu": 2793,
      "op": 2794,
      "sạn": 2795,
      "tải": 2796,
      "ut": 2797,
      "ve": 2798,
      "ví": 2799,
      "vong": 2800,
      "ãn": 2801,
      "Độc": 2802,
      "Đường": 2803,
      "đức": 2804,
      "đền": 2805,
      "thí": 2806,
      "thô": 2807,
      "thặng": 2808,
      "chậm": 2809,
      "cháu": 2810,
      "khúc": 2811,
      "ait": 2812,
      "phái": 2813,
      "ras": 2814,
      "tiễn": 2815,
      "1970": 2816,
      "1954": 2817,
      "101": 2818,
      "Nhờ": 2819,
      "esh": 2820,
      "kém": 2821,
      "Ali": 2822,
      "Park": 2823,
      "uatu": 2824,
      "Abbas": 2825,
      "berg": 2826,
      "Rousse": 2827,
      "idel": 2828,
      "Loan": 2829,
      "Vinam": 2830,
      "hani": 2831,
      "Vanuatu": 2832,
      "chinhphu": 2833,
      "Scotland": 2834,
      "Boris": 2835,
      "Bush": 2836,
      "Libya": 2837,
      "UBND": 2838,
      "Antonio": 2839,
      "madinejad": 2840,
      "Guterres": 2841,
      "Rousseff": 2842,
      "%),": 2843,
      "04": 2844,
      "89": 2845,
      "93": 2846,
      "Cận": 2847,
      "Dil": 2848,
      "Fidel": 2849,
      "HH": 2850,
      "Hỗ": 2851,
      "HCM": 2852,
      "Jas": 2853,
      "Lâm": 2854,
      "Sha": 2855,
      "Séc": 2856,
      "SPD": 2857,
      "Tân": 2858,
      "Ten": 2859,
      "Ted": 2860,
      "TFP": 2861,
      "Vinh": 2862,
      "Vấn": 2863,
      "Wal": 2864,
      "bọc": 2865,
      "bão": 2866,
      "can": 2867,
      "dw": 2868,
      "dau": 2869,
      "fi": 2870,
      "ht": 2871,
      "hấu": 2872,
      "kia": 2873,
      "linh": 2874,
      "lít": 2875,
      "lưỡi": 2876,
      "lgar": 2877,
      "nét": 2878,
      "oim": 2879,
      "sôi": 2880,
      "tươ": 2881,
      "tấm": 2882,
      "túi": 2883,
      "vượng": 2884,
      "wait": 2885,
      "xâm": 2886,
      "õi": 2887,
      "Đền": 2888,
      "đai": 2889,
      "đích": 2890,
      "đọc": 2891,
      "đắp": 2892,
      "trải": 2893,
      "trọt": 2894,
      "2024": 2895,
      "khán": 2896,
      "giống": 2897,
      "nghe": 2898,
      "Thay": 2899,
      "rad": 2900,
      "1947": 2901,
      "116": 2902,
      "aren": 2903,
      "thịnh": 2904,
      "uss": 2905,
      "khích": 2906,
      "1971": 2907,
      "muối": 2908,
      "Saudi": 2909,
      "1986": 2910,
      "1989": 2911,
      "Pulo": 2912,
      "osh": 2913,
      "Cruz": 2914,
      "vietnamnet": 2915,
      "Madrid": 2916,
      "ADB": 2917,
      "Herman": 2918,
      "Bulgar": 2919,
      "Kuwait": 2920,
      "Big": 2921,
      "TNHH": 2922,
      "Arabia": 2923,
      "Juncker": 2924,
      "Vinamilk": 2925,
      "Jasan": 2926,
      "dautu": 2927,
      "oimoi": 2928,
      "tươi": 2929,
      "Bulgaria": 2930,
      "AEC": 2931,
      "Avi": 2932,
      "Bác": 2933,
      "Bal": 2934,
      "Bit": 2935,
      "Bệnh": 2936,
      "Cần": 2937,
      "Er": 2938,
      "G8": 2939,
      "Hành": 2940,
      "Huy": 2941,
      "Học": 2942,
      "Ka": 2943,
      "Lương": 2944,
      "Nỗ": 2945,
      "Pa": 2946,
      "Say": 2947,
      "TH": 2948,
      "Ti": 2949,
      "Tw": 2950,
      "Tùng": 2951,
      "Tel": 2952,
      "Un": 2953,
      "Va": 2954,
      "Vn": 2955,
      "Vũng": 2956,
      "Vịnh": 2957,
      "Wor": 2958,
      "Wil": 2959,
      "Xây": 2960,
      "bè": 2961,
      "bát": 2962,
      "bur": 2963,
      "bơi": 2964,
      "cúng": 2965,
      "dễ": 2966,
      "dược": 2967,
      "gam": 2968,
      "gìn": 2969,
      "hào": 2970,
      "ich": 2971,
      "lường": 2972,
      "lỗi": 2973,
      "les": 2974,
      "lắp": 2975,
      "med": 2976,
      "mét": 2977,
      "na": 2978,
      "nửa": 2979,
      "oon": 2980,
      "puy": 2981,
      "ple": 2982,
      "ris": 2983,
      "rov": 2984,
      "rou": 2985,
      "tiện": 2986,
      "tận": 2987,
      "vos": 2988,
      "vun": 2989,
      "vrov": 2990,
      "zam": 2991,
      "Định": 2992,
      "đáo": 2993,
      "đen": 2994,
      "đắc": 2995,
      "đắn": 2996,
      "ịa": 2997,
      "ngợi": 2998,
      "ther": 2999,
      "trắng": 3000,
      "chữ": 3001,
      "chữa": 3002,
      "chúc": 3003,
      "chin": 3004,
      "khô": 3005,
      "quê": 3006,
      "quanh": 3007,
      "quận": 3008,
      "Ngành": 3009,
      "choi": 3010,
      "Nhưỡng": 3011,
      "Phủ": 3012,
      "Phan": 3013,
      "ern": 3014,
      "??.": 3015,
      "els": 3016,
      "tuệ": 3017,
      "1978": 3018,
      "ings": 3019,
      "Mozam": 3020,
      "Bruss": 3021,
      "ric": 3022,
      "Viễn": 3023,
      "Frank": 3024,
      "dech": 3025,
      "Lavrov": 3026,
      "Metro": 3027,
      "Rompuy": 3028,
      "nhuận": 3029,
      "Samdech": 3030,
      "quochoi": 3031,
      "ARF": 3032,
      "Ahmadinejad": 3033,
      "bique": 3034,
      "Minsk": 3035,
      "CLMMV": 3036,
      "Apple": 3037,
      "PCA": 3038,
      "lũy": 3039,
      "Boeing": 3040,
      "Aviv": 3041,
      "World": 3042,
      "roup": 3043,
      "therine": 3044,
      "Mozambique": 3045,
      "06": 3046,
      "360": 3047,
      "550": 3048,
      "AC": 3049,
      "COV": 3050,
      "Cẩm": 3051,
      "Dù": 3052,
      "Dải": 3053,
      "FM": 3054,
      "Fin": 3055,
      "FES": 3056,
      "Hay": 3057,
      "Hướng": 3058,
      "Kyo": 3059,
      "LG": 3060,
      "Lĩnh": 3061,
      "Lợi": 3062,
      "No": 3063,
      "Niên": 3064,
      "Naren": 3065,
      "OP": 3066,
      "Pi": 3067,
      "Pan": 3068,
      "Por": 3069,
      "Ra": 3070,
      "Ron": 3071,
      "Sai": 3072,
      "Sáu": 3073,
      "SAR": 3074,
      "Tần": 3075,
      "Tay": 3076,
      "UPR": 3077,
      "VI": 3078,
      "Vệ": 3079,
      "Vĩnh": 3080,
      "ab": 3081,
      "bai": 3082,
      "bon": 3083,
      "blo": 3084,
      "cờ": 3085,
      "dội": 3086,
      "dra": 3087,
      "eg": 3088,
      "gương": 3089,
      "hối": 3090,
      "hẹp": 3091,
      "lây": 3092,
      "mực": 3093,
      "móc": 3094,
      "ru": 3095,
      "vẻ": 3096,
      "vương": 3097,
      "vải": 3098,
      "yan": 3099,
      "én": 3100,
      "đợ": 3101,
      "ũi": 3102,
      "ụp": 3103,
      "ngư": 3104,
      "thiệp": 3105,
      "thắt": 3106,
      "thuyết": 3107,
      "chở": 3108,
      "chit": 3109,
      "kháng": 3110,
      "khuyết": 3111,
      "aichinh": 3112,
      "Chi": 3113,
      "Char": 3114,
      "Chánh": 3115,
      "tian": 3116,
      "1968": 3117,
      "103": 3118,
      "104": 3119,
      "soạn": 3120,
      "eron": 3121,
      "118": 3122,
      "ECS": 3123,
      "500kg": 3124,
      "chuộng": 3125,
      "itter": 3126,
      "Cup": 3127,
      "baomoi": 3128,
      "1988": 3129,
      "Modi": 3130,
      "Hun": 3131,
      "Tuổi": 3132,
      "News": 3133,
      "km2": 3134,
      "Martin": 3135,
      "tican": 3136,
      "see": 3137,
      "Baomoi": 3138,
      "hanoimoi": 3139,
      "Sudan": 3140,
      "Nik": 3141,
      "uranium": 3142,
      "Pracel": 3143,
      "ACMECS": 3144,
      "Abdullah": 3145,
      "Ashton": 3146,
      "Paracel": 3147,
      "Twitter": 3148,
      "Vatican": 3149,
      "COVID": 3150,
      "Narendra": 3151,
      "SARS": 3152,
      "blog": 3153,
      "đợt": 3154,
      "chitaichinh": 3155,
      "%)": 3156,
      "850": 3157,
      ":.": 3158,
      "Ay": 3159,
      "Aung": 3160,
      "Bóng": 3161,
      "CC": 3162,
      "Cương": 3163,
      "DD": 3164,
      "Dam": 3165,
      "Dani": 3166,
      "ET": 3167,
      "Ford": 3168,
      "Fern": 3169,
      "Go": 3170,
      "Hóa": 3171,
      "Hil": 3172,
      "Hôm": 3173,
      "James": 3174,
      "Ky": 3175,
      "Kiên": 3176,
      "LDP": 3177,
      "Lum": 3178,
      "Mur": 3179,
      "Mand": 3180,
      "Mọi": 3181,
      "Nel": 3182,
      "Nor": 3183,
      "OA": 3184,
      "OEC": 3185,
      "PV": 3186,
      "PGS": 3187,
      "Sil": 3188,
      "Tali": 3189,
      "Ves": 3190,
      "XH": 3191,
      "Xô": 3192,
      "Xanh": 3193,
      "bá": 3194,
      "bó": 3195,
      "bách": 3196,
      "bal": 3197,
      "báu": 3198,
      "cơn": 3199,
      "cản": 3200,
      "cis": 3201,
      "cốt": 3202,
      "era": 3203,
      "eir": 3204,
      "ie": 3205,
      "ji": 3206,
      "jan": 3207,
      "kẻ": 3208,
      "kash": 3209,
      "lin": 3210,
      "mật": 3211,
      "mei": 3212,
      "món": 3213,
      "og": 3214,
      "rus": 3215,
      "sa": 3216,
      "tật": 3217,
      "vo": 3218,
      "vang": 3219,
      "via": 3220,
      "xứng": 3221,
      "áy": 3222,
      "Đất": 3223,
      "Đội": 3224,
      "Điển": 3225,
      "Đắk": 3226,
      "ếng": 3227,
      "ỏe": 3228,
      "ỡng": 3229,
      "nhờ": 3230,
      "nhật": 3231,
      "than": 3232,
      "thận": 3233,
      "tránh": 3234,
      "chè": 3235,
      "2035": 3236,
      "khỏe": 3237,
      "quay": 3238,
      "phúc": 3239,
      "giam": 3240,
      "giết": 3241,
      "giếng": 3242,
      "nghênh": 3243,
      "Thi": 3244,
      "Thiên": 3245,
      "Ngay": 3246,
      "Cho": 3247,
      "Chất": 3248,
      "Chung": 3249,
      "xuân": 3250,
      "dogan": 3251,
      "thuẫn": 3252,
      "192": 3253,
      "106": 3254,
      "Phần": 3255,
      "hoại": 3256,
      "hoãn": 3257,
      "erbai": 3258,
      "ala": 3259,
      "nec": 3260,
      "122": 3261,
      "lus": 3262,
      "luân": 3263,
      "175": 3264,
      "virus": 3265,
      "tuân": 3266,
      "ustin": 3267,
      "urt": 3268,
      "CoV": 3269,
      "sul": 3270,
      "ato": 3271,
      "Lukash": 3272,
      "omp": 3273,
      "dưỡng": 3274,
      "exco": 3275,
      "top": 3276,
      "CPU": 3277,
      "nessee": 3278,
      "Mosul": 3279,
      "sip": 3280,
      "Cameron": 3281,
      "Huân": 3282,
      "ost": 3283,
      "liam": 3284,
      "981": 3285,
      "yaw": 3286,
      "BHXH": 3287,
      "roso": 3288,
      "????????????????????????????????????????????????????????????????": 3289,
      "Stein": 3290,
      "Esper": 3291,
      "Atlas": 3292,
      "George": 3293,
      "Azerbai": 3294,
      "yeong": 3295,
      "Global": 3296,
      "Dilma": 3297,
      "Tennessee": 3298,
      "Walter": 3299,
      "Bitexco": 3300,
      "Erdogan": 3301,
      "William": 3302,
      "burg": 3303,
      "Brussels": 3304,
      "Hilary": 3305,
      "Nelson": 3306,
      "Taliban": 3307,
      "Vesak": 3308,
      "meier": 3309,
      "Lukashenko": 3310,
      "Azerbaijan": 3311,
      "370": 3312,
      "480": 3313,
      "520": 3314,
      "AL": 3315,
      "Biểu": 3316,
      "Bằng": 3317,
      "Bánh": 3318,
      "Bos": 3319,
      "Bảy": 3320,
      "BBC": 3321,
      "Cầu": 3322,
      "Cường": 3323,
      "Cải": 3324,
      "DO": 3325,
      "Dệt": 3326,
      "EAS": 3327,
      "Edw": 3328,
      "Ghi": 3329,
      "HO": 3330,
      "He": 3331,
      "IA": 3332,
      "Ip": 3333,
      "Kong": 3334,
      "Kur": 3335,
      "Lộc": 3336,
      "Lon": 3337,
      "MH": 3338,
      "Mang": 3339,
      "Nền": 3340,
      "Os": 3341,
      "PP": 3342,
      "Pomp": 3343,
      "Sch": 3344,
      "Sar": 3345,
      "Sen": 3346,
      "Slo": 3347,
      "Tú": 3348,
      "Tạ": 3349,
      "Tam": 3350,
      "Tác": 3351,
      "Tor": 3352,
      "Tsip": 3353,
      "UK": 3354,
      "Vai": 3355,
      "Vàng": 3356,
      "XX": 3357,
      "bơ": 3358,
      "bin": 3359,
      "car": 3360,
      "cắm": 3361,
      "dặ": 3362,
      "dữ": 3363,
      "diệt": 3364,
      "dày": 3365,
      "dây": 3366,
      "dàng": 3367,
      "eh": 3368,
      "ep": 3369,
      "fe": 3370,
      "for": 3371,
      "gà": 3372,
      "gố": 3373,
      "gei": 3374,
      "hu": 3375,
      "hấp": 3376,
      "ian": 3377,
      "ks": 3378,
      "kích": 3379,
      "kov": 3380,
      "ler": 3381,
      "my": 3382,
      "men": 3383,
      "mệnh": 3384,
      "moon": 3385,
      "né": 3386,
      "pur": 3387,
      "rẽ": 3388,
      "rel": 3389,
      "rin": 3390,
      "rưỡi": 3391,
      "sy": 3392,
      "sáp": 3393,
      "sâm": 3394,
      "tội": 3395,
      "tách": 3396,
      "tạc": 3397,
      "vợ": 3398,
      "vua": 3399,
      "wd": 3400,
      "wang": 3401,
      "zy": 3402,
      "zan": 3403,
      "Đốc": 3404,
      "Đổi": 3405,
      "ỳnh": 3406,
      "ngon": 3407,
      "ngầm": 3408,
      "nhánh": 3409,
      "nhắc": 3410,
      "thang": 3411,
      "thật": 3412,
      "trại": 3413,
      "triệt": 3414,
      "chỗ": 3415,
      "chép": 3416,
      "chứa": 3417,
      "chén": 3418,
      "khôi": 3419,
      "phẫu": 3420,
      "giản": 3421,
      "ant": 3422,
      "0000": 3423,
      "Tru": 3424,
      "đãi": 3425,
      "Thong": 3426,
      "Thân": 3427,
      "Tháp": 3428,
      "Thừa": 3429,
      "Chris": 3430,
      "Quán": 3431,
      "ray": 3432,
      "don": 3433,
      "thuê": 3434,
      "thuốc": 3435,
      "195": 3436,
      "1950": 3437,
      "1969": 3438,
      "Phel": 3439,
      "sos": 3440,
      "ima": 3441,
      "alo": 3442,
      "alen": 3443,
      "115": 3444,
      "127": 3445,
      "đoán": 3446,
      "....": 3447,
      "187": 3448,
      "100kg": 3449,
      "Trumph": 3450,
      "isong": 3451,
      "Khắc": 3452,
      "169": 3453,
      "ght": 3454,
      "itsu": 3455,
      "1985": 3456,
      "UNIC": 3457,
      "CO2": 3458,
      "line": 3459,
      "azon": 3460,
      "azpr": 3461,
      "475": 3462,
      "Shei": 3463,
      "vakia": 3464,
      "kozy": 3465,
      "CEO": 3466,
      "Davos": 3467,
      "Nicola": 3468,
      "Alexis": 3469,
      "Alexander": 3470,
      "Cain": 3471,
      "Catherine": 3472,
      "Kris": 3473,
      "Sergei": 3474,
      "McCain": 3475,
      "Pence": 3476,
      "Amazon": 3477,
      "congsan": 3478,
      "htx": 3479,
      "Kyoto": 3480,
      "OPEC": 3481,
      "Lumpur": 3482,
      "Murray": 3483,
      "DOC": 3484,
      "Edward": 3485,
      "Ipsos": 3486,
      "London": 3487,
      "Pompeo": 3488,
      "Sarkozy": 3489,
      "Slovakia": 3490,
      "Tsipras": 3491,
      "dặm": 3492,
      "gốm": 3493,
      "ném": 3494,
      "Phelps": 3495,
      "UNICEF": 3496,
      "azprom": 3497,
      "Sheikh": 3498,
      "%-": 3499,
      "211": 3500,
      "224": 3501,
      "320": 3502,
      "Au": 3503,
      "Bán": 3504,
      "Cảng": 3505,
      "Cali": 3506,
      "Duy": 3507,
      "Dung": 3508,
      "Dur": 3509,
      "FC": 3510,
      "For": 3511,
      "Gra": 3512,
      "Han": 3513,
      "Har": 3514,
      "Hiền": 3515,
      "Hậu": 3516,
      "Justin": 3517,
      "Kông": 3518,
      "Khai": 3519,
      "Kara": 3520,
      "Lữ": 3521,
      "Lệnh": 3522,
      "Lắk": 3523,
      "Mô": 3524,
      "Mẹ": 3525,
      "May": 3526,
      "Môi": 3527,
      "Med": 3528,
      "Nâng": 3529,
      "Oh": 3530,
      "PT": 3531,
      "Pak": 3532,
      "Post": 3533,
      "RS": 3534,
      "Rou": 3535,
      "Sal": 3536,
      "Schu": 3537,
      "Ston": 3538,
      "Sri": 3539,
      "Ta": 3540,
      "Tử": 3541,
      "Tối": 3542,
      "Ton": 3543,
      "Tur": 3544,
      "Tex": 3545,
      "Vận": 3546,
      "Wales": 3547,
      "Wings": 3548,
      "Xung": 3549,
      "Ya": 3550,
      "bụ": 3551,
      "bạch": 3552,
      "bri": 3553,
      "cười": 3554,
      "cứng": 3555,
      "cát": 3556,
      "cậy": 3557,
      "cio": 3558,
      "croso": 3559,
      "dn": 3560,
      "dỡ": 3561,
      "dường": 3562,
      "der": 3563,
      "dõi": 3564,
      "eth": 3565,
      "hè": 3566,
      "hùng": 3567,
      "hiếm": 3568,
      "ic": 3569,
      "kị": 3570,
      "kiêm": 3571,
      "lz": 3572,
      "lội": 3573,
      "lính": 3574,
      "lọc": 3575,
      "luyện": 3576,
      "mã": 3577,
      "mìn": 3578,
      "nom": 3579,
      "plus": 3580,
      "rượ": 3581,
      "tỉ": 3582,
      "tủ": 3583,
      "tồi": 3584,
      "ug": 3585,
      "ux": 3586,
      "vin": 3587,
      "xách": 3588,
      "xoài": 3589,
      "yip": 3590,
      "ãng": 3591,
      "ói": 3592,
      "ót": 3593,
      "Được": 3594,
      "đế": 3595,
      "đỏ": 3596,
      "đợi": 3597,
      "đứa": 3598,
      "ĩa": 3599,
      "ngập": 3600,
      "ngọn": 3601,
      "nha": 3602,
      "nhạy": 3603,
      "thệ": 3604,
      "thẩm": 3605,
      "trùng": 3606,
      "truyện": 3607,
      "chào": 3608,
      "châm": 3609,
      "chơi": 3610,
      "205": 3611,
      "2050": 3612,
      "2026": 3613,
      "20kg": 3614,
      "giây": 3615,
      "giỏi": 3616,
      "ance": 3617,
      "Thách": 3618,
      "ail": 3619,
      "Ngôi": 3620,
      "Cha": 3621,
      "Cham": 3622,
      "pháo": 3623,
      "Quản": 3624,
      "rado": 3625,
      "tia": 3626,
      "doisong": 3627,
      "1955": 3628,
      "1966": 3629,
      "1962": 3630,
      "108": 3631,
      "Nhất": 3632,
      "Phnom": 3633,
      "hoi": 3634,
      "cua": 3635,
      "cus": 3636,
      "erra": 3637,
      "112": 3638,
      "114": 3639,
      "ari": 3640,
      "125": 3641,
      "126": 3642,
      "cơm": 3643,
      "luat": 3644,
      "ell": 3645,
      "185": 3646,
      "iles": 3647,
      "vich": 3648,
      "viễn": 3649,
      "Donet": 3650,
      "Khải": 3651,
      "Giáng": 3652,
      "Giảm": 3653,
      "chua": 3654,
      "uri": 3655,
      "Bandung": 3656,
      "andy": 3657,
      "Cochin": 3658,
      "235": 3659,
      "baod": 3660,
      "bakh": 3661,
      "ire": 3662,
      "Lanka": 3663,
      "354": 3664,
      "Motor": 3665,
      "apr": 3666,
      "apluat": 3667,
      "Huệ": 3668,
      "Huỳnh": 3669,
      "Tuất": 3670,
      "Jose": 3671,
      "ladesh": 3672,
      "buôn": 3673,
      "Francis": 3674,
      "Microso": 3675,
      "Marc": 3676,
      "ood": 3677,
      "mart": 3678,
      "777": 3679,
      "Penh": 3680,
      "Peter": 3681,
      "dịu": 3682,
      "Cris": 3683,
      "Italia": 3684,
      "dantri": 3685,
      "Liêu": 3686,
      "vietnamplus": 3687,
      "nier": 3688,
      "Carol": 3689,
      "Latvia": 3690,
      "Nagor": 3691,
      "Sierra": 3692,
      "inea": 3693,
      "Leone": 3694,
      "Cairo": 3695,
      "Barnier": 3696,
      "Steven": 3697,
      "Kuala": 3698,
      "Roberts": 3699,
      "Guinea": 3700,
      "Bangladesh": 3701,
      "Kiev": 3702,
      "GMT": 3703,
      "Patri": 3704,
      "Tayyip": 3705,
      "Charles": 3706,
      "Nikk": 3707,
      "OECD": 3708,
      "Steinmeier": 3709,
      "bơm": 3710,
      "fornia": 3711,
      "California": 3712,
      "Durban": 3713,
      "Karabakh": 3714,
      "Ohio": 3715,
      "Rouhani": 3716,
      "Schulz": 3717,
      "Texas": 3718,
      "kịp": 3719,
      "rượu": 3720,
      "Donetsk": 3721,
      "Microsoft": 3722,
      "Carolina": 3723,
      "Nagorno": 3724,
      "(??": 3725,
      ",\"": 3726,
      "1000": 3727,
      "210": 3728,
      "290": 3729,
      "380": 3730,
      "440": 3731,
      "540": 3732,
      "9h": 3733,
      "Ae": 3734,
      "Biến": 3735,
      "Bay": 3736,
      "Bền": 3737,
      "Cô": 3738,
      "Củ": 3739,
      "Cung": 3740,
      "Dư": 3741,
      "Ethi": 3742,
      "Eid": 3743,
      "Eric": 3744,
      "Fit": 3745,
      "Gìn": 3746,
      "Games": 3747,
      "Gazprom": 3748,
      "Hệ": 3749,
      "Hong": 3750,
      "Hang": 3751,
      "Hoàn": 3752,
      "Hoài": 3753,
      "Hen": 3754,
      "HDI": 3755,
      "HFES": 3756,
      "Irel": 3757,
      "Jak": 3758,
      "Kạn": 3759,
      "Klong": 3760,
      "Kwang": 3761,
      "Lại": 3762,
      "Lit": 3763,
      "Lạc": 3764,
      "Lọc": 3765,
      "Liêm": 3766,
      "Mat": 3767,
      "Mun": 3768,
      "NP": 3769,
      "Qa": 3770,
      "RF": 3771,
      "Ru": 3772,
      "Rịa": 3773,
      "Sông": 3774,
      "Sắc": 3775,
      "Sou": 3776,
      "SEA": 3777,
      "TM": 3778,
      "TEC": 3779,
      "Tĩnh": 3780,
      "UI": 3781,
      "Uyên": 3782,
      "UTC": 3783,
      "VS": 3784,
      "Vùng": 3785,
      "Ving": 3786,
      "Vog": 3787,
      "Wi": 3788,
      "West": 3789,
      "Xe": 3790,
      "ater": 3791,
      "bí": 3792,
      "bha": 3793,
      "bón": 3794,
      "ci": 3795,
      "cối": 3796,
      "cồng": 3797,
      "cặp": 3798,
      "dắt": 3799,
      "eva": 3800,
      "fis": 3801,
      "ford": 3802,
      "gái": 3803,
      "he": 3804,
      "hiến": 3805,
      "hạnh": 3806,
      "hơi": 3807,
      "ibe": 3808,
      "kẹ": 3809,
      "kin": 3810,
      "kara": 3811,
      "lồ": 3812,
      "leo": 3813,
      "loài": 3814,
      "lắng": 3815,
      "lưng": 3816,
      "lọt": 3817,
      "lùi": 3818,
      "me": 3819,
      "mềm": 3820,
      "mẫu": 3821,
      "mũi": 3822,
      "nành": 3823,
      "nỗi": 3824,
      "ram": 3825,
      "rào": 3826,
      "rắn": 3827,
      "sợ": 3828,
      "tal": 3829,
      "vỡ": 3830,
      "vanh": 3831,
      "ved": 3832,
      "wC": 3833,
      "wood": 3834,
      "xá": 3835,
      "xạ": 3836,
      "xướng": 3837,
      "yn": 3838,
      "Áo": 3839,
      "Ánh": 3840,
      "ín": 3841,
      "òi": 3842,
      "úy": 3843,
      "Đăng": 3844,
      "Đinh": 3845,
      "Đáp": 3846,
      "điệu": 3847,
      "Ưu": 3848,
      "nhọn": 3849,
      "thiều": 3850,
      "thiêng": 3851,
      "thầy": 3852,
      "tre": 3853,
      "truy": 3854,
      "chứ": 3855,
      "chồng": 3856,
      "chiêng": 3857,
      "chùa": 3858,
      "chụp": 3859,
      "202": 3860,
      "2023": 3861,
      "khổng": 3862,
      "khung": 3863,
      "khấu": 3864,
      "khơi": 3865,
      "giỗ": 3866,
      "giảng": 3867,
      "gián": 3868,
      "giọt": 3869,
      "gieva": 3870,
      "ongsong": 3871,
      "Trị": 3872,
      "Trở": 3873,
      "uyển": 3874,
      "Ngô": 3875,
      "Chiều": 3876,
      "Chang": 3877,
      "Chăn": 3878,
      "Chum": 3879,
      "Chuyển": 3880,
      "raurt": 3881,
      "thudo": 3882,
      "190": 3883,
      "1911": 3884,
      "1948": 3885,
      "1953": 3886,
      "1944": 3887,
      "1961": 3888,
      "angcongsan": 3889,
      "onto": 3890,
      "online": 3891,
      "Phe": 3892,
      "sou": 3893,
      "ere": 3894,
      "aldo": 3895,
      "distan": 3896,
      "117": 3897,
      "ars": 3898,
      "art": 3899,
      "arta": 3900,
      "chiếu": 3901,
      "ino": 3902,
      "182": 3903,
      "186": 3904,
      "1897": 3905,
      "1802": 3906,
      "asone": 3907,
      "bana": 3908,
      "ilo": 3909,
      "tuoi": 3910,
      "tube": 3911,
      "iss": 3912,
      "149": 3913,
      "adan": 3914,
      "aden": 3915,
      "Kham": 3916,
      "Khmer": 3917,
      "Giới": 3918,
      "Giao": 3919,
      "161": 3920,
      "162": 3921,
      "Nghi": 3922,
      "andr": 3923,
      "ete": 3924,
      "ett": 3925,
      "itz": 3926,
      "236": 3927,
      "tonia": 3928,
      "262": 3929,
      "bara": 3930,
      "Moon": 3931,
      "Mote": 3932,
      "Brian": 3933,
      "chip": 3934,
      "Ankara": 3935,
      "eda": 3936,
      "Thịt": 3937,
      "bul": 3938,
      "unu": 3939,
      "deau": 3940,
      "375": 3941,
      "VietG": 3942,
      "andez": 3943,
      "Đàm": 3944,
      "lanta": 3945,
      "Lot": 3946,
      "Jeff": 3947,
      "Armen": 3948,
      "rey": 3949,
      "Baodautu": 3950,
      "Carl": 3951,
      "Tech": 3952,
      "Techo": 3953,
      "Rich": 3954,
      "Suu": 3955,
      "vuông": 3956,
      "Lee": 3957,
      "petro": 3958,
      "Jae": 3959,
      "Jaber": 3960,
      "Michelle": 3961,
      "Ahmed": 3962,
      "Estonia": 3963,
      "Atlanta": 3964,
      "Krem": 3965,
      "Mubara": 3966,
      "geria": 3967,
      "CLMTV": 3968,
      "Georgieva": 3969,
      "Habana": 3970,
      "Youtube": 3971,
      "Ramadan": 3972,
      "opia": 3973,
      "vez": 3974,
      "radar": 3975,
      "oshenko": 3976,
      "Sayasone": 3977,
      "Poroshenko": 3978,
      "Ronaldo": 3979,
      "Saigon": 3980,
      "Ayraurt": 3981,
      "Daniel": 3982,
      "Kyi": 3983,
      "Mandela": 3984,
      "Kurdistan": 3985,
      "Toronto": 3986,
      "myongsong": 3987,
      "Trudeau": 3988,
      "Kristal": 3989,
      "Medved": 3990,
      "RSF": 3991,
      "bụng": 3992,
      "Chavez": 3993,
      "Ethiopia": 3994,
      "Fitch": 3995,
      "Ireland": 3996,
      "Jakarta": 3997,
      "Kwangmyongsong": 3998,
      "Litva": 3999,
      "Munich": 4000,
      "Qaeda": 4001,
      "South": 4002,
      "TECHFES": 4003,
      "Vingroup": 4004,
      "Vogt": 4005,
      "kẹo": 4006,
      "vanhoa": 4007,
      "Chumaly": 4008,
      "Armenia": 4009,
      "Kristalina": 4010,
      "Medvedev": 4011,
      "09": 4012,
      "1kg": 4013,
      "245": 4014,
      "227": 4015,
      "340": 4016,
      "326": 4017,
      "420": 4018,
      "630": 4019,
      "950": 4020,
      "AU": 4021,
      "Ayr": 4022,
      "Bế": 4023,
      "Bờ": 4024,
      "Bam": 4025,
      "Bái": 4026,
      "Bưu": 4027,
      "Cư": 4028,
      "Cố": 4029,
      "Căng": 4030,
      "Cán": 4031,
      "Cor": 4032,
      "Củng": 4033,
      "Capr": 4034,
      "DG": 4035,
      "Dinh": 4036,
      "Dai": 4037,
      "Del": 4038,
      "Duter": 4039,
      "ED": 4040,
      "Ea": 4041,
      "El": 4042,
      "Fe": 4043,
      "Fu": 4044,
      "Fre": 4045,
      "FED": 4046,
      "GP": 4047,
      "Ge": 4048,
      "Get": 4049,
      "Góc": 4050,
      "Ghani": 4051,
      "Htin": 4052,
      "Hiếu": 4053,
      "Huyện": 4054,
      "Hãng": 4055,
      "IN": 4056,
      "Jon": 4057,
      "KW": 4058,
      "Kho": 4059,
      "Kyaw": 4060,
      "LW": 4061,
      "Lớ": 4062,
      "Lam": 4063,
      "Lầu": 4064,
      "Lực": 4065,
      "Lượng": 4066,
      "Len": 4067,
      "Lưu": 4068,
      "Lima": 4069,
      "Mở": 4070,
      "Mường": 4071,
      "Mạnh": 4072,
      "Mate": 4073,
      "NZ": 4074,
      "Ox": 4075,
      "Pap": 4076,
      "Paul": 4077,
      "Pric": 4078,
      "Pyeong": 4079,
      "PwC": 4080,
      "Rai": 4081,
      "Sto": 4082,
      "Sửa": 4083,
      "Seng": 4084,
      "Sno": 4085,
      "Tinh": 4086,
      "Tống": 4087,
      "Tận": 4088,
      "Tạp": 4089,
      "Tín": 4090,
      "Unes": 4091,
      "Ven": 4092,
      "Vẫn": 4093,
      "Vượt": 4094,
      "Vit": 4095,
      "Viêng": 4096,
      "VCC": 4097,
      "VOA": 4098,
      "WHO": 4099,
      "Yos": 4100,
      "băng": 4101,
      "bad": 4102,
      "bớt": 4103,
      "cộ": 4104,
      "cướ": 4105,
      "cent": 4106,
      "ctor": 4107,
      "dai": 4108,
      "del": 4109,
      "dâng": 4110,
      "dri": 4111,
      "dép": 4112,
      "etin": 4113,
      "gd": 4114,
      "gu": 4115,
      "gay": 4116,
      "gắt": 4117,
      "gắng": 4118,
      "guel": 4119,
      "hư": 4120,
      "hur": 4121,
      "hire": 4122,
      "iao": 4123,
      "lv": 4124,
      "lẽ": 4125,
      "lạnh": 4126,
      "liêm": 4127,
      "lụt": 4128,
      "lõi": 4129,
      "mỳ": 4130,
      "mười": 4131,
      "mad": 4132,
      "mes": 4133,
      "mắn": 4134,
      "nai": 4135,
      "nướng": 4136,
      "nấm": 4137,
      "nld": 4138,
      "nsy": 4139,
      "oF": 4140,
      "oc": 4141,
      "sỹ": 4142,
      "sót": 4143,
      "tường": 4144,
      "ten": 4145,
      "tỏa": 4146,
      "ud": 4147,
      "uan": 4148,
      "uthi": 4149,
      "van": 4150,
      "vườ": 4151,
      "ver": 4152,
      "voi": 4153,
      "ws": 4154,
      "xoa": 4155,
      "yen": 4156,
      "yad": 4157,
      "ìa": 4158,
      "Đa": 4159,
      "Đỗ": 4160,
      "Địa": 4161,
      "đản": 4162,
      "đòi": 4163,
      "nhan": 4164,
      "thọ": 4165,
      "thon": 4166,
      "thánh": 4167,
      "trai": 4168,
      "trời": 4169,
      "trứng": 4170,
      "chày": 4171,
      "chối": 4172,
      "chảo": 4173,
      "chảy": 4174,
      "2022": 4175,
      "khắp": 4176,
      "phapluat": 4177,
      "già": 4178,
      "giỏ": 4179,
      "giác": 4180,
      "amo": 4181,
      "iếng": 4182,
      "antan": 4183,
      "uynia": 4184,
      "Thọ": 4185,
      "Ther": 4186,
      "Thiếu": 4187,
      "Thẩm": 4188,
      "Chị": 4189,
      "Chan": 4190,
      "Chuyên": 4191,
      "194": 4192,
      "1960": 4193,
      "1959": 4194,
      "1957": 4195,
      "khoáng": 4196,
      "10kg": 4197,
      "ona": 4198,
      "quyên": 4199,
      "Nhằm": 4200,
      "Phán": 4201,
      "Phim": 4202,
      "Phái": 4203,
      "hor": 4204,
      "ero": 4205,
      "ale": 4206,
      "121": 4207,
      "lui": 4208,
      "lum": 4209,
      "đoạt": 4210,
      "508": 4211,
      "ind": 4212,
      "154": 4213,
      "155": 4214,
      "enb": 4215,
      "enphong": 4216,
      "258": 4217,
      "uma": 4218,
      "131": 4219,
      "134": 4220,
      "136": 4221,
      "tintu": 4222,
      "tinmoi": 4223,
      "ascus": 4224,
      "174": 4225,
      "rand": 4226,
      "147": 4227,
      "Khí": 4228,
      "Khủng": 4229,
      "Giữa": 4230,
      "Houthi": 4231,
      "use": 4232,
      "eman": 4233,
      "Nghĩa": 4234,
      "esa": 4235,
      "andard": 4236,
      "ite": 4237,
      "ity": 4238,
      "Com": 4239,
      "Colo": 4240,
      "Cope": 4241,
      "Cuốn": 4242,
      "atah": 4243,
      "chín": 4244,
      "266": 4245,
      "267": 4246,
      "Dựa": 4247,
      "Lugan": 4248,
      "omberg": 4249,
      "hỗn": 4250,
      "bah": 4251,
      "iri": 4252,
      "tap": 4253,
      "camera": 4254,
      "298": 4255,
      "loạn": 4256,
      "Brun": 4257,
      "TAA": 4258,
      "ewater": 4259,
      "ahy": 4260,
      "CLV": 4261,
      "Sabah": 4262,
      "bull": 4263,
      "Rece": 4264,
      "Miguel": 4265,
      "lie": 4266,
      "lich": 4267,
      "azi": 4268,
      "dez": 4269,
      "Mart": 4270,
      "Abdel": 4271,
      "Thuế": 4272,
      "Philipp": 4273,
      "Boli": 4274,
      "954": 4275,
      "Roy": 4276,
      "Rodri": 4277,
      "kok": 4278,
      "lyn": 4279,
      "Romania": 4280,
      "sey": 4281,
      "Mohammed": 4282,
      "Moritz": 4283,
      "nien": 4284,
      "ska": 4285,
      "Baod": 4286,
      "Baodong": 4287,
      "Caribe": 4288,
      "Cataluynia": 4289,
      "Ric": 4290,
      "Riyad": 4291,
      "gog": 4292,
      "Jerux": 4293,
      "Leahy": 4294,
      "gey": 4295,
      "ADO": 4296,
      "awa": 4297,
      "Hamps": 4298,
      "Guantan": 4299,
      "Sergey": 4300,
      "vtv": 4301,
      "Bangkok": 4302,
      "Chuẩn": 4303,
      "Abdul": 4304,
      "CNN": 4305,
      "EPA": 4306,
      "GMS": 4307,
      "Andy": 4308,
      "Standard": 4309,
      "mers": 4310,
      "Tienphong": 4311,
      "Damascus": 4312,
      "huấn": 4313,
      "wden": 4314,
      "Pakistan": 4315,
      "Tony": 4316,
      "bright": 4317,
      "nhagen": 4318,
      "Motors": 4319,
      "Patrick": 4320,
      "Nikkei": 4321,
      "Henri": 4322,
      "tuoitre": 4323,
      "Lotte": 4324,
      "Jeffrey": 4325,
      "Richard": 4326,
      "Kremlin": 4327,
      "Mubarak": 4328,
      "vanhoadoisong": 4329,
      "Capriles": 4330,
      "Delhi": 4331,
      "Duterte": 4332,
      "Getty": 4333,
      "INF": 4334,
      "Jones": 4335,
      "Khoản": 4336,
      "LWL": 4337,
      "Mateen": 4338,
      "Papua": 4339,
      "Pricewater": 4340,
      "Snowden": 4341,
      "Unesco": 4342,
      "VCCI": 4343,
      "Yoshi": 4344,
      "cộm": 4345,
      "cướp": 4346,
      "hury": 4347,
      "vườn": 4348,
      "Theresa": 4349,
      "tintuc": 4350,
      "Colorado": 4351,
      "Copenhagen": 4352,
      "Lugansk": 4353,
      "Recep": 4354,
      "Baodongnai": 4355,
      "Riyadh": 4356,
      "Jeruxalem": 4357,
      "Hampshire": 4358,
      "Guantanamo": 4359,
      "%);": 4360,
      "+/": 4361,
      "212": 4362,
      "225": 4363,
      "228": 4364,
      "3m": 4365,
      "315": 4366,
      "390": 4367,
      "336": 4368,
      "430": 4369,
      "580": 4370,
      "5km": 4371,
      "532": 4372,
      "620": 4373,
      "670": 4374,
      "7m": 4375,
      "720": 4376,
      "826": 4377,
      "::": 4378,
      "AE": 4379,
      "Ag": 4380,
      "Ari": 4381,
      "AFTA": 4382,
      "Aye": 4383,
      "BI": 4384,
      "BM": 4385,
      "Bức": 4386,
      "Blu": 4387,
      "Bắt": 4388,
      "Bur": 4389,
      "Blo": 4390,
      "Bou": 4391,
      "Beng": 4392,
      "Beir": 4393,
      "Ci": 4394,
      "Cy": 4395,
      "Cũ": 4396,
      "Cổng": 4397,
      "Cái": 4398,
      "Côn": 4399,
      "Cash": 4400,
      "DB": 4401,
      "Dầu": 4402,
      "Dịch": 4403,
      "Dar": 4404,
      "Dmi": 4405,
      "Eng": 4406,
      "Fi": 4407,
      "Fr": 4408,
      "FDP": 4409,
      "FBI": 4410,
      "GN": 4411,
      "GAS": 4412,
      "Gov": 4413,
      "GTV": 4414,
      "Group": 4415,
      "Hi": 4416,
      "Hình": 4417,
      "Hel": 4418,
      "Huyền": 4419,
      "Hir": 4420,
      "Ing": 4421,
      "Jam": 4422,
      "Jan": 4423,
      "JCP": 4424,
      "KC": 4425,
      "Kiến": 4426,
      "Kon": 4427,
      "Keng": 4428,
      "Kênh": 4429,
      "Kato": 4430,
      "KPP": 4431,
      "LC": 4432,
      "Lò": 4433,
      "Lập": 4434,
      "Lau": 4435,
      "Lúc": 4436,
      "Lyn": 4437,
      "Lind": 4438,
      "Mười": 4439,
      "Mon": 4440,
      "Mas": 4441,
      "Mir": 4442,
      "Mạng": 4443,
      "Mua": 4444,
      "Mùa": 4445,
      "N1": 4446,
      "Nan": 4447,
      "Nay": 4448,
      "Nổi": 4449,
      "Nas": 4450,
      "Nat": 4451,
      "Nov": 4452,
      "NAM": 4453,
      "Nev": 4454,
      "Nord": 4455,
      "PE": 4456,
      "PS": 4457,
      "Pl": 4458,
      "Pran": 4459,
      "RP": 4460,
      "RT": 4461,
      "Rus": 4462,
      "Raza": 4463,
      "Ruz": 4464,
      "Rut": 4465,
      "Ryan": 4466,
      "ST": 4467,
      "Sp": 4468,
      "Sẽ": 4469,
      "Song": 4470,
      "Sức": 4471,
      "Sao": 4472,
      "Stu": 4473,
      "Som": 4474,
      "SCO": 4475,
      "Spi": 4476,
      "Sẵn": 4477,
      "Sander": 4478,
      "Scar": 4479,
      "SDG": 4480,
      "TT": 4481,
      "Tờ": 4482,
      "Tôn": 4483,
      "Tâm": 4484,
      "Uỷ": 4485,
      "UAE": 4486,
      "VA": 4487,
      "VV": 4488,
      "VĐ": 4489,
      "Vở": 4490,
      "Vật": 4491,
      "Vol": 4492,
      "VAC": 4493,
      "Valen": 4494,
      "Wars": 4495,
      "Yam": 4496,
      "ach": 4497,
      "bar": 4498,
      "bor": 4499,
      "bil": 4500,
      "bồi": 4501,
      "cô": 4502,
      "cú": 4503,
      "cốc": 4504,
      "cành": 4505,
      "cạn": 4506,
      "cồn": 4507,
      "cãi": 4508,
      "cbon": 4509,
      "dẻ": 4510,
      "dao": 4511,
      "diệu": 4512,
      "dải": 4513,
      "dad": 4514,
      "desh": 4515,
      "dangcongsan": 4516,
      "eed": 4517,
      "ego": 4518,
      "fan": 4519,
      "fest": 4520,
      "falen": 4521,
      "gap": 4522,
      "gov": 4523,
      "gũi": 4524,
      "hề": 4525,
      "hòn": 4526,
      "hưu": 4527,
      "hta": 4528,
      "hỏng": 4529,
      "jo": 4530,
      "jet": 4531,
      "jee": 4532,
      "kD": 4533,
      "kiệt": 4534,
      "kes": 4535,
      "lm": 4536,
      "lô": 4537,
      "lỡ": 4538,
      "liều": 4539,
      "liêng": 4540,
      "lah": 4541,
      "lầm": 4542,
      "lten": 4543,
      "mạo": 4544,
      "mâu": 4545,
      "mắc": 4546,
      "mus": 4547,
      "mot": 4548,
      "mail": 4549,
      "mandy": 4550,
      "nis": 4551,
      "oth": 4552,
      "pa": 4553,
      "pel": 4554,
      "rủ": 4555,
      "rong": 4556,
      "rác": 4557,
      "rim": 4558,
      "ráp": 4559,
      "ren": 4560,
      "rệt": 4561,
      "rạp": 4562,
      "rhe": 4563,
      "st": 4564,
      "sụp": 4565,
      "tá": 4566,
      "tti": 4567,
      "ul": 4568,
      "vỏ": 4569,
      "vnec": 4570,
      "wi": 4571,
      "wha": 4572,
      "wab": 4573,
      "xăng": 4574,
      "zi": 4575,
      "èn": 4576,
      "Đã": 4577,
      "Đảo": 4578,
      "Đứng": 4579,
      "Đóng": 4580,
      "Đẩy": 4581,
      "Đặng": 4582,
      "điển": 4583,
      "đạp": 4584,
      "đèn": 4585,
      "ộn": 4586,
      "Ứng": 4587,
      "ngừ": 4588,
      "tha": 4589,
      "thầu": 4590,
      "thảm": 4591,
      "tháp": 4592,
      "thắn": 4593,
      "thạc": 4594,
      "try": 4595,
      "trọ": 4596,
      "trâu": 4597,
      "trôi": 4598,
      "chiên": 4599,
      "chus": 4600,
      "cháy": 4601,
      "chìa": 4602,
      "204": 4603,
      "20h": 4604,
      "2040": 4605,
      "kher": 4606,
      "quên": 4607,
      "pha": 4608,
      "gic": 4609,
      "ami": 4610,
      "ando": 4611,
      "Trụ": 4612,
      "Trận": 4613,
      "Trip": 4614,
      "Trịnh": 4615,
      "inhphu": 4616,
      "Thăng": 4617,
      "Thưởng": 4618,
      "Thích": 4619,
      "Ngãi": 4620,
      "Chăm": 4621,
      "Chao": 4622,
      "Chải": 4623,
      "Chúc": 4624,
      "Cháy": 4625,
      "Chinhphu": 4626,
      "Quất": 4627,
      "Quin": 4628,
      "raya": 4629,
      "raska": 4630,
      "ting": 4631,
      "tion": 4632,
      "ticu": 4633,
      "timart": 4634,
      "tibha": 4635,
      "dor": 4636,
      "dow": 4637,
      "1920": 4638,
      "1925": 4639,
      "107": 4640,
      "onet": 4641,
      "Nhé": 4642,
      "Phước": 4643,
      "Phản": 4644,
      "Phal": 4645,
      "Phunu": 4646,
      "Phraya": 4647,
      "erson": 4648,
      "allah": 4649,
      "200g": 4650,
      "dia": 4651,
      "??,": 4652,
      "111": 4653,
      "113": 4654,
      "11h": 4655,
      "arov": 4656,
      "123": 4657,
      "128": 4658,
      "129": 4659,
      "luson": 4660,
      "elsen": 4661,
      "elhor": 4662,
      "đoan": 4663,
      "507": 4664,
      "Nguyent": 4665,
      "15ha": 4666,
      "ens": 4667,
      "183": 4668,
      "188": 4669,
      "135": 4670,
      "ase": 4671,
      "aska": 4672,
      "bank": 4673,
      "10000": 4674,
      "172": 4675,
      "ily": 4676,
      "màn": 4677,
      "colm": 4678,
      "142": 4679,
      "143": 4680,
      "145": 4681,
      "607": 4682,
      "adrid": 4683,
      "Donbas": 4684,
      "Kha": 4685,
      "Khang": 4686,
      "Khởi": 4687,
      "Giáp": 4688,
      "Hop": 4689,
      "Nghiêm": 4690,
      "Bank": 4691,
      "451": 4692,
      "ghtland": 4693,
      "ghdad": 4694,
      "khía": 4695,
      "ester": 4696,
      "andung": 4697,
      "Bah": 4698,
      "Bachel": 4699,
      "Baghdad": 4700,
      "249": 4701,
      "Coff": 4702,
      "Coop": 4703,
      "281": 4704,
      "274": 4705,
      "Từng": 4706,
      "239": 4707,
      "baodautu": 4708,
      "baotintuc": 4709,
      "TPA": 4710,
      "Luôn": 4711,
      "omic": 4712,
      "Diego": 4713,
      "1984": 4714,
      "tou": 4715,
      "tah": 4716,
      "ckland": 4717,
      "Chín": 4718,
      "loun": 4719,
      "chigan": 4720,
      "Cambi": 4721,
      "Campel": 4722,
      "Hugo": 4723,
      "Huaw": 4724,
      "Vien": 4725,
      "thiêu": 4726,
      "ews": 4727,
      "Alaska": 4728,
      "Mali": 4729,
      "Mall": 4730,
      "Malcolm": 4731,
      "Sach": 4732,
      "Saber": 4733,
      "cacbon": 4734,
      "Reiss": 4735,
      "MiG": 4736,
      "lith": 4737,
      "ough": 4738,
      "Abel": 4739,
      "Abram": 4740,
      "leim": 4741,
      "Myko": 4742,
      "lav": 4743,
      "333": 4744,
      "BoE": 4745,
      "Bour": 4746,
      "Rozan": 4747,
      "kovi": 4748,
      "Mehta": 4749,
      "ICBM": 4750,
      "AMF": 4751,
      "487": 4752,
      "hãi": 4753,
      "hãy": 4754,
      "Roma": 4755,
      "Lão": 4756,
      "Catao": 4757,
      "nie": 4758,
      "taichinh": 4759,
      "Carry": 4760,
      "Sochi": 4761,
      "Toyo": 4762,
      "Naji": 4763,
      "Rivo": 4764,
      "Sisou": 4765,
      "Santa": 4766,
      "Connec": 4767,
      "Herne": 4768,
      "Herze": 4769,
      "Nigeria": 4770,
      "Nielsen": 4771,
      "Perche": 4772,
      "Cafe": 4773,
      "engiao": 4774,
      "350kg": 4775,
      "Scotti": 4776,
      "Muốn": 4777,
      "Mukher": 4778,
      "estar": 4779,
      "saigon": 4780,
      "Pratibha": 4781,
      "Rosler": 4782,
      "vtc": 4783,
      "ACMES": 4784,
      "PCI": 4785,
      "Pennsy": 4786,
      "AAA": 4787,
      "Azarov": 4788,
      "Bernie": 4789,
      "CSU": 4790,
      "CSIS": 4791,
      "IVAL": 4792,
      "Manuel": 4793,
      "Andr": 4794,
      "Andre": 4795,
      "fic": 4796,
      "Thayer": 4797,
      "Baltic": 4798,
      "Paci": 4799,
      "FMG": 4800,
      "Finance": 4801,
      "FESIVAL": 4802,
      "Panama": 4803,
      "tiano": 4804,
      "Hunsen": 4805,
      "Paracels": 4806,
      "blogger": 4807,
      "DDD": 4808,
      "Dame": 4809,
      "Fernando": 4810,
      "Goeth": 4811,
      "Norng": 4812,
      "Normandy": 4813,
      "eiro": 4814,
      "sachus": 4815,
      "Boston": 4816,
      "Bosnia": 4817,
      "IAEA": 4818,
      "Manga": 4819,
      "Schwab": 4820,
      "UKVFTA": 4821,
      "ksandr": 4822,
      "kova": 4823,
      "Thongloun": 4824,
      "Auckland": 4825,
      "Graham": 4826,
      "dnd": 4827,
      "vinonet": 4828,
      "Joseph": 4829,
      "Cristiano": 4830,
      "Stevens": 4831,
      "Aecio": 4832,
      "Wik": 4833,
      "Westfalen": 4834,
      "etts": 4835,
      "Moteghi": 4836,
      "VietGAP": 4837,
      "Techfest": 4838,
      "Stolten": 4839,
      "gdDDD": 4840,
      "gue": 4841,
      "lvania": 4842,
      "nhansaigon": 4843,
      "tapchitaichinh": 4844,
      "Ricadrid": 4845,
      "gograd": 4846,
      "Henrique": 4847,
      "Yoshihi": 4848,
      "+/-": 4849,
      "Ayeyaw": 4850,
      "Bloomberg": 4851,
      "Bengal": 4852,
      "Beirut": 4853,
      "Citimart": 4854,
      "Dmitry": 4855,
      "Engelhor": 4856,
      "GNI": 4857,
      "GTVT": 4858,
      "Hightland": 4859,
      "Ingland": 4860,
      "Janeiro": 4861,
      "JCPOA": 4862,
      "Lindsey": 4863,
      "Neves": 4864,
      "Nordrhe": 4865,
      "Pranab": 4866,
      "Razak": 4867,
      "Rutte": 4868,
      "Sanders": 4869,
      "Scarbor": 4870,
      "VĐV": 4871,
      "Volgograd": 4872,
      "VACI": 4873,
      "Warsaw": 4874,
      "dẻo": 4875,
      "govina": 4876,
      "rủi": 4877,
      "ticut": 4878,
      "Phunuonline": 4879,
      "Nguyentandung": 4880,
      "Donbass": 4881,
      "Bachelet": 4882,
      "Coffee": 4883,
      "Campello": 4884,
      "Huawei": 4885,
      "Mykola": 4886,
      "Rozana": 4887,
      "Toyota": 4888,
      "Najib": 4889,
      "Rivoluson": 4890,
      "Sisoulith": 4891,
      "Connecticut": 4892,
      "Herzegovina": 4893,
      "Scottich": 4894,
      "Mukherjee": 4895,
      "Pennsylvania": 4896,
      "Pacific": 4897,
      "Goethe": 4898,
      "sachusetts": 4899,
      "Stoltenberg": 4900,
      "Engelhorn": 4901,
      "Nordrhein": 4902,
      "Scarborough": 4903,
      "\":": 4904,
      "\"...": 4905,
      "(⁇": 4906,
      "+)": 4907,
      ",.": 4908,
      "-)": 4909,
      "0h": 4910,
      "1m": 4911,
      "219": 4912,
      "280": 4913,
      "317": 4914,
      "316": 4915,
      "411": 4916,
      "490": 4917,
      "530": 4918,
      "570": 4919,
      "590": 4920,
      "5kg": 4921,
      "546": 4922,
      "6h": 4923,
      "650": 4924,
      "770": 4925,
      "745": 4926,
      "790": 4927,
      "830": 4928,
      "880": 4929,
      "838": 4930,
      "Asi": 4931,
      "Asia": 4932,
      "Bổ": 4933,
      "Bột": 4934,
      "Bis": 4935,
      "Bãi": 4936,
      "Bali": 4937,
      "Bão": 4938,
      "Beth": 4939,
      "Brand": 4940,
      "Cá": 4941,
      "Cực": 4942,
      "Cal": 4943,
      "Căn": 4944,
      "Cát": 4945,
      "Cur": 4946,
      "Cửa": 4947,
      "Cara": 4948,
      "Dan": 4949,
      "Dường": 4950,
      "Dia": 4951,
      "Dâm": 4952,
      "Dem": 4953,
      "Dri": 4954,
      "Dưới": 4955,
      "Dance": 4956,
      "Duma": 4957,
      "ER": 4958,
      "Ex": 4959,
      "Edu": 4960,
      "Eli": 4961,
      "Ecua": 4962,
      "FD": 4963,
      "FJ": 4964,
      "Fo": 4965,
      "Fel": 4966,
      "Fed": 4967,
      "FAR": 4968,
      "FLC": 4969,
      "Gặp": 4970,
      "Gri": 4971,
      "Gre": 4972,
      "Gói": 4973,
      "Gilo": 4974,
      "Họ": 4975,
      "Hương": 4976,
      "Hiệu": 4977,
      "Hiển": 4978,
      "Hon": 4979,
      "Hán": 4980,
      "Hát": 4981,
      "Hor": 4982,
      "HIM": 4983,
      "Haw": 4984,
      "Hee": 4985,
      "Halo": 4986,
      "Hatah": 4987,
      "Id": 4988,
      "Il": 4989,
      "Ima": 4990,
      "IAD": 4991,
      "Jim": 4992,
      "Juan": 4993,
      "Kl": 4994,
      "Kiệt": 4995,
      "Kel": 4996,
      "Kaz": 4997,
      "Lên": 4998,
      "Lục": 4999,
      "Les": 5000,
      "Lạm": 5001,
      "Lew": 5002,
      "Lei": 5003,
      "Lari": 5004,
      "Laden": 5005,
      "M1": 5006,
      "MI": 5007,
      "Miếu": 5008,
      "Mis": 5009,
      "Miền": 5010,
      "Móng": 5011,
      "Memen": 5012,
      "NW": 5013,
      "Nợ": 5014,
      "Nữ": 5015,
      "Nạn": 5016,
      "Niềm": 5017,
      "Neb": 5018,
      "Nói": 5019,
      "Ok": 5020,
      "Or": 5021,
      "Osi": 5022,
      "Ori": 5023,
      "PU": 5024,
      "Py": 5025,
      "Pany": 5026,
      "Quyền": 5027,
      "Qdnd": 5028,
      "Rà": 5029,
      "Rô": 5030,
      "Ren": 5031,
      "Ras": 5032,
      "Rand": 5033,
      "RTA": 5034,
      "Red": 5035,
      "RES": 5036,
      "S1": 5037,
      "Sk": 5038,
      "Sê": 5039,
      "Sin": 5040,
      "Sum": 5041,
      "Sas": 5042,
      "Sun": 5043,
      "SAM": 5044,
      "Smi": 5045,
      "Sandy": 5046,
      "SNP": 5047,
      "Tên": 5048,
      "Tương": 5049,
      "Tường": 5050,
      "Ter": 5051,
      "Tar": 5052,
      "Tin": 5053,
      "Tòng": 5054,
      "Tum": 5055,
      "Tou": 5056,
      "Tìm": 5057,
      "Taw": 5058,
      "Ur": 5059,
      "Uz": 5060,
      "Utah": 5061,
      "Vòng": 5062,
      "Vov": 5063,
      "Vla": 5064,
      "VTV": 5065,
      "WW": 5066,
      "We": 5067,
      "Wo": 5068,
      "WAM": 5069,
      "Xê": 5070,
      "Xương": 5071,
      "Yến": 5072,
      "Yale": 5073,
      "YWAM": 5074,
      "adi": 5075,
      "by": 5076,
      "bàng": 5077,
      "bốn": 5078,
      "bel": 5079,
      "bus": 5080,
      "cp": 5081,
      "ckh": 5082,
      "côi": 5083,
      "cas": 5084,
      "cily": 5085,
      "cester": 5086,
      "dy": 5087,
      "dũng": 5088,
      "dời": 5089,
      "dar": 5090,
      "dào": 5091,
      "dồi": 5092,
      "eer": 5093,
      "eksandr": 5094,
      "fa": 5095,
      "ga": 5096,
      "hán": 5097,
      "hảo": 5098,
      "har": 5099,
      "hứng": 5100,
      "hem": 5101,
      "héc": 5102,
      "ix": 5103,
      "jani": 5104,
      "kan": 5105,
      "keo": 5106,
      "ker": 5107,
      "kiểu": 5108,
      "kistan": 5109,
      "kTok": 5110,
      "ktor": 5111,
      "lỗ": 5112,
      "lận": 5113,
      "len": 5114,
      "lừa": 5115,
      "lạng": 5116,
      "lưỡng": 5117,
      "lỏng": 5118,
      "m3": 5119,
      "mù": 5120,
      "mơ": 5121,
      "mồ": 5122,
      "mỹ": 5123,
      "mon": 5124,
      "mầm": 5125,
      "mãi": 5126,
      "nới": 5127,
      "nong": 5128,
      "nan": 5129,
      "non": 5130,
      "nắng": 5131,
      "nandez": 5132,
      "pov": 5133,
      "rm": 5134,
      "rung": 5135,
      "rãi": 5136,
      "súc": 5137,
      "sánh": 5138,
      "sson": 5139,
      "sburg": 5140,
      "sler": 5141,
      "site": 5142,
      "tẩy": 5143,
      "tàn": 5144,
      "uong": 5145,
      "uống": 5146,
      "vé": 5147,
      "việt": 5148,
      "vết": 5149,
      "var": 5150,
      "vọt": 5151,
      "vre": 5152,
      "vvt": 5153,
      "viếng": 5154,
      "wa": 5155,
      "wer": 5156,
      "xứ": 5157,
      "xinh": 5158,
      "xay": 5159,
      "xưng": 5160,
      "yd": 5161,
      "ychel": 5162,
      "zt": 5163,
      "Út": 5164,
      "àm": 5165,
      "ía": 5166,
      "ĐB": 5167,
      "Đi": 5168,
      "Đồ": 5169,
      "Đạt": 5170,
      "Đang": 5171,
      "Động": 5172,
      "Đôn": 5173,
      "Đôi": 5174,
      "Đánh": 5175,
      "đệ": 5176,
      "đâu": 5177,
      "đằng": 5178,
      "đồn": 5179,
      "đun": 5180,
      "ngà": 5181,
      "nhượng": 5182,
      "nhin": 5183,
      "nhôm": 5184,
      "nhảy": 5185,
      "the": 5186,
      "trội": 5187,
      "trống": 5188,
      "trốn": 5189,
      "trỗi": 5190,
      "trạm": 5191,
      "chăm": 5192,
      "203": 5193,
      "20m2": 5194,
      "khứ": 5195,
      "quế": 5196,
      "quang": 5197,
      "quát": 5198,
      "phường": 5199,
      "phia": 5200,
      "phồn": 5201,
      "gio": 5202,
      "ans": 5203,
      "làn": 5204,
      "lành": 5205,
      "Tri": 5206,
      "Trợ": 5207,
      "Trạch": 5208,
      "Trải": 5209,
      "Trâm": 5210,
      "Thơ": 5211,
      "Thiện": 5212,
      "Thức": 5213,
      "Thính": 5214,
      "Thêm": 5215,
      "Thạnh": 5216,
      "ain": 5217,
      "air": 5218,
      "USAI": 5219,
      "Ngạn": 5220,
      "Chế": 5221,
      "Chợ": 5222,
      "Chữ": 5223,
      "Chưa": 5224,
      "Chem": 5225,
      "Chry": 5226,
      "chon": 5227,
      "raf": 5228,
      "tis": 5229,
      "tius": 5230,
      "times": 5231,
      "doi": 5232,
      "doan": 5233,
      "196": 5234,
      "1917": 5235,
      "1928": 5236,
      "1943": 5237,
      "1965": 5238,
      "1964": 5239,
      "kinhdoanh": 5240,
      "angang": 5241,
      "102": 5242,
      "1016": 5243,
      "Nhập": 5244,
      "hoo": 5245,
      "aline": 5246,
      "aleg": 5247,
      "aus": 5248,
      "ASIAD": 5249,
      "din": 5250,
      "dian": 5251,
      "divos": 5252,
      "nell": 5253,
      "30a": 5254,
      "ark": 5255,
      "elphia": 5256,
      "50m2": 5257,
      "lệch": 5258,
      "ECB": 5259,
      "214": 5260,
      "218": 5261,
      "int": 5262,
      "APF": 5263,
      "153": 5264,
      "enos": 5265,
      "enomic": 5266,
      "254": 5267,
      "184": 5268,
      "18kg": 5269,
      "uman": 5270,
      "137": 5271,
      "138": 5272,
      "banon": 5273,
      "khail": 5274,
      "100oF": 5275,
      "177": 5276,
      "178": 5277,
      "ila": 5278,
      "ili": 5279,
      "vitel": 5280,
      "cob": 5281,
      "Ind": 5282,
      "144": 5283,
      "148": 5284,
      "ady": 5285,
      "adelphia": 5286,
      "Khảo": 5287,
      "Khin": 5288,
      "Khẳng": 5289,
      "Giấy": 5290,
      "Giant": 5291,
      "House": 5292,
      "164": 5293,
      "165": 5294,
      "166": 5295,
      "16h": 5296,
      "1613": 5297,
      "chuồng": 5298,
      "uru": 5299,
      "Interna": 5300,
      "ess": 5301,
      "itenb": 5302,
      "243": 5303,
      "247": 5304,
      "Cos": 5305,
      "Colum": 5306,
      "285": 5307,
      "272": 5308,
      "atz": 5309,
      "atviet": 5310,
      "232": 5311,
      "233": 5312,
      "baobinh": 5313,
      "baophu": 5314,
      "baochinhphu": 5315,
      "TPNW": 5316,
      "dulich": 5317,
      "265": 5318,
      "mun": 5319,
      "baong": 5320,
      "1981": 5321,
      "tok": 5322,
      "tov": 5323,
      "taker": 5324,
      "ckson": 5325,
      "UNDP": 5326,
      "Moh": 5327,
      "Mobil": 5328,
      "Movitel": 5329,
      "lotov": 5330,
      "Brent": 5331,
      "ller": 5332,
      "chik": 5333,
      "ritius": 5334,
      "Tunis": 5335,
      "Joko": 5336,
      "Anthon": 5337,
      "Viktor": 5338,
      "Alan": 5339,
      "Albright": 5340,
      "Aleksandr": 5341,
      "NDT": 5342,
      "Doo": 5343,
      "Dow": 5344,
      "Doha": 5345,
      "800m2": 5346,
      "CLB": 5347,
      "Sabad": 5348,
      "caphe": 5349,
      "cafe": 5350,
      "osung": 5351,
      "558": 5352,
      "Mikhail": 5353,
      "Pari": 5354,
      "ParTS": 5355,
      "tenet": 5356,
      "Ismail": 5357,
      "372": 5358,
      "675": 5359,
      "Marin": 5360,
      "Marine": 5361,
      "Marke": 5362,
      "Vietbao": 5363,
      "Vietjet": 5364,
      "363": 5365,
      "366": 5366,
      "Abbo": 5367,
      "Abenomic": 5368,
      "lehem": 5369,
      "Myint": 5370,
      "Thanhnien": 5371,
      "Philadelphia": 5372,
      "383": 5373,
      "FPT": 5374,
      "hna": 5375,
      "Thuốc": 5376,
      "Philippe": 5377,
      "Bol": 5378,
      "berd": 5379,
      "berra": 5380,
      "berger": 5381,
      "enei": 5382,
      "751": 5383,
      "Lagar": 5384,
      "AMO": 5385,
      "tuyệt": 5386,
      "491": 5387,
      "496": 5388,
      "774": 5389,
      "lando": 5390,
      "Lockh": 5391,
      "Canel": 5392,
      "Cantho": 5393,
      "Canberra": 5394,
      "Lãi": 5395,
      "rain": 5396,
      "Croa": 5397,
      "Vina": 5398,
      "Mohammad": 5399,
      "NAAM": 5400,
      "Jeb": 5401,
      "Light": 5402,
      "Morris": 5403,
      "Ardesh": 5404,
      "akia": 5405,
      "nizt": 5406,
      "bogap": 5407,
      "thotou": 5408,
      "inawa": 5409,
      "Soha": 5410,
      "Top": 5411,
      "ebrid": 5412,
      "hanoi": 5413,
      "Kery": 5414,
      "Sicily": 5415,
      "dongcaphe": 5416,
      "inews": 5417,
      "xahoi": 5418,
      "Maine": 5419,
      "gorie": 5420,
      "vov5": 5421,
      "Aires": 5422,
      "Airbus": 5423,
      "celona": 5424,
      "Connell": 5425,
      "Lebanon": 5426,
      "889": 5427,
      "geon": 5428,
      "084": 5429,
      "Hernandez": 5430,
      "bekistan": 5431,
      "tùy": 5432,
      "Giarai": 5433,
      "Jacob": 5434,
      "Jackson": 5435,
      "Buenos": 5436,
      "Barcelona": 5437,
      "Scott": 5438,
      "Kritenb": 5439,
      "Muller": 5440,
      "website": 5441,
      "Petrotimes": 5442,
      "Hamad": 5443,
      "Minut": 5444,
      "EAEU": 5445,
      "prus": 5446,
      "Thein": 5447,
      "Mauritius": 5448,
      "Rose": 5449,
      "Roslyn": 5450,
      "Rosaline": 5451,
      "Power": 5452,
      "Sein": 5453,
      "Seug": 5454,
      "Seychel": 5455,
      "Ashraf": 5456,
      "CNRP": 5457,
      "Haji": 5458,
      "Manila": 5459,
      "Globogap": 5460,
      "Kolotov": 5461,
      "Ramallah": 5462,
      "Stat": 5463,
      "congdongcaphe": 5464,
      "ftwood": 5465,
      "Dilama": 5466,
      "Shafi": 5467,
      "Tencent": 5468,
      "oshima": 5469,
      "BigC": 5470,
      "Balkan": 5471,
      "Katherine": 5472,
      "Kabul": 5473,
      "THCS": 5474,
      "THPT": 5475,
      "TikTok": 5476,
      "Under": 5477,
      "Noda": 5478,
      "Panti": 5479,
      "Rating": 5480,
      "Ronald": 5481,
      "VIET": 5482,
      "rutina": 5483,
      "Pracell": 5484,
      "Ayato": 5485,
      "Fernandez": 5486,
      "Chowd": 5487,
      "????????????????????????????????????????????????????????????????????????????????????????????????????????????????????????????????": 5488,
      "Osama": 5489,
      "Schatz": 5490,
      "rink": 5491,
      "Christine": 5492,
      "Fordow": 5493,
      "Stonebrid": 5494,
      "Taberd": 5495,
      "Yathotou": 5496,
      "Petersburg": 5497,
      "Của": 5498,
      "RFI": 5499,
      "fish": 5500,
      "fistenet": 5501,
      "kins": 5502,
      "Khamenei": 5503,
      "TECHFEST": 5504,
      "AUTO": 5505,
      "Geun": 5506,
      "Lớn": 5507,
      "NZT": 5508,
      "Oxford": 5509,
      "Brunson": 5510,
      "Bolivar": 5511,
      "Rodrigo": 5512,
      "Cyprus": 5513,
      "GASUS": 5514,
      "Hiroshima": 5515,
      "Massachusetts": 5516,
      "Natuman": 5517,
      "PEGASUS": 5518,
      "Spider": 5519,
      "VAT": 5520,
      "cúm": 5521,
      "kDT": 5522,
      "tional": 5523,
      "Hopkins": 5524,
      "Bahrain": 5525,
      "Vienna": 5526,
      "Sachsen": 5527,
      "Abrams": 5528,
      "Andrew": 5529,
      "Ayeyawady": 5530,
      "Asian": 5531,
      "Bethlehem": 5532,
      "Caracas": 5533,
      "Diaz": 5534,
      "Driftwood": 5535,
      "Eliot": 5536,
      "FJP": 5537,
      "Feder": 5538,
      "FARC": 5539,
      "Grigorie": 5540,
      "HIMAMO": 5541,
      "Halotel": 5542,
      "Image": 5543,
      "Klaus": 5544,
      "Kelly": 5545,
      "Lênin": 5546,
      "Lewis": 5547,
      "Leicester": 5548,
      "Larijani": 5549,
      "Memendez": 5550,
      "Nebraska": 5551,
      "Orlando": 5552,
      "Osius": 5553,
      "Pyi": 5554,
      "Summers": 5555,
      "SAM2": 5556,
      "Smith": 5557,
      "Urrutina": 5558,
      "Uzbekistan": 5559,
      "Vladivos": 5560,
      "WeStat": 5561,
      "Woosung": 5562,
      "cpv": 5563,
      "USAID": 5564,
      "Chemnizt": 5565,
      "Chrysler": 5566,
      "International": 5567,
      "Columbia": 5568,
      "baophutho": 5569,
      "Tunisia": 5570,
      "Markey": 5571,
      "Abenomics": 5572,
      "Lagarde": 5573,
      "Lockheed": 5574,
      "Croatia": 5575,
      "Morrison": 5576,
      "Ardeshir": 5577,
      "Kritenbrink": 5578,
      "Minuteman": 5579,
      "Seychelles": 5580,
      "Shafiq": 5581,
      "Undertaker": 5582,
      "Ratings": 5583,
      "VIETNAAM": 5584,
      "Ayatollah": 5585,
      "Chowdhury": 5586,
      "Stonebridge": 5587,
      "Grigorievich": 5588,
      "Vladivostok": 5589,
      "\"....": 5590,
      "(????????": 5591,
      "+,": 5592,
      "+.": 5593,
      ",...": 5594,
      "-\"": 5595,
      "--": 5596,
      "/.": 5597,
      "050": 5598,
      "025": 5599,
      "024": 5600,
      "119": 5601,
      "1ha": 5602,
      "1N1": 5603,
      "2200": 5604,
      "2kg": 5605,
      "3M": 5606,
      "310": 5607,
      "330": 5608,
      "325": 5609,
      "313": 5610,
      "345": 5611,
      "324": 5612,
      "323": 5613,
      "329": 5614,
      "337": 5615,
      "332": 5616,
      "4G": 5617,
      "415": 5618,
      "425": 5619,
      "460": 5620,
      "470": 5621,
      "445": 5622,
      "4kg": 5623,
      "436": 5624,
      "434": 5625,
      "512": 5626,
      "515": 5627,
      "527": 5628,
      "537": 5629,
      "567": 5630,
      "5N1": 5631,
      "611": 5632,
      "640": 5633,
      "690": 5634,
      "635": 5635,
      "6kg": 5636,
      "633": 5637,
      "695": 5638,
      "652": 5639,
      "646": 5640,
      "648": 5641,
      "654": 5642,
      "7N": 5643,
      "719": 5644,
      "730": 5645,
      "718": 5646,
      "780": 5647,
      "729": 5648,
      "7kg": 5649,
      "755": 5650,
      "734": 5651,
      "768": 5652,
      "749": 5653,
      "739": 5654,
      "815": 5655,
      "870": 5656,
      "845": 5657,
      "823": 5658,
      "871": 5659,
      "892": 5660,
      "960": 5661,
      "9ha": 5662,
      "927": 5663,
      "990": 5664,
      "938": 5665,
      "963": 5666,
      "@.": 5667,
      "A1": 5668,
      "Ad": 5669,
      "Ath": 5670,
      "Amadinej": 5671,
      "Amadinejad": 5672,
      "ATM": 5673,
      "Aero": 5674,
      "BA": 5675,
      "BB": 5676,
      "Bá": 5677,
      "Bố": 5678,
      "Bạch": 5679,
      "Bốn": 5680,
      "Bing": 5681,
      "BCO": 5682,
      "BTA": 5683,
      "Boi": 5684,
      "Bene": 5685,
      "Blan": 5686,
      "Book": 5687,
      "BNP": 5688,
      "Bford": 5689,
      "Baden": 5690,
      "Bete": 5691,
      "BĐB": 5692,
      "CT": 5693,
      "CV": 5694,
      "Cây": 5695,
      "Cyr": 5696,
      "CFTA": 5697,
      "CDA": 5698,
      "City": 5699,
      "DH": 5700,
      "DW": 5701,
      "Dĩ": 5702,
      "Dong": 5703,
      "Diện": 5704,
      "Dao": 5705,
      "Dùng": 5706,
      "Den": 5707,
      "Dừa": 5708,
      "Dat": 5709,
      "Dama": 5710,
      "Dex": 5711,
      "DAI": 5712,
      "Dangcongsan": 5713,
      "Dere": 5714,
      "Djo": 5715,
      "EX": 5716,
      "Ed": 5717,
      "En": 5718,
      "Eu": 5719,
      "Edo": 5720,
      "Eco": 5721,
      "Ell": 5722,
      "Eri": 5723,
      "ENA": 5724,
      "Eni": 5725,
      "Ecis": 5726,
      "Eks": 5727,
      "Eug": 5728,
      "EAMF": 5729,
      "F4": 5730,
      "Fum": 5731,
      "F16": 5732,
      "Fill": 5733,
      "Fico": 5734,
      "Faul": 5735,
      "FLi": 5736,
      "Fest": 5737,
      "Fate": 5738,
      "Fant": 5739,
      "Fatah": 5740,
      "GC": 5741,
      "Gó": 5742,
      "Guy": 5743,
      "Gal": 5744,
      "Gau": 5745,
      "GII": 5746,
      "Gắn": 5747,
      "Gat": 5748,
      "Gap": 5749,
      "Gol": 5750,
      "Gate": 5751,
      "Gop": 5752,
      "GOP": 5753,
      "GCC": 5754,
      "Gera": 5755,
      "Gant": 5756,
      "GTM": 5757,
      "Grand": 5758,
      "Hân": 5759,
      "Hoà": 5760,
      "Hường": 5761,
      "Hal": 5762,
      "Huyên": 5763,
      "Hỏa": 5764,
      "Hạng": 5765,
      "HIP": 5766,
      "Hone": 5767,
      "Hei": 5768,
      "Heng": 5769,
      "HIV": 5770,
      "Hapr": 5771,
      "Hale": 5772,
      "H1N1": 5773,
      "H5N1": 5774,
      "H7N": 5775,
      "Iso": 5776,
      "ICP": 5777,
      "Iron": 5778,
      "Ivo": 5779,
      "Ivan": 5780,
      "IAAA": 5781,
      "IBCO": 5782,
      "Jel": 5783,
      "Jur": 5784,
      "Jet": 5785,
      "Jestar": 5786,
      "KK": 5787,
      "KO": 5788,
      "KP": 5789,
      "KT": 5790,
      "Kẻ": 5791,
      "Kỹ": 5792,
      "Kính": 5793,
      "Kang": 5794,
      "Kis": 5795,
      "Kat": 5796,
      "King": 5797,
      "Kir": 5798,
      "Kov": 5799,
      "KAM": 5800,
      "Khoan": 5801,
      "KAR": 5802,
      "Kev": 5803,
      "Kot": 5804,
      "KPR": 5805,
      "Karen": 5806,
      "KCC": 5807,
      "Kyeong": 5808,
      "Kans": 5809,
      "LB": 5810,
      "Lw": 5811,
      "Lá": 5812,
      "Liệt": 5813,
      "Lân": 5814,
      "Linh": 5815,
      "Lạt": 5816,
      "Liệu": 5817,
      "Lối": 5818,
      "Lay": 5819,
      "Lim": 5820,
      "Lời": 5821,
      "Lát": 5822,
      "Las": 5823,
      "Lis": 5824,
      "Lom": 5825,
      "Lạnh": 5826,
      "Los": 5827,
      "Lựa": 5828,
      "LAC": 5829,
      "Lars": 5830,
      "MC": 5831,
      "MM": 5832,
      "MU": 5833,
      "Mn": 5834,
      "Mê": 5835,
      "Mối": 5836,
      "Mộc": 5837,
      "Mel": 5838,
      "Men": 5839,
      "Mil": 5840,
      "Mắt": 5841,
      "Mus": 5842,
      "Mpi": 5843,
      "Mill": 5844,
      "Mene": 5845,
      "Mãi": 5846,
      "Món": 5847,
      "Mẫu": 5848,
      "NO": 5849,
      "Nà": 5850,
      "Nhơn": 5851,
      "Nang": 5852,
      "NAS": 5853,
      "Ndu": 5854,
      "Nah": 5855,
      "Nip": 5856,
      "Nore": 5857,
      "Nuôi": 5858,
      "Núi": 5859,
      "Nara": 5860,
      "Nld": 5861,
      "Nest": 5862,
      "NBC": 5863,
      "Neg": 5864,
      "Nyan": 5865,
      "Nep": 5866,
      "Nere": 5867,
      "NBA": 5868,
      "NKP": 5869,
      "OT": 5870,
      "On": 5871,
      "Oanh": 5872,
      "Oli": 5873,
      "Omar": 5874,
      "Oman": 5875,
      "Oma": 5876,
      "Ott": 5877,
      "OCOP": 5878,
      "Ope": 5879,
      "PI": 5880,
      "PN": 5881,
      "Pai": 5882,
      "Pel": 5883,
      "Pit": 5884,
      "Pri": 5885,
      "Ped": 5886,
      "Pot": 5887,
      "PET": 5888,
      "PUK": 5889,
      "P4G": 5890,
      "PMU": 5891,
      "QH": 5892,
      "QU": 5893,
      "RA": 5894,
      "RE": 5895,
      "RO": 5896,
      "RW": 5897,
      "Rung": 5898,
      "Ranh": 5899,
      "Rho": 5900,
      "Rim": 5901,
      "Ral": 5902,
      "REC": 5903,
      "Rum": 5904,
      "Res": 5905,
      "Rex": 5906,
      "ROEC": 5907,
      "RIA": 5908,
      "RRA": 5909,
      "SA": 5910,
      "SL": 5911,
      "SV": 5912,
      "Sw": 5913,
      "Str": 5914,
      "Sti": 5915,
      "Son": 5916,
      "Sho": 5917,
      "Sel": 5918,
      "Sus": 5919,
      "STA": 5920,
      "Súp": 5921,
      "Sít": 5922,
      "SOS": 5923,
      "Stan": 5924,
      "Sene": 5925,
      "Scha": 5926,
      "Seb": 5927,
      "Spe": 5928,
      "Sóc": 5929,
      "SPF": 5930,
      "Spr": 5931,
      "SUK": 5932,
      "SUI": 5933,
      "Siss": 5934,
      "Siri": 5935,
      "SER": 5936,
      "Syd": 5937,
      "SPI": 5938,
      "Ts": 5939,
      "Tông": 5940,
      "Tao": 5941,
      "Tưởng": 5942,
      "Tào": 5943,
      "Tái": 5944,
      "Tát": 5945,
      "Tus": 5946,
      "TEU": 5947,
      "Tit": 5948,
      "T90": 5949,
      "Tích": 5950,
      "Tap": 5951,
      "Till": 5952,
      "Tak": 5953,
      "Tọa": 5954,
      "Tquoc": 5955,
      "Tosh": 5956,
      "Talo": 5957,
      "Tete": 5958,
      "TIBCO": 5959,
      "U19": 5960,
      "UEF": 5961,
      "Uma": 5962,
      "UHO": 5963,
      "UADO": 5964,
      "UPU": 5965,
      "Vo": 5966,
      "Vu": 5967,
      "Vỗ": 5968,
      "Vết": 5969,
      "Ver": 5970,
      "Vạn": 5971,
      "Vượng": 5972,
      "Var": 5973,
      "Vas": 5974,
      "Vet": 5975,
      "Vaz": 5976,
      "Vua": 5977,
      "Vya": 5978,
      "Voa": 5979,
      "Veg": 5980,
      "VFD": 5981,
      "Vili": 5982,
      "Wu": 5983,
      "Win": 5984,
      "WET": 5985,
      "Xà": 5986,
      "Xuyên": 5987,
      "Xin": 5988,
      "Xiêng": 5989,
      "XXI": 5990,
      "Xít": 5991,
      "XVI": 5992,
      "Yo": 5993,
      "Yong": 5994,
      "Yan": 5995,
      "Yết": 5996,
      "Ying": 5997,
      "Yom": 5998,
      "Yustin": 5999,
      "Yud": 6000,
      "Zay": 6001,
      "Zing": 6002,
      "Zene": 6003,
      "Zog": 6004,
      "Zari": 6005,
      "Zuri": 6006,
      "Zuma": 6007,
      "ZRES": 6008,
      "ZUHO": 6009,
      "ako": 6010,
      "acha": 6011,
      "agan": 6012,
      "ache": 6013,
      "avong": 6014,
      "bs": 6015,
      "bé": 6016,
      "bọ": 6017,
      "bông": 6018,
      "bành": 6019,
      "bắc": 6020,
      "bis": 6021,
      "bes": 6022,
      "bos": 6023,
      "bếp": 6024,
      "ble": 6025,
      "bắp": 6026,
      "bọt": 6027,
      "bio": 6028,
      "bper": 6029,
      "bate": 6030,
      "bras": 6031,
      "bru": 6032,
      "cc": 6033,
      "cl": 6034,
      "cs": 6035,
      "cy": 6036,
      "cỗ": 6037,
      "cỡ": 6038,
      "cổng": 6039,
      "cgia": 6040,
      "cúc": 6041,
      "cor": 6042,
      "cand": 6043,
      "cri": 6044,
      "cưỡng": 6045,
      "city": 6046,
      "cnhin": 6047,
      "dt": 6048,
      "dam": 6049,
      "dinh": 6050,
      "dập": 6051,
      "dạo": 6052,
      "dạn": 6053,
      "des": 6054,
      "dấy": 6055,
      "ec": 6056,
      "ef": 6057,
      "ek": 6058,
      "eim": 6059,
      "eit": 6060,
      "eck": 6061,
      "ezone": 6062,
      "eff": 6063,
      "epr": 6064,
      "edia": 6065,
      "fA": 6066,
      "fr": 6067,
      "flu": 6068,
      "fven": 6069,
      "fair": 6070,
      "fberger": 6071,
      "gy": 6072,
      "gai": 6073,
      "gal": 6074,
      "gne": 6075,
      "glu": 6076,
      "gấu": 6077,
      "gánh": 6078,
      "gas": 6079,
      "gad": 6080,
      "gua": 6081,
      "gary": 6082,
      "gre": 6083,
      "gợi": 6084,
      "gro": 6085,
      "gazprom": 6086,
      "gdor": 6087,
      "hk": 6088,
      "hm": 6089,
      "hum": 6090,
      "hồn": 6091,
      "hman": 6092,
      "hrim": 6093,
      "hàm": 6094,
      "iz": 6095,
      "ira": 6096,
      "ier": 6097,
      "icon": 6098,
      "ius": 6099,
      "iem": 6100,
      "ibu": 6101,
      "ide": 6102,
      "iuri": 6103,
      "iite": 6104,
      "jj": 6105,
      "jor": 6106,
      "jom": 6107,
      "jali": 6108,
      "jitsu": 6109,
      "kW": 6110,
      "ky": 6111,
      "kam": 6112,
      "kur": 6113,
      "ket": 6114,
      "kse": 6115,
      "kke": 6116,
      "kander": 6117,
      "kich": 6118,
      "kdt": 6119,
      "lk": 6120,
      "lw": 6121,
      "lân": 6122,
      "lang": 6123,
      "lũng": 6124,
      "let": 6125,
      "llo": 6126,
      "lắm": 6127,
      "lứa": 6128,
      "lberg": 6129,
      "lén": 6130,
      "mê": 6131,
      "manh": 6132,
      "mập": 6133,
      "mận": 6134,
      "mát": 6135,
      "mưa": 6136,
      "min": 6137,
      "mor": 6138,
      "móng": 6139,
      "met": 6140,
      "mẩn": 6141,
      "mảnh": 6142,
      "mít": 6143,
      "mos": 6144,
      "mrai": 6145,
      "múa": 6146,
      "mặn": 6147,
      "musse": 6148,
      "miếng": 6149,
      "nd": 6150,
      "ny": 6151,
      "neo": 6152,
      "ner": 6153,
      "nar": 6154,
      "nấu": 6155,
      "nip": 6156,
      "náu": 6157,
      "nbull": 6158,
      "ndez": 6159,
      "of": 6160,
      "ok": 6161,
      "oáng": 6162,
      "osi": 6163,
      "ovn": 6164,
      "oli": 6165,
      "oxin": 6166,
      "oft": 6167,
      "ouse": 6168,
      "ody": 6169,
      "pl": 6170,
      "pin": 6171,
      "pet": 6172,
      "psi": 6173,
      "pda": 6174,
      "pot": 6175,
      "pol": 6176,
      "poon": 6177,
      "papluat": 6178,
      "rd": 6179,
      "rò": 6180,
      "rể": 6181,
      "rỉ": 6182,
      "rụ": 6183,
      "rao": 6184,
      "rồng": 6185,
      "rent": 6186,
      "rurt": 6187,
      "rett": 6188,
      "rgeon": 6189,
      "sốc": 6190,
      "sắt": 6191,
      "sone": 6192,
      "sni": 6193,
      "sụt": 6194,
      "sóc": 6195,
      "spot": 6196,
      "tp": 6197,
      "tv": 6198,
      "tch": 6199,
      "tam": 6200,
      "tung": 6201,
      "tống": 6202,
      "teo": 6203,
      "tar": 6204,
      "tụt": 6205,
      "túy": 6206,
      "tkich": 6207,
      "uk": 6208,
      "uổi": 6209,
      "ull": 6210,
      "uko": 6211,
      "udan": 6212,
      "uard": 6213,
      "uee": 6214,
      "ukov": 6215,
      "urado": 6216,
      "uero": 6217,
      "vv": 6218,
      "vác": 6219,
      "vội": 6220,
      "vây": 6221,
      "vim": 6222,
      "vot": 6223,
      "vea": 6224,
      "vlin": 6225,
      "vkovi": 6226,
      "way": 6227,
      "wah": 6228,
      "wren": 6229,
      "weit": 6230,
      "wuero": 6231,
      "xô": 6232,
      "xương": 6233,
      "xim": 6234,
      "xal": 6235,
      "xand": 6236,
      "xích": 6237,
      "xít": 6238,
      "xide": 6239,
      "ych": 6240,
      "yon": 6241,
      "yenko": 6242,
      "ywood": 6243,
      "zdo": 6244,
      "zia": 6245,
      "zad": 6246,
      "zla": 6247,
      "zbo": 6248,
      "zona": 6249,
      "zazi": 6250,
      "Ái": 6251,
      "Âm": 6252,
      "Ít": 6253,
      "Đá": 6254,
      "Đệ": 6255,
      "Đỏ": 6256,
      "Điệp": 6257,
      "Đạo": 6258,
      "Đấu": 6259,
      "Đằng": 6260,
      "Đặt": 6261,
      "Đưa": 6262,
      "Đắc": 6263,
      "Đồn": 6264,
      "Đêm": 6265,
      "đũ": 6266,
      "đẻ": 6267,
      "đẽ": 6268,
      "đau": 6269,
      "đọng": 6270,
      "đồi": 6271,
      "đem": 6272,
      "đậm": 6273,
      "đùa": 6274,
      "đứt": 6275,
      "đĩa": 6276,
      "đuổi": 6277,
      "ễu": 6278,
      "ớp": 6279,
      "⁇.": 6280,
      "ngu": 6281,
      "ngô": 6282,
      "ngang": 6283,
      "ngừa": 6284,
      "ngồi": 6285,
      "ngạc": 6286,
      "ngơi": 6287,
      "nhẹ": 6288,
      "nhang": 6289,
      "nhắn": 6290,
      "nheim": 6291,
      "nhoáng": 6292,
      "thú": 6293,
      "thả": 6294,
      "thợ": 6295,
      "thong": 6296,
      "thăng": 6297,
      "thính": 6298,
      "thung": 6299,
      "thom": 6300,
      "thám": 6301,
      "thấm": 6302,
      "thắp": 6303,
      "trệ": 6304,
      "trông": 6305,
      "trần": 6306,
      "tron": 6307,
      "treo": 6308,
      "trướng": 6309,
      "trưa": 6310,
      "trúng": 6311,
      "tres": 6312,
      "chay": 6313,
      "chim": 6314,
      "chne": 6315,
      "chôn": 6316,
      "chằng": 6317,
      "ches": 6318,
      "chạm": 6319,
      "chậu": 6320,
      "chênh": 6321,
      "chót": 6322,
      "chớp": 6323,
      "2027": 6324,
      "20km": 6325,
      "kham": 6326,
      "khiết": 6327,
      "khen": 6328,
      "khet": 6329,
      "quãng": 6330,
      "phiến": 6331,
      "phunu": 6332,
      "giương": 6333,
      "giật": 6334,
      "gill": 6335,
      "gioi": 6336,
      "giãn": 6337,
      "ams": 6338,
      "amen": 6339,
      "amitsu": 6340,
      "ana": 6341,
      "anah": 6342,
      "trongtaichinh": 6343,
      "trongdulich": 6344,
      "003": 6345,
      "005": 6346,
      "nghquan": 6347,
      "nghavong": 6348,
      "Trả": 6349,
      "Trẻ": 6350,
      "Trăng": 6351,
      "Triệu": 6352,
      "Trâu": 6353,
      "Triết": 6354,
      "inhcity": 6355,
      "ươm": 6356,
      "Thai": 6357,
      "Thập": 6358,
      "Thạch": 6359,
      "Thảo": 6360,
      "Thôn": 6361,
      "Thát": 6362,
      "Thắng": 6363,
      "Thoi": 6364,
      "Thone": 6365,
      "Thani": 6366,
      "Thúy": 6367,
      "Thestar": 6368,
      "aica": 6369,
      "USGS": 6370,
      "Ngược": 6371,
      "Ngàn": 6372,
      "Chè": 6373,
      "Chú": 6374,
      "Chân": 6375,
      "Chiên": 6376,
      "Chau": 6377,
      "Chứng": 6378,
      "Chắc": 6379,
      "Chọn": 6380,
      "Choi": 6381,
      "Chặng": 6382,
      "Chiếm": 6383,
      "China": 6384,
      "Chawa": 6385,
      "Chhum": 6386,
      "Quần": 6387,
      "Quase": 6388,
      "unguong": 6389,
      "chofberger": 6390,
      "rang": 6391,
      "rathon": 6392,
      "ragua": 6393,
      "rahman": 6394,
      "sốt": 6395,
      "tie": 6396,
      "tip": 6397,
      "tico": 6398,
      "tiêm": 6399,
      "tite": 6400,
      "tieng": 6401,
      "tisa": 6402,
      "tirang": 6403,
      "aya": 6404,
      "dodo": 6405,
      "dothi": 6406,
      "doni": 6407,
      "191": 6408,
      "19h": 6409,
      "1910": 6410,
      "1916": 6411,
      "1940": 6412,
      "1932": 6413,
      "1936": 6414,
      "1952": 6415,
      "1963": 6416,
      "1939": 6417,
      "1941": 6418,
      "1956": 6419,
      "1906": 6420,
      "khoác": 6421,
      "109": 6422,
      "10m": 6423,
      "onMobil": 6424,
      "Nhì": 6425,
      "Nhai": 6426,
      "Nhia": 6427,
      "Nhạc": 6428,
      "Phù": 6429,
      "Phố": 6430,
      "Phay": 6431,
      "Phùng": 6432,
      "Phổi": 6433,
      "Phom": 6434,
      "Phía": 6435,
      "hof": 6436,
      "hoed": 6437,
      "homa": 6438,
      "hoyon": 6439,
      "hochim": 6440,
      "202020": 6441,
      "soli": 6442,
      "sovo": 6443,
      "sopetro": 6444,
      "erne": 6445,
      "ertt": 6446,
      "erre": 6447,
      "imon": 6448,
      "immeier": 6449,
      "imitsu": 6450,
      "imaya": 6451,
      "Trungbur": 6452,
      "alay": 6453,
      "alli": 6454,
      "khiêu": 6455,
      "200s": 6456,
      "dic": 6457,
      "dif": 6458,
      "dien": 6459,
      "diri": 6460,
      "diễu": 6461,
      "doanhnghi": 6462,
      "doanhnhansaigon": 6463,
      "iac": 6464,
      "??)": 6465,
      "ANZ": 6466,
      "neli": 6467,
      "%...": 6468,
      "303": 6469,
      "304": 6470,
      "306": 6471,
      "308": 6472,
      "30ha": 6473,
      "30km": 6474,
      "1100": 6475,
      "1152": 6476,
      "are": 6477,
      "artu": 6478,
      "areg": 6479,
      "arhar": 6480,
      "1299": 6481,
      "1279": 6482,
      "lup": 6483,
      "luồng": 6484,
      "luộc": 6485,
      "luck": 6486,
      "elt": 6487,
      "eles": 6488,
      "tổn": 6489,
      "504": 6490,
      "IIIP": 6491,
      "215": 6492,
      "21h": 6493,
      "ini": 6494,
      "inch": 6495,
      "inne": 6496,
      "APIM": 6497,
      "151": 6498,
      "158": 6499,
      "159": 6500,
      "15m": 6501,
      "1528": 6502,
      "ento": 6503,
      "enphu": 6504,
      "enyan": 6505,
      "enaica": 6506,
      "257": 6507,
      "góc": 6508,
      "1880": 6509,
      "1837": 6510,
      "1895": 6511,
      "1863": 6512,
      "1858": 6513,
      "1859": 6514,
      "1894": 6515,
      "1896": 6516,
      "1884": 6517,
      "133": 6518,
      "13h": 6519,
      "chuyền": 6520,
      "org": 6521,
      "orsco": 6522,
      "asni": 6523,
      "astian": 6524,
      "bania": 6525,
      "100m": 6526,
      "100m2": 6527,
      "1731": 6528,
      "ilon": 6529,
      "vio": 6530,
      "vihan": 6531,
      "vietin": 6532,
      "viyenko": 6533,
      "ture": 6534,
      "tubin": 6535,
      "coin": 6536,
      "Intel": 6537,
      "Inche": 6538,
      "Inerne": 6539,
      "tựa": 6540,
      "coni": 6541,
      "contai": 6542,
      "1467": 6543,
      "60ha": 6544,
      "60m2": 6545,
      "????)": 6546,
      "????:": 6547,
      "??????.": 6548,
      "Khê": 6549,
      "Khat": 6550,
      "Khuyến": 6551,
      "Gita": 6552,
      "Gibert": 6553,
      "Giira": 6554,
      "500m": 6555,
      "Hoi": 6556,
      "Hocm": 6557,
      "Homes": 6558,
      "Hobper": 6559,
      "Hook": 6560,
      "Hosni": 6561,
      "EURO": 6562,
      "emilk": 6563,
      "emitsu": 6564,
      "email": 6565,
      "emart": 6566,
      "163": 6567,
      "chuỗi": 6568,
      "Ngheer": 6569,
      "707": 6570,
      "70m": 6571,
      "70m2": 6572,
      "457": 6573,
      "402": 6574,
      "ghenyan": 6575,
      "esong": 6576,
      "eser": 6577,
      "etoth": 6578,
      "Bac": 6579,
      "Babis": 6580,
      "havre": 6581,
      "hatkich": 6582,
      "801": 6583,
      "80m2": 6584,
      "iton": 6585,
      "itel": 6586,
      "itas": 6587,
      "244": 6588,
      "Coper": 6589,
      "Copa": 6590,
      "284": 6591,
      "288": 6592,
      "275": 6593,
      "276": 6594,
      "278": 6595,
      "sui": 6596,
      "sun": 6597,
      "suno": 6598,
      "atex": 6599,
      "23h": 6600,
      "baoson": 6601,
      "baolaodong": 6602,
      "baotaichinh": 6603,
      "baokinhdoanh": 6604,
      "duc": 6605,
      "dul": 6606,
      "duras": 6607,
      "229": 6608,
      "261": 6609,
      "Luân": 6610,
      "Luhan": 6611,
      "Lucio": 6612,
      "Luiz": 6613,
      "ingp": 6614,
      "omart": 6615,
      "Obamacar": 6616,
      "vịnh": 6617,
      "bacgia": 6618,
      "Digio": 6619,
      "Dioxin": 6620,
      "Bảoxay": 6621,
      "1983": 6622,
      "1987": 6623,
      "tos": 6624,
      "toquoc": 6625,
      "toglu": 6626,
      "CPP": 6627,
      "CPR": 6628,
      "ckx": 6629,
      "ckman": 6630,
      "video": 6631,
      "355": 6632,
      "Bích": 6633,
      "Moody": 6634,
      "Modul": 6635,
      "299": 6636,
      "lodin": 6637,
      "??????????": 6638,
      "Brook": 6639,
      "400g": 6640,
      "sigon": 6641,
      "singhavong": 6642,
      "lla": 6643,
      "llbright": 6644,
      "vnme": 6645,
      "vnmus": 6646,
      "VNPT": 6647,
      "Camera": 6648,
      "Huf": 6649,
      "Huấn": 6650,
      "Hulk": 6651,
      "Puli": 6652,
      "Pullo": 6653,
      "Tube": 6654,
      "Tuzla": 6655,
      "Tuareg": 6656,
      "sứa": 6657,
      "Joa": 6658,
      "Job": 6659,
      "Jod": 6660,
      "Jock": 6661,
      "600kg": 6662,
      "Ana": 6663,
      "Annan": 6664,
      "Clombia": 6665,
      "Cliton": 6666,
      "Victor": 6667,
      "Vietin": 6668,
      "Vitisa": 6669,
      "OSCE": 6670,
      "ashimaya": 6671,
      "Alber": 6672,
      "Alington": 6673,
      "Alps": 6674,
      "Algeria": 6675,
      "Aldian": 6676,
      "Albania": 6677,
      "ahi": 6678,
      "NDAA": 6679,
      "tanbul": 6680,
      "Doa": 6681,
      "Doan": 6682,
      "Dodw": 6683,
      "Doug": 6684,
      "Donhansaigon": 6685,
      "Dohk": 6686,
      "Dourado": 6687,
      "Malta": 6688,
      "Mallai": 6689,
      "Save": 6690,
      "Sabri": 6691,
      "Savan": 6692,
      "Saadi": 6693,
      "caragua": 6694,
      "osti": 6695,
      "oslav": 6696,
      "putra": 6697,
      "557": 6698,
      "55kg": 6699,
      "buchi": 6700,
      "ipedia": 6701,
      "Franckx": 6702,
      "Reach": 6703,
      "Reagan": 6704,
      "Rebate": 6705,
      "pio": 6706,
      "tinhthudo": 6707,
      "Parcel": 6708,
      "tech": 6709,
      "tein": 6710,
      "dakam": 6711,
      "lidar": 6712,
      "namnet": 6713,
      "unnhang": 6714,
      "Island": 6715,
      "Iskander": 6716,
      "Istanbul": 6717,
      "elav": 6718,
      "elago": 6719,
      "elabad": 6720,
      "3260": 6721,
      "674": 6722,
      "eurozone": 6723,
      "Khuôn": 6724,
      "Marco": 6725,
      "Marty": 6726,
      "Mario": 6727,
      "Marina": 6728,
      "Marian": 6729,
      "Marvin": 6730,
      "Marjor": 6731,
      "oivu": 6732,
      "VietNam": 6733,
      "VietJet": 6734,
      "Vietgazprom": 6735,
      "Vietsopetro": 6736,
      "369": 6737,
      "36m": 6738,
      "ley": 6739,
      "letico": 6740,
      "Haiyan": 6741,
      "Myasni": 6742,
      "lahoma": 6743,
      "386": 6744,
      "479": 6745,
      "Hye": 6746,
      "Sham": 6747,
      "Shun": 6748,
      "Shell": 6749,
      "Shiite": 6750,
      "Shimon": 6751,
      "Holls": 6752,
      "Hollywood": 6753,
      "Israelabad": 6754,
      "Thuột": 6755,
      "982": 6756,
      "coisong": 6757,
      "Bob": 6758,
      "Boca": 6759,
      "BofA": 6760,
      "Bounnhang": 6761,
      "vawuero": 6762,
      "Row": 6763,
      "Roger": 6764,
      "Astra": 6765,
      "Asahi": 6766,
      "757": 6767,
      "kolas": 6768,
      "kovich": 6769,
      "Castel": 6770,
      "Casino": 6771,
      "Castinhthudo": 6772,
      "Lawren": 6773,
      "Meck": 6774,
      "Megary": 6775,
      "nguyent": 6776,
      "ICCPR": 6777,
      "????????????????????": 6778,
      "??????????????????????????": 6779,
      "150km": 6780,
      "461": 6781,
      "AM49": 6782,
      "vietpetro": 6783,
      "494": 6784,
      "587": 6785,
      "58m": 6786,
      "Angeles": 6787,
      "lanos": 6788,
      "Lolo": 6789,
      "Lott": 6790,
      "Logar": 6791,
      "Logic": 6792,
      "Lofven": 6793,
      "Lokke": 6794,
      "Lockman": 6795,
      "seong": 6796,
      "Brah": 6797,
      "Peer": 6798,
      "Pease": 6799,
      "Pepsi": 6800,
      "Petron": 6801,
      "marathon": 6802,
      "Croft": 6803,
      "Vincent": 6804,
      "Vinatex": 6805,
      "Mohamad": 6806,
      "AfCFTA": 6807,
      "Cats": 6808,
      "NAFTA": 6809,
      "Samrin": 6810,
      "danang": 6811,
      "chado": 6812,
      "CELAC": 6813,
      "Jeong": 6814,
      "Live": 6815,
      "Morsy": 6816,
      "Moroc": 6817,
      "EuroGap": 6818,
      "Europol": 6819,
      "kongfair": 6820,
      "Arập": 6821,
      "Archip": 6822,
      "akerson": 6823,
      "nichi": 6824,
      "664": 6825,
      "669": 6826,
      "Davu": 6827,
      "Maxim": 6828,
      "Mabuchi": 6829,
      "Machado": 6830,
      "ski": 6831,
      "Fabi": 6832,
      "bous": 6833,
      "693": 6834,
      "694": 6835,
      "Baodanang": 6836,
      "Carter": 6837,
      "Carmrai": 6838,
      "Cargill": 6839,
      "Carpio": 6840,
      "Naim": 6841,
      "inath": 6842,
      "391": 6843,
      "Soleim": 6844,
      "Solberg": 6845,
      "Solidar": 6846,
      "chịt": 6847,
      "Toghenyan": 6848,
      "Latakia": 6849,
      "Rial": 6850,
      "Rica": 6851,
      "Rivlin": 6852,
      "Rieser": 6853,
      "Siam": 6854,
      "Siêu": 6855,
      "Sifan": 6856,
      "Sivkovi": 6857,
      "Sidoni": 6858,
      "moitrongdulich": 6859,
      "sans": 6860,
      "sanno": 6861,
      "AIPAC": 6862,
      "9001": 6863,
      "Maichigan": 6864,
      "Mainichi": 6865,
      "Maher": 6866,
      "Sup": 6867,
      "Suzan": 6868,
      "Suleim": 6869,
      "Sanche": 6870,
      "Santia": 6871,
      "Santos": 6872,
      "Vannghquan": 6873,
      "evneli": 6874,
      "vut": 6875,
      "hida": 6876,
      "ISA": 6877,
      "LHPN": 6878,
      "gocnhin": 6879,
      "Alexandr": 6880,
      "Alexxand": 6881,
      "https": 6882,
      "Mitsui": 6883,
      "Netaleg": 6884,
      "SOC": 6885,
      "SODex": 6886,
      "peare": 6887,
      "peakerson": 6888,
      "Nicaragua": 6889,
      "Nikolas": 6890,
      "Peres": 6891,
      "begdor": 6892,
      "genia": 6893,
      "Emmers": 6894,
      "Javid": 6895,
      "Jabha": 6896,
      "dioxide": 6897,
      "Michelot": 6898,
      "Ahmad": 6899,
      "Ahmet": 6900,
      "Buôn": 6901,
      "Budakam": 6902,
      "Barroso": 6903,
      "Barain": 6904,
      "Barrett": 6905,
      "Barley": 6906,
      "Cathay": 6907,
      "Cadif": 6908,
      "Làm": 6909,
      "Stefan": 6910,
      "Steimmeier": 6911,
      "bienphu": 6912,
      "nghiep": 6913,
      "1709": 6914,
      "Claudio": 6915,
      "Atletico": 6916,
      "Hasina": 6917,
      "Krông": 6918,
      "Muộn": 6919,
      "Tràm": 6920,
      "Petrobras": 6921,
      "Hamas": 6922,
      "Hamde": 6923,
      "Hamid": 6924,
      "Hamburg": 6925,
      "Minne": 6926,
      "Minato": 6927,
      "Timor": 6928,
      "Timoth": 6929,
      ":??.": 6930,
      "TSCT": 6931,
      "press": 6932,
      "laodongthudo": 6933,
      "Markzdo": 6934,
      "Georgia": 6935,
      "Apache": 6936,
      "Benny": 6937,
      "Borneo": 6938,
      "Guam": 6939,
      "Rosen": 6940,
      "Serbia": 6941,
      "nhanda": 6942,
      "Libăng": 6943,
      "McDonald": 6944,
      "McConnell": 6945,
      "McFaul": 6946,
      "PRI": 6947,
      "Poor": 6948,
      "Popov": 6949,
      "Seut": 6950,
      "Sekur": 6951,
      "TNVN": 6952,
      "tụng": 6953,
      "chek": 6954,
      "Antonia": 6955,
      "Hassanal": 6956,
      "Amgad": 6957,
      "Arab": 6958,
      "Berber": 6959,
      "Berro": 6960,
      "Berlin": 6961,
      "Berlus": 6962,
      "CNC": 6963,
      "CSA": 6964,
      "Hague": 6965,
      "Hajj": 6966,
      "IDG": 6967,
      "IDEAS": 6968,
      "Mannheim": 6969,
      "Mandiri": 6970,
      "PDVS": 6971,
      "Yousou": 6972,
      "YouTube": 6973,
      "Boehm": 6974,
      "Kofi": 6975,
      "Kouru": 6976,
      "Koweit": 6977,
      "Kosovo": 6978,
      "Paralympic": 6979,
      "Ramon": 6980,
      "Startu": 6981,
      "congthong": 6982,
      "merce": 6983,
      "eshkova": 6984,
      "Parkland": 6985,
      "Shakes": 6986,
      "Shahrim": 6987,
      "Shakse": 6988,
      "Wall": 6989,
      "kiah": 6990,
      "Ballet": 6991,
      "Bitcoin": 6992,
      "Erna": 6993,
      "Kaesong": 6994,
      "Sayacha": 6995,
      "THX": 6996,
      "VnEx": 6997,
      "Vntip": 6998,
      "Wilfr": 6999,
      "nakhet": 7000,
      "chinad": 7001,
      "Phanthom": 7002,
      "Brussel": 7003,
      "Fint": 7004,
      "Finux": 7005,
      "Fintech": 7006,
      "Haysone": 7007,
      "Kyodo": 7008,
      "Nouri": 7009,
      "Nobel": 7010,
      "Pira": 7011,
      "Pitin": 7012,
      "Pierre": 7013,
      "Pievneli": 7014,
      "Panmun": 7015,
      "Port": 7016,
      "Porter": 7017,
      "Rajo": 7018,
      "VITM": 7019,
      "Charlie": 7020,
      "Nikos": 7021,
      "blogspot": 7022,
      "Danie": 7023,
      "Fernao": 7024,
      "Golan": 7025,
      "Kyung": 7026,
      "Mandalay": 7027,
      "PVV": 7028,
      "PVVV": 7029,
      "Silah": 7030,
      "Silva": 7031,
      "Silicon": 7032,
      "Silvio": 7033,
      "Thitrongtaichinh": 7034,
      "Chosun": 7035,
      "CPUET": 7036,
      "Steinbru": 7037,
      "Globalbe": 7038,
      "EAS9": 7039,
      "Heun": 7040,
      "Hezbo": 7041,
      "Heamitsu": 7042,
      "Kurz": 7043,
      "MH17": 7044,
      "Oslo": 7045,
      "Ostar": 7046,
      "Torama": 7047,
      "XXX": 7048,
      "ehr": 7049,
      "hukova": 7050,
      "mentite": 7051,
      "thanglong": 7052,
      "000000": 7053,
      "0000000000": 7054,
      "Truemilk": 7055,
      "Thongsinghavong": 7056,
      "Christian": 7057,
      "alogic": 7058,
      "Krishna": 7059,
      "Aujali": 7060,
      "Forbes": 7061,
      "Formos": 7062,
      "Grap": 7063,
      "Hanoimoi": 7064,
      "Hanwha": 7065,
      "Hariri": 7066,
      "Harpoon": 7067,
      "Haruko": 7068,
      "Paktia": 7069,
      "Saleh": 7070,
      "Stone": 7071,
      "Stoneman": 7072,
      "Taek": 7073,
      "Tavawuero": 7074,
      "Toni": 7075,
      "Turbull": 7076,
      "Turnbull": 7077,
      "Walesa": 7078,
      "Yahoo": 7079,
      "Yaako": 7080,
      "mãnh": 7081,
      "nhahatkich": 7082,
      "doisongphapluat": 7083,
      "hoibaokinhdoanh": 7084,
      "baodatviet": 7085,
      "Motort": 7086,
      "Peterburg": 7087,
      "Cristina": 7088,
      "Patriot": 7089,
      "Charleston": 7090,
      "Nikki": 7091,
      "Schulzte": 7092,
      "Aeon": 7093,
      "Bayvut": 7094,
      "Ericsson": 7095,
      "Gazpromviet": 7096,
      "Mattis": 7097,
      "Matteo": 7098,
      "Matviyenko": 7099,
      "RFA": 7100,
      "Runet": 7101,
      "Rubio": 7102,
      "VSIP": 7103,
      "Widodo": 7104,
      "hean": 7105,
      "mekongfair": 7106,
      "Khampha": 7107,
      "Motegi": 7108,
      "VietGap": 7109,
      "TechFest": 7110,
      "Ayruz": 7111,
      "Ayrrurt": 7112,
      "Bambang": 7113,
      "Corp": 7114,
      "Corinne": 7115,
      "Daikin": 7116,
      "Daiibu": 7117,
      "Elbegdor": 7118,
      "Fezan": 7119,
      "Fujitsu": 7120,
      "Fullbright": 7121,
      "Lớp": 7122,
      "NZL": 7123,
      "PyeongChang": 7124,
      "Sengpet": 7125,
      "Ventres": 7126,
      "Venture": 7127,
      "Vitas": 7128,
      "Vitelav": 7129,
      "daidoan": 7130,
      "phapluatxahoi": 7131,
      "Commerce": 7132,
      "Commentite": 7133,
      "Bruno": 7134,
      "Bolivia": 7135,
      "Rodrigue": 7136,
      "nienlich": 7137,
      "Abdulrahman": 7138,
      "tuoitreangang": 7139,
      "Pricewaterouse": 7140,
      "Pricewaterorsco": 7141,
      "Agni": 7142,
      "Aribia": 7143,
      "Arizona": 7144,
      "Bluezone": 7145,
      "Bluetoth": 7146,
      "Burton": 7147,
      "Burger": 7148,
      "Bouvot": 7149,
      "Bouzazi": 7150,
      "Daria": 7151,
      "Darul": 7152,
      "Fitr": 7153,
      "Fred": 7154,
      "Frost": 7155,
      "Helle": 7156,
      "Helams": 7157,
      "Jamie": 7158,
      "KCNA": 7159,
      "Katowi": 7160,
      "Laurel": 7161,
      "Laurent": 7162,
      "Lynn": 7163,
      "Monte": 7164,
      "Mirka": 7165,
      "Miroslav": 7166,
      "Nancy": 7167,
      "Nasr": 7168,
      "Novak": 7169,
      "Novosti": 7170,
      "Plamen": 7171,
      "Rusmus": 7172,
      "Rusvietpetro": 7173,
      "ST25": 7174,
      "STAPIM": 7175,
      "Sturgeon": 7176,
      "Somalia": 7177,
      "Somanah": 7178,
      "TTIP": 7179,
      "VVD": 7180,
      "Valentine": 7181,
      "Valentina": 7182,
      "bardi": 7183,
      "motthe": 7184,
      "motgocnhin": 7185,
      "phaviet": 7186,
      "Tripme": 7187,
      "Tripoli": 7188,
      "Quinnip": 7189,
      "enspeakerson": 7190,
      "Bourbon": 7191,
      "Bourrin": 7192,
      "kovic": 7193,
      "vtcews": 7194,
      "Andrea": 7195,
      "Andrej": 7196,
      "Wikinews": 7197,
      "Wikipedia": 7198,
      "Yoshihide": 7199,
      "Yoshihiko": 7200,
      "Asiatic": 7201,
      "Bischofberger": 7202,
      "Curento": 7203,
      "Danviet": 7204,
      "Demo": 7205,
      "Ecuador": 7206,
      "Fox": 7207,
      "Felix": 7208,
      "Grepl": 7209,
      "Honduras": 7210,
      "Horst": 7211,
      "Hawks": 7212,
      "Idemitsu": 7213,
      "Jimenez": 7214,
      "Lesbos": 7215,
      "M1A1": 7216,
      "MIZUHO": 7217,
      "Mishukova": 7218,
      "Oklahoma": 7219,
      "Renzi": 7220,
      "Rasmusse": 7221,
      "Reds": 7222,
      "Skull": 7223,
      "Sinbo": 7224,
      "Sassoli": 7225,
      "Sunni": 7226,
      "Tereshkova": 7227,
      "Tarsanno": 7228,
      "Toubous": 7229,
      "Vov5": 7230,
      "VTV2": 7231,
      "WWF": 7232,
      "Xêút": 7233,
      "mond": 7234,
      "nongnghiep": 7235,
      "rmina": 7236,
      "quangninh": 7237,
      "Index": 7238,
      "Costa": 7239,
      "baobinhdong": 7240,
      "baonghean": 7241,
      "Moheb": 7242,
      "chikiem": 7243,
      "Anthony": 7244,
      "Alann": 7245,
      "cafef": 7246,
      "Paribas": 7247,
      "Abbott": 7248,
      "Bolkiah": 7249,
      "inawatra": 7250,
      "??????????????????????????????????????????????????????????????????????????????????????????????????????????????????????????????????????????????????????????": 7251,
      "Federico": 7252,
      "HIMAMOO": 7253,
      "(????????????)": 7254,
      "--????????????????????": 7255,
      "3M22": 7256,
      "Athens": 7257,
      "Amadinejat": 7258,
      "Bingcongsan": 7259,
      "Benedic": 7260,
      "Blanco": 7261,
      "Books": 7262,
      "BeteDance": 7263,
      "BĐBP": 7264,
      "Cyrenaica": 7265,
      "DHA": 7266,
      "Dongsan": 7267,
      "Denis": 7268,
      "Datalogic": 7269,
      "Damacus": 7270,
      "DAISUK": 7271,
      "Derek": 7272,
      "Djokovic": 7273,
      "EXonMobil": 7274,
      "Eugenia": 7275,
      "Edouard": 7276,
      "Ecopetro": 7277,
      "Ellen": 7278,
      "Erik": 7279,
      "ENARRA": 7280,
      "Enines": 7281,
      "Ecist": 7282,
      "Ekstein": 7283,
      "Eugene": 7284,
      "Fumio": 7285,
      "Fillon": 7286,
      "FLicker": 7287,
      "Fateh": 7288,
      "Góp": 7289,
      "Guyana": 7290,
      "Gallup": 7291,
      "Gates": 7292,
      "Gopinath": 7293,
      "Gerard": 7294,
      "Gantz": 7295,
      "GTMO": 7296,
      "Halad": 7297,
      "Heiko": 7298,
      "Hapromart": 7299,
      "Haley": 7300,
      "H7N9": 7301,
      "Ivanovn": 7302,
      "Jelil": 7303,
      "Jurong": 7304,
      "KKKC": 7305,
      "Kishida": 7306,
      "Katsuno": 7307,
      "Kirchne": 7308,
      "KAMA": 7309,
      "KARKAMA": 7310,
      "Kevin": 7311,
      "Kotzia": 7312,
      "KPRF": 7313,
      "KarenCurento": 7314,
      "Kansas": 7315,
      "Lwin": 7316,
      "Laychek": 7317,
      "Lisbon": 7318,
      "Lombardi": 7319,
      "Mnchin": 7320,
      "Musudan": 7321,
      "Miller": 7322,
      "Menendez": 7323,
      "NOAA": 7324,
      "Nangarhar": 7325,
      "NASA": 7326,
      "Ndugai": 7327,
      "Nahkes": 7328,
      "Narallah": 7329,
      "Nestle": 7330,
      "Negri": 7331,
      "Nepal": 7332,
      "Oliver": 7333,
      "Omaba": 7334,
      "Opera": 7335,
      "Paine": 7336,
      "Pelosi": 7337,
      "Pitlo": 7338,
      "Prix": 7339,
      "Pedro": 7340,
      "PETROEC": 7341,
      "QUAD": 7342,
      "Rungonline": 7343,
      "Rhodes": 7344,
      "Rimam": 7345,
      "Ralf": 7346,
      "RECP": 7347,
      "Rumble": 7348,
      "Swing": 7349,
      "Stilw": 7350,
      "Sonoivu": 7351,
      "Show": 7352,
      "Susilo": 7353,
      "START": 7354,
      "Senegal": 7355,
      "Schaeff": 7356,
      "Sebastian": 7357,
      "Spector": 7358,
      "Springp": 7359,
      "Sissir": 7360,
      "SERD": 7361,
      "Sydney": 7362,
      "Taormina": 7363,
      "Tusk": 7364,
      "Titan": 7365,
      "Tapchitaichinh": 7366,
      "Tillerson": 7367,
      "Takashimaya": 7368,
      "Toshimitsu": 7369,
      "Taloputra": 7370,
      "Teteenspeakerson": 7371,
      "UEFA": 7372,
      "Volodin": 7373,
      "Vuings": 7374,
      "Vardan": 7375,
      "Vasep": 7376,
      "Vetnamnet": 7377,
      "Vyaches": 7378,
      "Voatieng": 7379,
      "Vegas": 7380,
      "Vilivong": 7381,
      "Wuertt": 7382,
      "Winter": 7383,
      "WETI": 7384,
      "Yanukov": 7385,
      "Yingluck": 7386,
      "Yomiuri": 7387,
      "Yustino": 7388,
      "Yudhoyon": 7389,
      "Zeneca": 7390,
      "Zogby": 7391,
      "Zarif": 7392,
      "Zurichon": 7393,
      "eprunguong": 7394,
      "fluor": 7395,
      "papluattp": 7396,
      "rụi": 7397,
      "ueedo": 7398,
      "xaluan": 7399,
      "zadeh": 7400,
      "đũa": 7401,
      "khamphaviet": 7402,
      "phunuvietnam": 7403,
      "Thainguyent": 7404,
      "Thoibaotaichinh": 7405,
      "Chawaf": 7406,
      "Quaseem": 7407,
      "Nhiatirang": 7408,
      "Phomvihan": 7409,
      "hoedcoisong": 7410,
      "hochiminhcity": 7411,
      "Trungbury": 7412,
      "dienbienphu": 7413,
      "doanhnghieprunguong": 7414,
      "vietinto": 7415,
      "Incheon": 7416,
      "Inernews": 7417,
      "container": 7418,
      "Khatami": 7419,
      "Hocmai": 7420,
      "Homestay": 7421,
      "Copers": 7422,
      "baosonla": 7423,
      "Luhansk": 7424,
      "Obamacare": 7425,
      "bacgiang": 7426,
      "Bảoxaydung": 7427,
      "Brookings": 7428,
      "sigondautu": 7429,
      "vnmedia": 7430,
      "vnmusic": 7431,
      "Pulido": 7432,
      "Victorino": 7433,
      "Vietinbank": 7434,
      "Alberto": 7435,
      "Dodwell": 7436,
      "Douglas": 7437,
      "Mallaiah": 7438,
      "Savannakhet": 7439,
      "Parcels": 7440,
      "Mariano": 7441,
      "Marjory": 7442,
      "Myasnikovich": 7443,
      "Castellanos": 7444,
      "Lawrence": 7445,
      "Megaryef": 7446,
      "Lottemart": 7447,
      "Petronas": 7448,
      "Morocco": 7449,
      "Archipelago": 7450,
      "Davutoglu": 7451,
      "Maximark": 7452,
      "Fabius": 7453,
      "Carmraigne": 7454,
      "Soleimani": 7455,
      "Solidarit": 7456,
      "Sivkovitch": 7457,
      "Sidonicor": 7458,
      "Suzanto": 7459,
      "Suleiman": 7460,
      "Sanchez": 7461,
      "Santiago": 7462,
      "Vannghquandoi": 7463,
      "Alexandria": 7464,
      "Alexxandre": 7465,
      "Netalegawa": 7466,
      "Jabhat": 7467,
      "Timothy": 7468,
      "Markzdonia": 7469,
      "Sekuritas": 7470,
      "Berlusconi": 7471,
      "Hajjar": 7472,
      "PDVSA": 7473,
      "Yousouf": 7474,
      "Startup": 7475,
      "Shakespeare": 7476,
      "Shahriman": 7477,
      "Shakseere": 7478,
      "Sayachak": 7479,
      "VnExpress": 7480,
      "Wilfred": 7481,
      "Pievneliev": 7482,
      "Panmunjom": 7483,
      "Rajoy": 7484,
      "Steinbrueck": 7485,
      "Hezbolla": 7486,
      "Ostarski": 7487,
      "Formosa": 7488,
      "Taekwang": 7489,
      "Yaakob": 7490,
      "nhahatkichvietnam": 7491,
      "Daiibunhandan": 7492,
      "daidoanket": 7493,
      "Rodriguez": 7494,
      "PricewaterouseCopers": 7495,
      "Katowice": 7496,
      "Rusmussen": 7497,
      "STAPIMex": 7498,
      "Somanahalli": 7499,
      "motthegioi": 7500,
      "Quinnipiac": 7501,
      "chikiemat": 7502,
      "DAISUKE": 7503,
      "Ivanovna": 7504,
      "Katsunobu": 7505,
      "Kotzias": 7506,
      "PETROECUADO": 7507,
      "Rhodesz": 7508,
      "Stilwell": 7509,
      "Schaeffer": 7510,
      "Teteenspeakersonline": 7511,
      "Vyacheslav": 7512,
      "Voatiengviet": 7513,
      "Yanukovych": 7514,
      "Yudhoyono": 7515,
      "Thainguyentv": 7516,
      "Thoibaotaichinhvietnam": 7517,
      "Phomvihane": 7518,
      "\"\"": 7519,
      "%:": 7520,
      ")\"": 7521,
      "):": 7522,
      ")??:": 7523,
      "+\"": 7524,
      "-??.": 7525,
      "//": 7526,
      "018": 7527,
      "045": 7528,
      "090": 7529,
      "043": 7530,
      "063": 7531,
      "058": 7532,
      "059": 7533,
      "069": 7534,
      "039": 7535,
      "094": 7536,
      "1K": 7537,
      "1200": 7538,
      "2m": 7539,
      "223": 7540,
      "3D": 7541,
      "3G": 7542,
      "319": 7543,
      "3000": 7544,
      "321": 7545,
      "318": 7546,
      "328": 7547,
      "322": 7548,
      "3kg": 7549,
      "4P": 7550,
      "4h": 7551,
      "419": 7552,
      "410": 7553,
      "412": 7554,
      "418": 7555,
      "427": 7556,
      "422": 7557,
      "426": 7558,
      "435": 7559,
      "4VN": 7560,
      "432": 7561,
      "438": 7562,
      "433": 7563,
      "442": 7564,
      "443": 7565,
      "5S": 7566,
      "5m": 7567,
      "5000": 7568,
      "511": 7569,
      "522": 7570,
      "531": 7571,
      "538": 7572,
      "575": 7573,
      "568": 7574,
      "5MH": 7575,
      "6000": 7576,
      "612": 7577,
      "615": 7578,
      "625": 7579,
      "618": 7580,
      "614": 7581,
      "680": 7582,
      "628": 7583,
      "622": 7584,
      "655": 7585,
      "636": 7586,
      "7h": 7587,
      "710": 7588,
      "760": 7589,
      "731": 7590,
      "747": 7591,
      "748": 7592,
      "762": 7593,
      "8h": 7594,
      "8o": 7595,
      "810": 7596,
      "812": 7597,
      "817": 7598,
      "890": 7599,
      "835": 7600,
      "855": 7601,
      "842": 7602,
      "844": 7603,
      "872": 7604,
      "9000": 7605,
      "937": 7606,
      "975": 7607,
      "934": 7608,
      ":\"": 7609,
      ":/": 7610,
      ":????????????????????????????????????????????????????????????????????????????????????????????????????????????????????????????????": 7611,
      ":????:": 7612,
      ";)": 7613,
      "AF": 7614,
      "AV": 7615,
      "AW": 7616,
      "Aqu": 7617,
      "Aon": 7618,
      "Aar": 7619,
      "Ain": 7620,
      "AAP": 7621,
      "Ail": 7622,
      "ADI": 7623,
      "Abu": 7624,
      "ACD": 7625,
      "ABC": 7626,
      "Adw": 7627,
      "Ailes": 7628,
      "Abul": 7629,
      "Alum": 7630,
      "BF": 7631,
      "BN": 7632,
      "BT": 7633,
      "Be": 7634,
      "Bl": 7635,
      "Bày": 7636,
      "Bai": 7637,
      "Bây": 7638,
      "Bạo": 7639,
      "Bia": 7640,
      "Bin": 7641,
      "Bas": 7642,
      "Best": 7643,
      "Bee": 7644,
      "B211": 7645,
      "BTT": 7646,
      "Bain": 7647,
      "BOT": 7648,
      "C2": 7649,
      "CB": 7650,
      "CG": 7651,
      "Cù": 7652,
      "Cứ": 7653,
      "Cơn": 7654,
      "Cống": 7655,
      "Canh": 7656,
      "Cột": 7657,
      "Cau": 7658,
      "Cảm": 7659,
      "Cus": 7660,
      "Cap": 7661,
      "CAR": 7662,
      "CIS": 7663,
      "Cent": 7664,
      "CAC": 7665,
      "CAF": 7666,
      "D4": 7667,
      "DK": 7668,
      "DM": 7669,
      "DR": 7670,
      "DV": 7671,
      "Dh": 7672,
      "Dz": 7673,
      "Diên": 7674,
      "Dạt": 7675,
      "Diệu": 7676,
      "Danh": 7677,
      "Dal": 7678,
      "Duyên": 7679,
      "Din": 7680,
      "Dis": 7681,
      "Des": 7682,
      "Dậu": 7683,
      "Dạy": 7684,
      "Deb": 7685,
      "Deir": 7686,
      "Dep": 7687,
      "Ddn": 7688,
      "DNP": 7689,
      "Domic": 7690,
      "EL": 7691,
      "Echo": 7692,
      "Ene": 7693,
      "EEC": 7694,
      "EVN": 7695,
      "EDC": 7696,
      "Ely": 7697,
      "Eka": 7698,
      "ERS": 7699,
      "Ever": 7700,
      "Elie": 7701,
      "FG": 7702,
      "FI": 7703,
      "FN": 7704,
      "Fan": 7705,
      "Fer": 7706,
      "Fia": 7707,
      "Fas": 7708,
      "Fet": 7709,
      "Fat": 7710,
      "Flo": 7711,
      "Fone": 7712,
      "Fina": 7713,
      "Fali": 7714,
      "FTS": 7715,
      "Fames": 7716,
      "FIA": 7717,
      "FFC": 7718,
      "Fans": 7719,
      "GD": 7720,
      "Gr": 7721,
      "Gay": 7722,
      "Gon": 7723,
      "Gạo": 7724,
      "Gen": 7725,
      "Gor": 7726,
      "Gas": 7727,
      "Gad": 7728,
      "Gạc": 7729,
      "GVN": 7730,
      "Gyeong": 7731,
      "Giles": 7732,
      "Gazi": 7733,
      "Glyn": 7734,
      "Grim": 7735,
      "Gakia": 7736,
      "HS": 7737,
      "Hw": 7738,
      "Hè": 7739,
      "HĐ": 7740,
      "Hầu": 7741,
      "Hanh": 7742,
      "Hảo": 7743,
      "Hạn": 7744,
      "Hòn": 7745,
      "Hin": 7746,
      "His": 7747,
      "Hem": 7748,
      "Hat": 7749,
      "Hap": 7750,
      "H66": 7751,
      "Hóc": 7752,
      "HDW": 7753,
      "HRW": 7754,
      "HD4": 7755,
      "IF": 7756,
      "IK": 7757,
      "IR": 7758,
      "IT": 7759,
      "Iz": 7760,
      "Iph": 7761,
      "Ion": 7762,
      "ICO": 7763,
      "Ill": 7764,
      "Ili": 7765,
      "Ily": 7766,
      "IEA": 7767,
      "IBC": 7768,
      "Ichik": 7769,
      "Jr": 7770,
      "Ju": 7771,
      "Jao": 7772,
      "Jal": 7773,
      "Jar": 7774,
      "Jen": 7775,
      "Jus": 7776,
      "Jap": 7777,
      "Jah": 7778,
      "KI": 7779,
      "Ke": 7780,
      "Kw": 7781,
      "Ký": 7782,
      "Kịch": 7783,
      "Kar": 7784,
      "Khóa": 7785,
      "Kin": 7786,
      "Ken": 7787,
      "Kor": 7788,
      "Kus": 7789,
      "Kla": 7790,
      "Kid": 7791,
      "Kiếm": 7792,
      "Kei": 7793,
      "Km2": 7794,
      "Kaw": 7795,
      "KCN": 7796,
      "Kell": 7797,
      "Kart": 7798,
      "Kilo": 7799,
      "Kaden": 7800,
      "Kraska": 7801,
      "KSA": 7802,
      "Kbs": 7803,
      "KFFC": 7804,
      "Lũ": 7805,
      "Lùng": 7806,
      "Lang": 7807,
      "Làng": 7808,
      "Lòng": 7809,
      "Lắng": 7810,
      "Let": 7811,
      "Laz": 7812,
      "Lou": 7813,
      "Lle": 7814,
      "Lev": 7815,
      "Lomp": 7816,
      "LDG": 7817,
      "Lily": 7818,
      "LMI": 7819,
      "M_": 7820,
      "Mw": 7821,
      "Mà": 7822,
      "Mong": 7823,
      "Mác": 7824,
      "Mâu": 7825,
      "Môn": 7826,
      "Mum": 7827,
      "Met": 7828,
      "Màu": 7829,
      "Mte": 7830,
      "MTV": 7831,
      "Mão": 7832,
      "Máy": 7833,
      "MIA": 7834,
      "M5S": 7835,
      "MERS": 7836,
      "NQ": 7837,
      "Nụ": 7838,
      "Nối": 7839,
      "Nùng": 7840,
      "Nil": 7841,
      "Nad": 7842,
      "Nur": 7843,
      "Nằm": 7844,
      "Nơi": 7845,
      "NES": 7846,
      "Naz": 7847,
      "NFP": 7848,
      "Nak": 7849,
      "Oo": 7850,
      "Ole": 7851,
      "Ola": 7852,
      "OIC": 7853,
      "Ore": 7854,
      "Osip": 7855,
      "Oram": 7856,
      "Oska": 7857,
      "ONES": 7858,
      "PG": 7859,
      "Pr": 7860,
      "Pinh": 7861,
      "Plu": 7862,
      "Pus": 7863,
      "Pet": 7864,
      "P35": 7865,
      "Pos": 7866,
      "Poo": 7867,
      "Plai": 7868,
      "Pre": 7869,
      "Pres": 7870,
      "Prin": 7871,
      "Pete": 7872,
      "Q3": 7873,
      "QT": 7874,
      "Quyến": 7875,
      "RC": 7876,
      "RD": 7877,
      "RQ": 7878,
      "Rõ": 7879,
      "Rất": 7880,
      "Ray": 7881,
      "RAN": 7882,
      "Rồi": 7883,
      "REU": 7884,
      "Rama": 7885,
      "Rạng": 7886,
      "Rash": 7887,
      "Run": 7888,
      "Rid": 7889,
      "Rya": 7890,
      "REA": 7891,
      "RRF": 7892,
      "RB211": 7893,
      "SK": 7894,
      "Sl": 7895,
      "Sí": 7896,
      "Sỹ": 7897,
      "Squ": 7898,
      "Sung": 7899,
      "Scho": 7900,
      "Sanh": 7901,
      "Seo": 7902,
      "Sne": 7903,
      "S12": 7904,
      "SEC": 7905,
      "Sor": 7906,
      "Sis": 7907,
      "Sad": 7908,
      "Sty": 7909,
      "Sta": 7910,
      "Sid": 7911,
      "Sev": 7912,
      "Salem": 7913,
      "Sứa": 7914,
      "Stor": 7915,
      "Sala": 7916,
      "Stre": 7917,
      "Sino": 7918,
      "Shor": 7919,
      "SRP": 7920,
      "SHIMAMO": 7921,
      "Sinawatra": 7922,
      "SCAF": 7923,
      "TE": 7924,
      "TK": 7925,
      "TQ": 7926,
      "TR": 7927,
      "Tà": 7928,
      "Tù": 7929,
      "Tý": 7930,
      "Tia": 7931,
      "Tes": 7932,
      "Tạm": 7933,
      "Tom": 7934,
      "Tchi": 7935,
      "Tiềm": 7936,
      "Tara": 7937,
      "Tịnh": 7938,
      "TFI": 7939,
      "TGVN": 7940,
      "UV": 7941,
      "Ug": 7942,
      "Ui": 7943,
      "Ul": 7944,
      "Um": 7945,
      "U11": 7946,
      "U13": 7947,
      "Ula": 7948,
      "Ulan": 7949,
      "Uni": 7950,
      "Vy": 7951,
      "Vẻ": 7952,
      "Vỏ": 7953,
      "VDP": 7954,
      "Vài": 7955,
      "VII": 7956,
      "Vor": 7957,
      "Vis": 7958,
      "Vir": 7959,
      "Vri": 7960,
      "VEF": 7961,
      "Vnam": 7962,
      "Vun": 7963,
      "VAM": 7964,
      "Vander": 7965,
      "Vern": 7966,
      "Veron": 7967,
      "Veer": 7968,
      "Vhna": 7969,
      "VBF": 7970,
      "WC": 7971,
      "Wh": 7972,
      "Won": 7973,
      "Wen": 7974,
      "Wis": 7975,
      "WAR": 7976,
      "WTV": 7977,
      "W87": 7978,
      "Wood": 7979,
      "Welt": 7980,
      "WDR": 7981,
      "WRD": 7982,
      "XV": 7983,
      "Xo": 7984,
      "Xx": 7985,
      "Xoài": 7986,
      "Xero": 7987,
      "Yang": 7988,
      "Yêu": 7989,
      "Yil": 7990,
      "Yop": 7991,
      "Yoon": 7992,
      "Y247": 7993,
      "YPG": 7994,
      "Zap": 7995,
      "Zich": 7996,
      "ZTE": 7997,
      "aa": 7998,
      "aj": 7999
    },
    "merges": [
      [
        "n",
        "g"
      ],
      [
        "n",
        "h"
      ],
      [
        "t",
        "h"
      ],
      [
        "t",
        "r"
      ],
      [
        "c",
        "h"
      ],
      [
        "i",
        "ệ"
      ],
      [
        "2",
        "0"
      ],
      [
        "ă",
        "m"
      ],
      [
        "k",
        "h"
      ],
      [
        "v",
        "à"
      ],
      [
        "q",
        "u"
      ],
      [
        "n",
        "ăm"
      ],
      [
        "p",
        "h"
      ],
      [
        "g",
        "i"
      ],
      [
        "ớ",
        "i"
      ],
      [
        "a",
        "m"
      ],
      [
        "ê",
        "n"
      ],
      [
        "o",
        "ng"
      ],
      [
        "20",
        "1"
      ],
      [
        "ạ",
        "i"
      ],
      [
        "c",
        "ủ"
      ],
      [
        "củ",
        "a"
      ],
      [
        "iệ",
        "t"
      ],
      [
        "ư",
        "ớ"
      ],
      [
        "ô",
        "ng"
      ],
      [
        "á",
        "c"
      ],
      [
        "i",
        "ế"
      ],
      [
        "N",
        "am"
      ],
      [
        "a",
        "n"
      ],
      [
        "tr",
        "ong"
      ],
      [
        "V",
        "iệt"
      ],
      [
        "0",
        "0"
      ],
      [
        "ố",
        "c"
      ],
      [
        "ướ",
        "c"
      ],
      [
        "l",
        "à"
      ],
      [
        "ấ",
        "t"
      ],
      [
        "v",
        "ới"
      ],
      [
        "ộ",
        "i"
      ],
      [
        "ư",
        "ợ"
      ],
      [
        "à",
        "y"
      ],
      [
        "â",
        "n"
      ],
      [
        "ầ",
        "u"
      ],
      [
        "c",
        "ó"
      ],
      [
        "ng",
        "h"
      ],
      [
        "ư",
        "ờ"
      ],
      [
        "i",
        "ên"
      ],
      [
        "ă",
        "ng"
      ],
      [
        "T",
        "r"
      ],
      [
        "c",
        "ác"
      ],
      [
        "i",
        "nh"
      ],
      [
        "à",
        "nh"
      ],
      [
        "iệ",
        "n"
      ],
      [
        "i",
        "ể"
      ],
      [
        "ư",
        "ơ"
      ],
      [
        "ươ",
        "ng"
      ],
      [
        "n",
        "ước"
      ],
      [
        "đ",
        "ã"
      ],
      [
        "u",
        "y"
      ],
      [
        "T",
        "h"
      ],
      [
        "ầ",
        "n"
      ],
      [
        "ự",
        "c"
      ],
      [
        "ứ",
        "c"
      ],
      [
        "ạ",
        "t"
      ],
      [
        "t",
        "ăng"
      ],
      [
        "a",
        "i"
      ],
      [
        "ượ",
        "c"
      ],
      [
        "đ",
        "ầu"
      ],
      [
        "t",
        "ỷ"
      ],
      [
        "ế",
        "n"
      ],
      [
        "ì",
        "nh"
      ],
      [
        "ổ",
        "ng"
      ],
      [
        "U",
        "S"
      ],
      [
        "US",
        "D"
      ],
      [
        "a",
        "o"
      ],
      [
        "N",
        "g"
      ],
      [
        "C",
        "h"
      ],
      [
        "ả",
        "ng"
      ],
      [
        "đ",
        "ược"
      ],
      [
        "ph",
        "á"
      ],
      [
        "t",
        "ế"
      ],
      [
        "t",
        "ừ"
      ],
      [
        "iế",
        "n"
      ],
      [
        "í",
        "nh"
      ],
      [
        "ơ",
        "n"
      ],
      [
        "t",
        "ại"
      ],
      [
        "Q",
        "u"
      ],
      [
        "ườ",
        "i"
      ],
      [
        "o",
        "à"
      ],
      [
        "đ",
        "ạt"
      ],
      [
        "á",
        "ng"
      ],
      [
        "ng",
        "ười"
      ],
      [
        "u",
        "ng"
      ],
      [
        "i",
        "ề"
      ],
      [
        "h",
        "ội"
      ],
      [
        "iệ",
        "u"
      ],
      [
        "ch",
        "o"
      ],
      [
        "đ",
        "ộ"
      ],
      [
        "qu",
        "ốc"
      ],
      [
        "h",
        "ơn"
      ],
      [
        "ố",
        "ng"
      ],
      [
        "đ",
        "ó"
      ],
      [
        "ng",
        "ày"
      ],
      [
        "ố",
        "i"
      ],
      [
        "ồ",
        "ng"
      ],
      [
        "d",
        "ự"
      ],
      [
        "r",
        "a"
      ],
      [
        "ế",
        "t"
      ],
      [
        "iể",
        "n"
      ],
      [
        "đ",
        "ến"
      ],
      [
        "ả",
        "n"
      ],
      [
        "th",
        "ành"
      ],
      [
        "a",
        "nh"
      ],
      [
        "Qu",
        "ốc"
      ],
      [
        "s",
        "ố"
      ],
      [
        "ậ",
        "p"
      ],
      [
        "ư",
        "ở"
      ],
      [
        "ưở",
        "ng"
      ],
      [
        "t",
        "i"
      ],
      [
        "x",
        "u"
      ],
      [
        "a",
        "y"
      ],
      [
        "iệ",
        "p"
      ],
      [
        "c",
        "ông"
      ],
      [
        "iề",
        "u"
      ],
      [
        "d",
        "o"
      ],
      [
        "th",
        "u"
      ],
      [
        "đ",
        "ồng"
      ],
      [
        "th",
        "áng"
      ],
      [
        "đ",
        "ị"
      ],
      [
        "gi",
        "a"
      ],
      [
        "ù",
        "ng"
      ],
      [
        "1",
        "9"
      ],
      [
        "qu",
        "an"
      ],
      [
        "k",
        "inh"
      ],
      [
        "và",
        "o"
      ],
      [
        "ậ",
        "n"
      ],
      [
        "kh",
        "o"
      ],
      [
        "â",
        "y"
      ],
      [
        "ụ",
        "c"
      ],
      [
        "ộ",
        "c"
      ],
      [
        "a",
        "ng"
      ],
      [
        "oà",
        "n"
      ],
      [
        "00",
        "0"
      ],
      [
        "xu",
        "ất"
      ],
      [
        "ê",
        "u"
      ],
      [
        "1",
        "0"
      ],
      [
        "tr",
        "ưởng"
      ],
      [
        "á",
        "ch"
      ],
      [
        "ạ",
        "ch"
      ],
      [
        "o",
        "n"
      ],
      [
        "t",
        "ư"
      ],
      [
        "qu",
        "y"
      ],
      [
        "ị",
        "ch"
      ],
      [
        "ề",
        "n"
      ],
      [
        "N",
        "h"
      ],
      [
        "P",
        "h"
      ],
      [
        "ườ",
        "ng"
      ],
      [
        "v",
        "ề"
      ],
      [
        "h",
        "o"
      ],
      [
        "á",
        "o"
      ],
      [
        "th",
        "ứ"
      ],
      [
        "ả",
        "i"
      ],
      [
        "á",
        "n"
      ],
      [
        "th",
        "ống"
      ],
      [
        "tr",
        "iệu"
      ],
      [
        "ấ",
        "n"
      ],
      [
        "ngh",
        "iệp"
      ],
      [
        "độ",
        "ng"
      ],
      [
        "Ả",
        "nh"
      ],
      [
        "kho",
        "ảng"
      ],
      [
        "T",
        "ổng"
      ],
      [
        "đị",
        "nh"
      ],
      [
        "c",
        "u"
      ],
      [
        "phá",
        "t"
      ],
      [
        "d",
        "ân"
      ],
      [
        "ó",
        "a"
      ],
      [
        "ấ",
        "p"
      ],
      [
        "ợ",
        "p"
      ],
      [
        "h",
        "iện"
      ],
      [
        "ễ",
        "n"
      ],
      [
        "h",
        "ọ"
      ],
      [
        "tr",
        "iển"
      ],
      [
        "n",
        "ày"
      ],
      [
        "s",
        "ẽ"
      ],
      [
        "h",
        "ợp"
      ],
      [
        "ả",
        "o"
      ],
      [
        "nh",
        "ư"
      ],
      [
        "ữ",
        "ng"
      ],
      [
        "qu",
        "a"
      ],
      [
        "20",
        "20"
      ],
      [
        "M",
        "ỹ"
      ],
      [
        "ngh",
        "ị"
      ],
      [
        "s",
        "o"
      ],
      [
        "t",
        "ổng"
      ],
      [
        "kh",
        "ẩ"
      ],
      [
        "ậ",
        "t"
      ],
      [
        "nh",
        "ất"
      ],
      [
        "à",
        "ng"
      ],
      [
        "e",
        "o"
      ],
      [
        "H",
        "ội"
      ],
      [
        "khẩ",
        "u"
      ],
      [
        "e",
        "r"
      ],
      [
        "ũ",
        "ng"
      ],
      [
        "i",
        "m"
      ],
      [
        "ộ",
        "t"
      ],
      [
        "ti",
        "êu"
      ],
      [
        "s",
        "ản"
      ],
      [
        "ố",
        "n"
      ],
      [
        "c",
        "ao"
      ],
      [
        "đ",
        "ề"
      ],
      [
        "ạ",
        "o"
      ],
      [
        "t",
        "ác"
      ],
      [
        "ch",
        "ính"
      ],
      [
        "iệ",
        "m"
      ],
      [
        "Tr",
        "ung"
      ],
      [
        "l",
        "ần"
      ],
      [
        "a",
        "l"
      ],
      [
        "iệ",
        "c"
      ],
      [
        "v",
        "iên"
      ],
      [
        "c",
        "ả"
      ],
      [
        "201",
        "6"
      ],
      [
        "a",
        "u"
      ],
      [
        "201",
        "7"
      ],
      [
        "ch",
        "ỉ"
      ],
      [
        "đ",
        "ể"
      ],
      [
        "ả",
        "m"
      ],
      [
        "m",
        "ức"
      ],
      [
        "g",
        "ần"
      ],
      [
        "ạ",
        "n"
      ],
      [
        "A",
        "S"
      ],
      [
        "Tr",
        "ong"
      ],
      [
        "tr",
        "ên"
      ],
      [
        "th",
        "ể"
      ],
      [
        "D",
        "P"
      ],
      [
        "m",
        "ột"
      ],
      [
        "th",
        "ương"
      ],
      [
        "kh",
        "i"
      ],
      [
        "v",
        "iệc"
      ],
      [
        "ă",
        "n"
      ],
      [
        "ờ",
        "i"
      ],
      [
        "gi",
        "ới"
      ],
      [
        "ọ",
        "ng"
      ],
      [
        "ướ",
        "ng"
      ],
      [
        "G",
        "DP"
      ],
      [
        "c",
        "ũng"
      ],
      [
        "c",
        "ử"
      ],
      [
        "20",
        "0"
      ],
      [
        "d",
        "i"
      ],
      [
        "ượ",
        "ng"
      ],
      [
        "h",
        "ai"
      ],
      [
        "m",
        "ới"
      ],
      [
        "n",
        "ay"
      ],
      [
        "AS",
        "E"
      ],
      [
        "k",
        "ết"
      ],
      [
        "nh",
        "ân"
      ],
      [
        "ch",
        "ức"
      ],
      [
        "cu",
        "ộc"
      ],
      [
        "th",
        "ế"
      ],
      [
        "do",
        "anh"
      ],
      [
        "s",
        "ự"
      ],
      [
        "m",
        "ạ"
      ],
      [
        "i",
        "a"
      ],
      [
        "nh",
        "à"
      ],
      [
        "?",
        "?"
      ],
      [
        "m",
        "ại"
      ],
      [
        "t",
        "iế"
      ],
      [
        "v",
        "ốn"
      ],
      [
        "k",
        "ỳ"
      ],
      [
        "A",
        "N"
      ],
      [
        "h",
        "àng"
      ],
      [
        "uy",
        "ên"
      ],
      [
        "ASE",
        "AN"
      ],
      [
        "nh",
        "ững"
      ],
      [
        "gi",
        "á"
      ],
      [
        "ổ",
        "i"
      ],
      [
        "th",
        "ực"
      ],
      [
        "n",
        "e"
      ],
      [
        "v",
        "ực"
      ],
      [
        "kh",
        "ông"
      ],
      [
        "â",
        "u"
      ],
      [
        "t",
        "ới"
      ],
      [
        "à",
        "i"
      ],
      [
        "h",
        "ệ"
      ],
      [
        "%",
        "."
      ],
      [
        "đ",
        "ối"
      ],
      [
        "3",
        "0"
      ],
      [
        "1",
        "1"
      ],
      [
        "a",
        "r"
      ],
      [
        "N",
        "ăm"
      ],
      [
        "201",
        "5"
      ],
      [
        "o",
        "ại"
      ],
      [
        "h",
        "óa"
      ],
      [
        "ng",
        "ạch"
      ],
      [
        "c",
        "ùng"
      ],
      [
        "t",
        "í"
      ],
      [
        "à",
        "o"
      ],
      [
        "iế",
        "t"
      ],
      [
        "iể",
        "u"
      ],
      [
        "t",
        "oàn"
      ],
      [
        "gi",
        "ảm"
      ],
      [
        "ộ",
        "ng"
      ],
      [
        "1",
        "2"
      ],
      [
        "á",
        "i"
      ],
      [
        "nh",
        "iều"
      ],
      [
        "201",
        "8"
      ],
      [
        "L",
        "iên"
      ],
      [
        "ứ",
        "ng"
      ],
      [
        "nh",
        "iệm"
      ],
      [
        "c",
        "ơ"
      ],
      [
        "ò",
        "n"
      ],
      [
        "tiế",
        "p"
      ],
      [
        "th",
        "am"
      ],
      [
        "l",
        "u"
      ],
      [
        "ữ",
        "a"
      ],
      [
        "kh",
        "u"
      ],
      [
        "k",
        "im"
      ],
      [
        "ch",
        "ủ"
      ],
      [
        "ấ",
        "u"
      ],
      [
        "l",
        "ên"
      ],
      [
        "e",
        "l"
      ],
      [
        "tr",
        "ọng"
      ],
      [
        "đ",
        "ại"
      ],
      [
        "tr",
        "ị"
      ],
      [
        "h",
        "ành"
      ],
      [
        "Ch",
        "ủ"
      ],
      [
        "l",
        "ã"
      ],
      [
        "l",
        "ập"
      ],
      [
        "%",
        ","
      ],
      [
        "ú",
        "c"
      ],
      [
        "l",
        "ực"
      ],
      [
        "t",
        "ổ"
      ],
      [
        "phá",
        "p"
      ],
      [
        "tr",
        "ình"
      ],
      [
        "ô",
        "n"
      ],
      [
        "H",
        "à"
      ],
      [
        "ằ",
        "ng"
      ],
      [
        "đ",
        "o"
      ],
      [
        "iể",
        "m"
      ],
      [
        "t",
        "ịch"
      ],
      [
        "201",
        "2"
      ],
      [
        "Th",
        "ủ"
      ],
      [
        "t",
        "ướng"
      ],
      [
        "x",
        "ã"
      ],
      [
        "5",
        "0"
      ],
      [
        "v",
        "ụ"
      ],
      [
        "th",
        "ông"
      ],
      [
        "c",
        "ấp"
      ],
      [
        "k",
        "ý"
      ],
      [
        "201",
        "3"
      ],
      [
        "B",
        "ộ"
      ],
      [
        "th",
        "ời"
      ],
      [
        "đo",
        "ạn"
      ],
      [
        "c",
        "òn"
      ],
      [
        "ô",
        "i"
      ],
      [
        "ph",
        "ủ"
      ],
      [
        "Ch",
        "ính"
      ],
      [
        "oà",
        "i"
      ],
      [
        "l",
        "ớ"
      ],
      [
        "b",
        "ình"
      ],
      [
        "ho",
        "ạch"
      ],
      [
        "l",
        "ệ"
      ],
      [
        "I",
        "I"
      ],
      [
        "ặ",
        "t"
      ],
      [
        "qu",
        "ả"
      ],
      [
        "m",
        "ục"
      ],
      [
        "nh",
        "ập"
      ],
      [
        "lớ",
        "n"
      ],
      [
        "b",
        "áo"
      ],
      [
        "Th",
        "eo"
      ],
      [
        "quy",
        "ết"
      ],
      [
        "ch",
        "iến"
      ],
      [
        "ch",
        "iế"
      ],
      [
        "ỉ",
        "nh"
      ],
      [
        "201",
        "4"
      ],
      [
        "á",
        "p"
      ],
      [
        "ặ",
        "c"
      ],
      [
        "quy",
        "ền"
      ],
      [
        "á",
        "t"
      ],
      [
        "là",
        "m"
      ],
      [
        "á",
        "nh"
      ],
      [
        "đ",
        "à"
      ],
      [
        "đ",
        "ang"
      ],
      [
        "s",
        "au"
      ],
      [
        "E",
        "C"
      ],
      [
        "ư",
        "a"
      ],
      [
        "tí",
        "ch"
      ],
      [
        "l",
        "ượng"
      ],
      [
        "gi",
        "ữa"
      ],
      [
        "m",
        "inh"
      ],
      [
        "gi",
        "ai"
      ],
      [
        "dự",
        "ng"
      ],
      [
        "b",
        "iểu"
      ],
      [
        "s",
        "ử"
      ],
      [
        "s",
        "ách"
      ],
      [
        "2",
        "1"
      ],
      [
        "ch",
        "âu"
      ],
      [
        "x",
        "ây"
      ],
      [
        "Ng",
        "uy"
      ],
      [
        "b",
        "ị"
      ],
      [
        "Ng",
        "ày"
      ],
      [
        "lã",
        "nh"
      ],
      [
        "i",
        "n"
      ],
      [
        "k",
        "iến"
      ],
      [
        "ò",
        "ng"
      ],
      [
        "Nguy",
        "ễn"
      ],
      [
        "A",
        "P"
      ],
      [
        "â",
        "m"
      ],
      [
        "di",
        "ễn"
      ],
      [
        "ph",
        "ương"
      ],
      [
        "1",
        "5"
      ],
      [
        "tr",
        "ường"
      ],
      [
        ")",
        "."
      ],
      [
        "nh",
        "ận"
      ],
      [
        ".",
        "."
      ],
      [
        "ph",
        "ải"
      ],
      [
        "th",
        "eo"
      ],
      [
        "t",
        "iên"
      ],
      [
        "e",
        "n"
      ],
      [
        "d",
        "ụ"
      ],
      [
        "2",
        "5"
      ],
      [
        "chiế",
        "m"
      ],
      [
        "ng",
        "oài"
      ],
      [
        "l",
        "ại"
      ],
      [
        "t",
        "ạo"
      ],
      [
        "họ",
        "c"
      ],
      [
        "đ",
        "ây"
      ],
      [
        "b",
        "ố"
      ],
      [
        "th",
        "ức"
      ],
      [
        "Đ",
        "ảng"
      ],
      [
        "h",
        "iệu"
      ],
      [
        "đ",
        "ạo"
      ],
      [
        "v",
        "ùng"
      ],
      [
        "g",
        "ó"
      ],
      [
        "Đ",
        "ại"
      ],
      [
        "1",
        "8"
      ],
      [
        "ú",
        "ng"
      ],
      [
        "O",
        "V"
      ],
      [
        "ẫ",
        "n"
      ],
      [
        "AP",
        "EC"
      ],
      [
        "t",
        "er"
      ],
      [
        "d",
        "iện"
      ],
      [
        "t",
        "ục"
      ],
      [
        "ò",
        "a"
      ],
      [
        "u",
        "m"
      ],
      [
        "k",
        "iện"
      ],
      [
        "th",
        "ăm"
      ],
      [
        "1",
        "3"
      ],
      [
        "h",
        "ình"
      ],
      [
        "V",
        "OV"
      ],
      [
        "ti",
        "n"
      ],
      [
        "k",
        "ỷ"
      ],
      [
        "đ",
        "ổi"
      ],
      [
        "tr",
        "ước"
      ],
      [
        "ch",
        "uy"
      ],
      [
        "o",
        "r"
      ],
      [
        "ắ",
        "c"
      ],
      [
        "b",
        "ộ"
      ],
      [
        "h",
        "ộ"
      ],
      [
        "gi",
        "ao"
      ],
      [
        "a",
        "s"
      ],
      [
        "kh",
        "óa"
      ],
      [
        "201",
        "1"
      ],
      [
        "ho",
        "ạt"
      ],
      [
        "iế",
        "u"
      ],
      [
        "dụ",
        "ng"
      ],
      [
        "gó",
        "p"
      ],
      [
        "b",
        "an"
      ],
      [
        "th",
        "ị"
      ],
      [
        "tr",
        "ở"
      ],
      [
        "n",
        "ông"
      ],
      [
        "b",
        "ầu"
      ],
      [
        "t",
        "ỉnh"
      ],
      [
        "kh",
        "ai"
      ],
      [
        "thu",
        "ận"
      ],
      [
        "b",
        "ảo"
      ],
      [
        "c",
        "ầu"
      ],
      [
        "1",
        "00"
      ],
      [
        "đ",
        "iều"
      ],
      [
        "1",
        "7"
      ],
      [
        "họ",
        "p"
      ],
      [
        "ph",
        "ố"
      ],
      [
        "n",
        "ền"
      ],
      [
        "gi",
        "ải"
      ],
      [
        "k",
        "ế"
      ],
      [
        "i",
        "l"
      ],
      [
        "ủ",
        "ng"
      ],
      [
        "r",
        "ằng"
      ],
      [
        "l",
        "iên"
      ],
      [
        "d",
        "ịch"
      ],
      [
        "Tr",
        "um"
      ],
      [
        "v",
        "i"
      ],
      [
        "C",
        "ộng"
      ],
      [
        "qu",
        "ân"
      ],
      [
        "ừ",
        "a"
      ],
      [
        "m",
        "à"
      ],
      [
        "t",
        "u"
      ],
      [
        "c",
        "o"
      ],
      [
        "r",
        "an"
      ],
      [
        "Đ",
        "ông"
      ],
      [
        "ú",
        "t"
      ],
      [
        "đ",
        "oàn"
      ],
      [
        "ph",
        "iếu"
      ],
      [
        "đ",
        "ưa"
      ],
      [
        "mạ",
        "nh"
      ],
      [
        "i",
        "s"
      ],
      [
        "ượ",
        "t"
      ],
      [
        "Trum",
        "p"
      ],
      [
        "I",
        "n"
      ],
      [
        "v",
        "ấn"
      ],
      [
        "Ng",
        "a"
      ],
      [
        "t",
        "ự"
      ],
      [
        "ắ",
        "t"
      ],
      [
        "tr",
        "anh"
      ],
      [
        "b",
        "iết"
      ],
      [
        "c",
        "on"
      ],
      [
        "1",
        "4"
      ],
      [
        "b",
        "iệt"
      ],
      [
        "iề",
        "n"
      ],
      [
        "đ",
        "iểm"
      ],
      [
        "VOV",
        "5"
      ],
      [
        "ó",
        "ng"
      ],
      [
        "đó",
        "ng"
      ],
      [
        "6",
        "0"
      ],
      [
        "tr",
        "ợ"
      ],
      [
        "như",
        "ng"
      ],
      [
        "C",
        "ông"
      ],
      [
        "l",
        "ịch"
      ],
      [
        "v",
        "ăn"
      ],
      [
        ")",
        ","
      ],
      [
        "a",
        "d"
      ],
      [
        "đ",
        "ăng"
      ],
      [
        "??",
        "??"
      ],
      [
        "ỗ",
        "i"
      ],
      [
        "Â",
        "u"
      ],
      [
        "mạ",
        "ng"
      ],
      [
        "ế",
        "u"
      ],
      [
        "H",
        "iện"
      ],
      [
        "ồ",
        "i"
      ],
      [
        "D",
        "on"
      ],
      [
        "K",
        "h"
      ],
      [
        "Ô",
        "ng"
      ],
      [
        "G",
        "i"
      ],
      [
        "ĩ",
        "nh"
      ],
      [
        "ẳ",
        "ng"
      ],
      [
        "5",
        "00"
      ],
      [
        "H",
        "o"
      ],
      [
        "t",
        "iến"
      ],
      [
        "đ",
        "ánh"
      ],
      [
        "201",
        "9"
      ],
      [
        "K",
        "ỳ"
      ],
      [
        "tr",
        "ung"
      ],
      [
        "đ",
        "ặc"
      ],
      [
        "th",
        "ủ"
      ],
      [
        "tr",
        "ực"
      ],
      [
        "al",
        "d"
      ],
      [
        "họ",
        "a"
      ],
      [
        "Don",
        "ald"
      ],
      [
        "k",
        "ể"
      ],
      [
        "u",
        "s"
      ],
      [
        "ng",
        "ành"
      ],
      [
        "ph",
        "ần"
      ],
      [
        "E",
        "U"
      ],
      [
        "N",
        "ội"
      ],
      [
        "e",
        "m"
      ],
      [
        "th",
        "ảo"
      ],
      [
        "ẩ",
        "m"
      ],
      [
        "ố",
        "t"
      ],
      [
        "t",
        "ính"
      ],
      [
        "đ",
        "ất"
      ],
      [
        "19",
        "9"
      ],
      [
        "X",
        "II"
      ],
      [
        "L",
        "ào"
      ],
      [
        "th",
        "úc"
      ],
      [
        "gi",
        "áo"
      ],
      [
        "b",
        "ên"
      ],
      [
        "A",
        "nh"
      ],
      [
        "h",
        "oàn"
      ],
      [
        "ồ",
        "n"
      ],
      [
        "b",
        "iển"
      ],
      [
        "b",
        "ản"
      ],
      [
        "i",
        "ê"
      ],
      [
        "l",
        "ợ"
      ],
      [
        "Nh",
        "à"
      ],
      [
        "ẩ",
        "y"
      ],
      [
        "ng",
        "oại"
      ],
      [
        "ne",
        "t"
      ],
      [
        "h",
        "òa"
      ],
      [
        "t",
        "âm"
      ],
      [
        "th",
        "ường"
      ],
      [
        "phá",
        "n"
      ],
      [
        "1",
        "6"
      ],
      [
        "l",
        "ĩnh"
      ],
      [
        "n",
        "ăng"
      ],
      [
        "ch",
        "u"
      ],
      [
        "đị",
        "a"
      ],
      [
        "đà",
        "m"
      ],
      [
        "u",
        "r"
      ],
      [
        "cu",
        "ối"
      ],
      [
        "t",
        "ấn"
      ],
      [
        "đ",
        "ẩy"
      ],
      [
        "Ng",
        "h"
      ],
      [
        "s",
        "ĩ"
      ],
      [
        "Ủ",
        "y"
      ],
      [
        "c",
        "ách"
      ],
      [
        "B",
        "an"
      ],
      [
        "t",
        "ình"
      ],
      [
        "7",
        "0"
      ],
      [
        "B",
        "iển"
      ],
      [
        "đ",
        "ấu"
      ],
      [
        "v",
        "ừa"
      ],
      [
        "đ",
        "ảng"
      ],
      [
        "ỏ",
        "a"
      ],
      [
        "ng",
        "ân"
      ],
      [
        "ph",
        "ẩm"
      ],
      [
        "In",
        "ter"
      ],
      [
        "4",
        "5"
      ],
      [
        "ngh",
        "ệ"
      ],
      [
        "4",
        "0"
      ],
      [
        "g",
        "h"
      ],
      [
        "th",
        "iết"
      ],
      [
        "20",
        "21"
      ],
      [
        "thu",
        "ế"
      ],
      [
        "lu",
        "ận"
      ],
      [
        "kh",
        "í"
      ],
      [
        "Inter",
        "net"
      ],
      [
        "e",
        "s"
      ],
      [
        "ắ",
        "ng"
      ],
      [
        "Ph",
        "áp"
      ],
      [
        "ấ",
        "y"
      ],
      [
        "an",
        "d"
      ],
      [
        "H",
        "iệp"
      ],
      [
        "e",
        "t"
      ],
      [
        "B",
        "ình"
      ],
      [
        "đ",
        "i"
      ],
      [
        "ẩ",
        "n"
      ],
      [
        "l",
        "ao"
      ],
      [
        "chuy",
        "ến"
      ],
      [
        "t",
        "ập"
      ],
      [
        "ch",
        "ung"
      ],
      [
        "c",
        "ứ"
      ],
      [
        "m",
        "á"
      ],
      [
        "lu",
        "ật"
      ],
      [
        "B",
        "a"
      ],
      [
        "g",
        "ồ"
      ],
      [
        "h",
        "út"
      ],
      [
        "uy",
        "ền"
      ],
      [
        "gồ",
        "m"
      ],
      [
        "s",
        "inh"
      ],
      [
        "lợ",
        "i"
      ],
      [
        "l",
        "ễ"
      ],
      [
        "gi",
        "ành"
      ],
      [
        "th",
        "ư"
      ],
      [
        "h",
        "a"
      ],
      [
        "h",
        "ướng"
      ],
      [
        "t",
        "ốc"
      ],
      [
        "ó",
        "m"
      ],
      [
        "v",
        "ẫn"
      ],
      [
        "gi",
        "an"
      ],
      [
        "b",
        "ắt"
      ],
      [
        "Hà",
        "n"
      ],
      [
        "chu",
        "ẩn"
      ],
      [
        "kh",
        "ẳng"
      ],
      [
        "8",
        "0"
      ],
      [
        "ph",
        "òng"
      ],
      [
        "19",
        "7"
      ],
      [
        "i",
        "t"
      ],
      [
        "v",
        "iện"
      ],
      [
        "è",
        "o"
      ],
      [
        "t",
        "ộc"
      ],
      [
        "â",
        "ng"
      ],
      [
        "ngh",
        "èo"
      ],
      [
        "t",
        "ôi"
      ],
      [
        "th",
        "ỏa"
      ],
      [
        "ch",
        "ế"
      ],
      [
        "2",
        "4"
      ],
      [
        "C",
        "o"
      ],
      [
        "ch",
        "iều"
      ],
      [
        "kh",
        "ó"
      ],
      [
        "n",
        "iệm"
      ],
      [
        "l",
        "ý"
      ],
      [
        "đ",
        "ứng"
      ],
      [
        "ạ",
        "m"
      ],
      [
        "2",
        "8"
      ],
      [
        "B",
        "ản"
      ],
      [
        "b",
        "à"
      ],
      [
        "m",
        "ặt"
      ],
      [
        "2",
        "7"
      ],
      [
        "l",
        "ược"
      ],
      [
        "tr",
        "í"
      ],
      [
        "C",
        "u"
      ],
      [
        "T",
        "ính"
      ],
      [
        "c",
        "áo"
      ],
      [
        "ắ",
        "n"
      ],
      [
        "má",
        "y"
      ],
      [
        "đ",
        "ảm"
      ],
      [
        "201",
        "0"
      ],
      [
        "V",
        "ăn"
      ],
      [
        "b",
        "iến"
      ],
      [
        "s",
        "áng"
      ],
      [
        "đ",
        "ường"
      ],
      [
        "Ng",
        "oại"
      ],
      [
        "cả",
        "nh"
      ],
      [
        "ch",
        "ương"
      ],
      [
        "xu",
        "ống"
      ],
      [
        "Nh",
        "ật"
      ],
      [
        "n",
        "âng"
      ],
      [
        "s",
        "u"
      ],
      [
        "đ",
        "iện"
      ],
      [
        "D",
        "I"
      ],
      [
        "a",
        "t"
      ],
      [
        "m",
        "ô"
      ],
      [
        "T",
        "ừ"
      ],
      [
        "t",
        "ài"
      ],
      [
        "..",
        "."
      ],
      [
        "iê",
        "ng"
      ],
      [
        "V",
        "ới"
      ],
      [
        "t",
        "uyên"
      ],
      [
        "Th",
        "ái"
      ],
      [
        "2",
        "3"
      ],
      [
        "M",
        "inh"
      ],
      [
        "n",
        "ội"
      ],
      [
        "ì",
        "n"
      ],
      [
        "cứ",
        "u"
      ],
      [
        "t",
        "on"
      ],
      [
        "tr",
        "uyền"
      ],
      [
        "am",
        "a"
      ],
      [
        "Ngh",
        "ị"
      ],
      [
        "b",
        "ỏ"
      ],
      [
        "b",
        "ao"
      ],
      [
        "ở",
        "i"
      ],
      [
        "F",
        "DI"
      ],
      [
        "t",
        "y"
      ],
      [
        "t",
        "ương"
      ],
      [
        "đ",
        "ặt"
      ],
      [
        "ằ",
        "m"
      ],
      [
        "kh",
        "ác"
      ],
      [
        "m",
        "ỗi"
      ],
      [
        "T",
        "P"
      ],
      [
        "d",
        "ài"
      ],
      [
        "h",
        "ồi"
      ],
      [
        "o",
        "ái"
      ],
      [
        "kh",
        "ách"
      ],
      [
        "ngh",
        "ĩ"
      ],
      [
        "d",
        "u"
      ],
      [
        "qu",
        "ý"
      ],
      [
        "X",
        "u"
      ],
      [
        "ch",
        "í"
      ],
      [
        "2",
        "2"
      ],
      [
        "2",
        "6"
      ],
      [
        "D",
        "ự"
      ],
      [
        "K",
        "inh"
      ],
      [
        "L",
        "u"
      ],
      [
        "i",
        "ng"
      ],
      [
        "o",
        "m"
      ],
      [
        "Đ",
        "ến"
      ],
      [
        "ừ",
        "ng"
      ],
      [
        "d",
        "ư"
      ],
      [
        "h",
        "ết"
      ],
      [
        "m",
        "u"
      ],
      [
        "t",
        "ốt"
      ],
      [
        "tí",
        "n"
      ],
      [
        "H",
        "iến"
      ],
      [
        "h",
        "uy"
      ],
      [
        "b",
        "ằng"
      ],
      [
        "O",
        "b"
      ],
      [
        "s",
        "ong"
      ],
      [
        "ậ",
        "y"
      ],
      [
        "Ob",
        "ama"
      ],
      [
        "v",
        "ị"
      ],
      [
        "I",
        "ran"
      ],
      [
        "h",
        "ỗ"
      ],
      [
        "th",
        "ổ"
      ],
      [
        "ch",
        "úng"
      ],
      [
        "kh",
        "ăn"
      ],
      [
        "thu",
        "ộc"
      ],
      [
        "9",
        "0"
      ],
      [
        "b",
        "a"
      ],
      [
        "c",
        "ực"
      ],
      [
        "s",
        "ở"
      ],
      [
        "D",
        "i"
      ],
      [
        "ư",
        "u"
      ],
      [
        "ả",
        "nh"
      ],
      [
        "ặ",
        "p"
      ],
      [
        "v",
        "ượt"
      ],
      [
        "nh",
        "óm"
      ],
      [
        "nghĩ",
        "a"
      ],
      [
        "S",
        "au"
      ],
      [
        "th",
        "iệt"
      ],
      [
        "th",
        "ắng"
      ],
      [
        "ch",
        "ất"
      ],
      [
        "kh",
        "iến"
      ],
      [
        "H",
        "ồ"
      ],
      [
        "e",
        "x"
      ],
      [
        "i",
        "r"
      ],
      [
        "ể",
        "n"
      ],
      [
        "B",
        "ảo"
      ],
      [
        "19",
        "8"
      ],
      [
        "đà",
        "n"
      ],
      [
        "d",
        "uy"
      ],
      [
        "t",
        "o"
      ],
      [
        "ng",
        "uyên"
      ],
      [
        "th",
        "ấy"
      ],
      [
        "tr",
        "i"
      ],
      [
        "C",
        "ác"
      ],
      [
        "L",
        "an"
      ],
      [
        "g",
        "ặp"
      ],
      [
        "m",
        "ở"
      ],
      [
        "t",
        "a"
      ],
      [
        "đ",
        "ảo"
      ],
      [
        "ệ",
        "n"
      ],
      [
        "D",
        "ương"
      ],
      [
        "l",
        "iệu"
      ],
      [
        "ng",
        "oái"
      ],
      [
        "TP",
        "P"
      ],
      [
        "ạ",
        "ng"
      ],
      [
        "c",
        "am"
      ],
      [
        "ê",
        "m"
      ],
      [
        "ọ",
        "i"
      ],
      [
        "ch",
        "ia"
      ],
      [
        "C",
        "P"
      ],
      [
        "b",
        "ay"
      ],
      [
        "u",
        "ồn"
      ],
      [
        "ư",
        "ng"
      ],
      [
        "tr",
        "ò"
      ],
      [
        "ph",
        "ê"
      ],
      [
        "Ho",
        "a"
      ],
      [
        "t",
        "ầ"
      ],
      [
        "t",
        "ất"
      ],
      [
        "n",
        "ó"
      ],
      [
        "c",
        "k"
      ],
      [
        "n",
        "ổi"
      ],
      [
        "v",
        "ững"
      ],
      [
        "t",
        "iền"
      ],
      [
        "v",
        "ì"
      ],
      [
        "vi",
        "d"
      ],
      [
        "3",
        "5"
      ],
      [
        "B",
        "í"
      ],
      [
        "K",
        "ế"
      ],
      [
        "U",
        "N"
      ],
      [
        "t",
        "ôn"
      ],
      [
        "th",
        "ấp"
      ],
      [
        "ne",
        "s"
      ],
      [
        "M",
        "o"
      ],
      [
        "b",
        "ước"
      ],
      [
        "c",
        "ường"
      ],
      [
        "Ch",
        "í"
      ],
      [
        "Ba",
        "ra"
      ],
      [
        "Lu",
        "ật"
      ],
      [
        "Đ",
        "ối"
      ],
      [
        "ạ",
        "nh"
      ],
      [
        "ur",
        "o"
      ],
      [
        "C",
        "O"
      ],
      [
        "T",
        "ại"
      ],
      [
        "k",
        "ê"
      ],
      [
        "ạ",
        "c"
      ],
      [
        "s",
        "ang"
      ],
      [
        "v",
        "ai"
      ],
      [
        "v",
        "ậy"
      ],
      [
        "Đ",
        "ức"
      ],
      [
        "Tr",
        "ước"
      ],
      [
        "đề",
        "u"
      ],
      [
        "2",
        "9"
      ],
      [
        "X",
        "I"
      ],
      [
        "tr",
        "ẻ"
      ],
      [
        "XII",
        "I"
      ],
      [
        "c",
        "ộng"
      ],
      [
        "l",
        "o"
      ],
      [
        "r",
        "ộng"
      ],
      [
        "ậ",
        "u"
      ],
      [
        "à",
        "u"
      ],
      [
        "ổ",
        "n"
      ],
      [
        "ph",
        "ấn"
      ],
      [
        "mạ",
        "c"
      ],
      [
        "Xu",
        "ân"
      ],
      [
        "b",
        "ang"
      ],
      [
        "í",
        "ch"
      ],
      [
        "th",
        "ôn"
      ],
      [
        "tu",
        "ổi"
      ],
      [
        "h",
        "ạn"
      ],
      [
        "m",
        "ang"
      ],
      [
        "ng",
        "uồn"
      ],
      [
        "th",
        "anh"
      ],
      [
        "l",
        "ượt"
      ],
      [
        "r",
        "õ"
      ],
      [
        "ch",
        "ống"
      ],
      [
        "????",
        "????"
      ],
      [
        "B",
        "r"
      ],
      [
        "T",
        "ổ"
      ],
      [
        "d",
        "ấu"
      ],
      [
        "s",
        "ống"
      ],
      [
        "g",
        "ấp"
      ],
      [
        "tr",
        "ì"
      ],
      [
        "3",
        "00"
      ],
      [
        "T",
        "ây"
      ],
      [
        "T",
        "ấn"
      ],
      [
        "c",
        "ần"
      ],
      [
        "Ph",
        "át"
      ],
      [
        "nó",
        "i"
      ],
      [
        "B",
        "ắc"
      ],
      [
        "b",
        "án"
      ],
      [
        "Đ",
        "ây"
      ],
      [
        "tr",
        "ao"
      ],
      [
        "Di",
        "ễn"
      ],
      [
        "B",
        "áo"
      ],
      [
        "ệ",
        "t"
      ],
      [
        "s",
        "át"
      ],
      [
        "ph",
        "óng"
      ],
      [
        "4",
        "00"
      ],
      [
        "20",
        "25"
      ],
      [
        "đ",
        "a"
      ],
      [
        "đ",
        "ương"
      ],
      [
        "200",
        "9"
      ],
      [
        "Nh",
        "ững"
      ],
      [
        "su",
        "ất"
      ],
      [
        "T",
        "A"
      ],
      [
        "v",
        "òng"
      ],
      [
        "Co",
        "vid"
      ],
      [
        "K",
        "im"
      ],
      [
        "V",
        "ề"
      ],
      [
        "d",
        "ẫn"
      ],
      [
        "k",
        "g"
      ],
      [
        "s",
        "i"
      ],
      [
        "ỏ",
        "i"
      ],
      [
        "ữ",
        "u"
      ],
      [
        "b",
        "ối"
      ],
      [
        "l",
        "l"
      ],
      [
        "v",
        "n"
      ],
      [
        "ph",
        "í"
      ],
      [
        "d",
        "ùng"
      ],
      [
        "nh",
        "ằm"
      ],
      [
        "th",
        "êm"
      ],
      [
        "ch",
        "i"
      ],
      [
        "ngh",
[...]
